<pad>	0
<unk>	0
<bos>	0
<eos>	0
して	-0
った	-1
ある	-2
され	-3
した	-4
する	-5
てい	-6
から	-7
である	-8
こと	-9
られ	-10
ている	-11
(1	-12
として	-13
には	-14
など	-15
その	-16
って	-17
日本	-18
では	-19
によ	-20
とい	-21
とな	-22
時代	-23
もの	-24
この	-25
された	-26
であ	-27
ない	-28
天皇	-29
という	-30
ため	-31
してい	-32
京都	-33
よう	-34
▁1	-35
また	-36
される	-37
にな	-38
われ	-39
いて	-40
)、	-41
とも	-42
これ	-43
ていた	-44
00	-45
であった	-46
▁また	-47
られる	-48
がある	-49
▁この	-50
明治	-51
▁その	-52
している	-53
されている	-54
にお	-55
)。	-56
られた	-57
しか	-58
10	-59
19	-60
まで	-61
れる	-62
江戸	-63
いた	-64
かった	-65
により	-66
それ	-67
れた	-68
によって	-69
藤原	-70
、「	-71
12	-72
とする	-73
っている	-74
▁しか	-75
現在	-76
の一	-77
とは	-78
▁しかし	-79
なく	-80
にも	-81
となった	-82
11	-83
との	-84
による	-85
18	-86
ける	-87
▁19	-88
ことが	-89
あった	-90
元年	-91
もある	-92
幕府	-93
より	-94
(18	-95
と呼	-96
える	-97
▁これ	-98
であり	-99
において	-100
していた	-101
的な	-102
▁「	-103
旧暦	-104
おり	-105
などの	-106
につ	-107
となる	-108
あり	-109
家の	-110
に対	-111
われる	-112
なかった	-113
神社	-114
になった	-115
でも	-116
天皇の	-117
多く	-118
させ	-119
▁大	-120
を受	-121
15	-122
いる	-123
文化	-124
の中	-125
後に	-126
国の	-127
場合	-128
親王	-129
昭和	-130
られている	-131
氏の	-132
ように	-133
めた	-134
けて	-135
ょう	-136
将軍	-137
年に	-138
200	-139
鎌倉	-140
▁『	-141
でき	-142
になる	-143
後の	-144
)-	-145
んだ	-146
13	-147
について	-148
の大	-149
京都市	-150
への	-151
を行	-152
えた	-153
的に	-154
ことを	-155
のは	-156
当時	-157
と呼ば	-158
奈良	-159
20	-160
江戸時代	-161
けた	-162
とされる	-163
人の	-164
める	-165
(15	-166
ために	-167
のみ	-168
平安	-169
16	-170
ともに	-171
14	-172
大臣	-173
徳川	-174
に入	-175
とした	-176
考え	-177
多い	-178
らの	-179
っていた	-180
の子	-181
となり	-182
にある	-183
17	-184
存在	-185
▁-	-186
(16	-187
なお	-188
んで	-189
期の	-190
日本の	-191
))	-192
と言	-193
大学	-194
、『	-195
鉄道	-196
れば	-197
日に	-198
▁一	-199
しい	-200
ような	-201
なが	-202
▁天	-203
とともに	-204
を持	-205
年の	-206
されて	-207
子の	-208
らに	-209
時代の	-210
関係	-211
(19	-212
ことから	-213
学校	-214
めて	-215
だった	-216
▁その後	-217
物語	-218
ころ	-219
足利	-220
なる	-221
..	-222
とき	-223
京都府	-224
以降	-225
▁(	-226
取り	-227
▁なお	-228
行われ	-229
▁明治	-230
戦い	-231
源氏	-232
すること	-233
地方	-234
の名	-235
ただ	-236
▁同	-237
における	-238
しま	-239
と同	-240
」(	-241
寺の	-242
中国	-243
使用	-244
れて	-245
研究	-246
での	-247
世紀	-248
こう	-249
現在の	-250
生ま	-251
まり	-252
ようになった	-253
しく	-254
にあ	-255
信長	-256
(17	-257
▁そ	-258
と考え	-259
きた	-260
納言	-261
25	-262
さらに	-263
30	-264
東京	-265
平安時代	-266
たる	-267
だが	-268
大き	-269
▁18	-270
などを	-271
24	-272
)(	-273
に対して	-274
ると	-275
と呼ばれる	-276
に任	-277
ものである	-278
秀吉	-279
特に	-280
ながら	-281
21	-282
のが	-283
」「	-284
大阪	-285
室町	-286
たち	-287
重要	-288
ではない	-289
下の	-290
歴史	-291
衛門	-292
23	-293
意味	-294
りの	-295
中心	-296
28	-297
ート	-298
すると	-299
があった	-300
、19	-301
があり	-302
月に	-303
皇子	-304
事件	-305
用い	-306
一般	-307
守護	-308
▁本	-309
に関	-310
代目	-311
だけ	-312
えて	-313
の乱	-314
ので	-315
れている	-316
▁日本	-317
政治	-318
朝廷	-319
の娘	-320
大名	-321
)・	-322
政府	-323
者の	-324
については	-325
されていた	-326
バス	-327
したが	-328
としての	-329
うち	-330
武士	-331
織田	-332
地域	-333
時に	-334
)」	-335
文化財	-336
らず	-337
上の	-338
人物	-339
なり	-340
の戦い	-341
近衛	-342
22	-343
できる	-344
をも	-345
朝鮮	-346
藩主	-347
26	-348
和歌	-349
にか	-350
死去	-351
いは	-352
われている	-353
27	-354
仏教	-355
ところ	-356
からの	-357
ただし	-358
設置	-359
わせ	-360
家康	-361
ことは	-362
と称	-363
支配	-364
を見	-365
イン	-366
ター	-367
影響	-368
引き	-369
名は	-370
成立	-371
に出	-372
位下	-373
などが	-374
北条	-375
力を	-376
ではなく	-377
じて	-378
29	-379
これを	-380
間に	-381
多くの	-382
際に	-383
寺院	-384
のち	-385
当時の	-386
共に	-387
京阪	-388
ろう	-389
の神	-390
▁元	-391
としては	-392
したもの	-393
者が	-394
及び	-395
とし	-396
頼朝	-397
のため	-398
人が	-399
となっている	-400
豊臣	-401
およ	-402
を得	-403
のこと	-404
を開	-405
ほど	-406
起こ	-407
立て	-408
利用	-409
は大	-410
ラン	-411
可能	-412
▁正	-413
になり	-414
▁200	-415
させた	-416
伊勢	-417
▁それ	-418
を受け	-419
▁中	-420
ことも	-421
の上	-422
▁これは	-423
ール	-424
を指	-425
後は	-426
代の	-427
かつ	-428
列車	-429
ほか	-430
制度	-431
近江	-432
または	-433
戦争	-434
間の	-435
わり	-436
世界	-437
に移	-438
スト	-439
』(	-440
慶長	-441
のもの	-442
三条	-443
料理	-444
作品	-445
必要	-446
以外	-447
(7	-448
前に	-449
の長	-450
まま	-451
られて	-452
伏見	-453
上げ	-454
国に	-455
を継	-456
の地	-457
▁第	-458
を与	-459
ーム	-460
のように	-461
ってい	-462
なった	-463
を中心	-464
登場	-465
時期	-466
細川	-467
律令	-468
じた	-469
養子	-470
戦国	-471
部分	-472
かれた	-473
)3	-474
が出	-475
なら	-476
▁ただし	-477
家臣	-478
地の	-479
宗の	-480
▁文	-481
▁父	-482
ット	-483
日の	-484
来の	-485
他の	-486
においては	-487
に従	-488
付け	-489
および	-490
の一つ	-491
伝え	-492
代表	-493
指定	-494
不明	-495
古墳	-496
麻呂	-497
京区	-498
であるが	-499
はじ	-500
記録	-501
▁京都	-502
を出	-503
醍醐	-504
わる	-505
者は	-506
前の	-507
貴族	-508
33	-509
▁長	-510
氏は	-511
▁そのため	-512
映画	-513
(8	-514
政権	-515
鎌倉時代	-516
女性	-517
廃止	-518
ぞれ	-519
にて	-520
部の	-521
(10	-522
即位	-523
(186	-524
▁山	-525
▁後	-526
と共に	-527
とされている	-528
50	-529
▁三	-530
兵衛	-531
阿弥	-532
らは	-533
母は	-534
▁現在	-535
の後	-536
)2	-537
足利義	-538
見られる	-539
んど	-540
)4	-541
(14	-542
ゅう	-543
▁そして	-544
記述	-545
が多い	-546
が発	-547
年には	-548
あるいは	-549
同じ	-550
浄土	-551
以後	-552
平成	-553
000	-554
らが	-555
幕府の	-556
天皇が	-557
問題	-558
にあった	-559
を経	-560
参照	-561
いで	-562
社会	-563
白河	-564
太郎	-565
そう	-566
に至	-567
と思	-568
内の	-569
結果	-570
家は	-571
就任	-572
位置	-573
(9	-574
いう	-575
すべ	-576
に対する	-577
させる	-578
ここ	-579
武田	-580
方の	-581
たり	-582
山城	-583
つの	-584
それぞれ	-585
大和	-586
40	-587
んじ	-588
名を	-589
60	-590
以下の	-591
いだ	-592
線の	-593
にかけて	-594
子に	-595
70	-596
▁東	-597
ひと	-598
地に	-599
を行う	-600
。」	-601
もと	-602
中に	-603
まった	-604
公卿	-605
までの	-606
出身	-607
主に	-608
などに	-609
いに	-610
活動	-611
行われた	-612
有力	-613
)1	-614
ものの	-615
を持つ	-616
教育	-617
われた	-618
大正	-619
関東	-620
からは	-621
しば	-622
二条	-623
をつ	-624
系統	-625
舞鶴	-626
らか	-627
中の	-628
三位	-629
九州	-630
といった	-631
松平	-632
道の	-633
名乗	-634
奉行	-635
のである	-636
リー	-637
当初	-638
を通	-639
子が	-640
られていた	-641
家に	-642
▁上	-643
を発	-644
を受けた	-645
ース	-646
荘園	-647
勢力	-648
書紀	-649
信仰	-650
宇治	-651
子は	-652
南北	-653
皇太	-654
菩薩	-655
えば	-656
ほと	-657
対立	-658
有名	-659
食べ	-660
しており	-661
当主	-662
観音	-663
太政	-664
理由	-665
公家	-666
合わせ	-667
高い	-668
なか	-669
ショ	-670
派の	-671
歌舞	-672
に昇	-673
建築	-674
▁江戸時代	-675
分の	-676
のか	-677
文書	-678
、18	-679
はじめ	-680
80	-681
人を	-682
山の	-683
藩の	-684
JR	-685
に分	-686
入れ	-687
しない	-688
美術	-689
ことで	-690
事を	-691
▁小	-692
歳で	-693
市の	-694
▁さらに	-695
▁西	-696
河内	-697
その後	-698
の三	-699
大納言	-700
参加	-701
御所	-702
中央	-703
由来	-704
子を	-705
通り	-706
▁高	-707
にあたる	-708
以上	-709
初代	-710
兄弟	-711
家が	-712
従五	-713
軍の	-714
内容	-715
活躍	-716
皇后	-717
▁だが	-718
不詳	-719
八幡	-720
の死	-721
最初	-722
に仕	-723
かり	-724
であったが	-725
31	-726
歌舞伎	-727
期に	-728
ほとんど	-729
行われる	-730
しょう	-731
▁近	-732
(13	-733
右衛門	-734
的には	-735
にして	-736
のような	-737
になって	-738
合戦	-739
呼ば	-740
本願	-741
時の	-742
とする説	-743
焼き	-744
年間	-745
を用	-746
下に	-747
などで	-748
に対し	-749
言葉	-750
められた	-751
時代に	-752
人は	-753
68	-754
によれば	-755
▁藤原	-756
海道	-757
自身	-758
切り	-759
▁享	-760
90	-761
を務	-762
左衛門	-763
):	-764
▁国	-765
家督	-766
するが	-767
に叙	-768
年代	-769
と考えられている	-770
▁古	-771
大寺	-772
実際	-773
技術	-774
源義	-775
皇族	-776
へと	-777
完成	-778
周辺	-779
挙げ	-780
三郎	-781
第一	-782
まる	-783
よく	-784
丹波	-785
▁平	-786
が開	-787
いず	-788
かつて	-789
天皇は	-790
▁神	-791
交通	-792
嵯峨	-793
せた	-794
どう	-795
事業	-796
設立	-797
帝国	-798
関白	-799
は一	-800
武将	-801
知られる	-802
機関	-803
大きな	-804
67	-805
者を	-806
と呼ぶ	-807
内に	-808
場所	-809
おお	-810
参議	-811
のために	-812
上皇	-813
号は	-814
ものが	-815
鳥羽	-816
▁一方	-817
建立	-818
えられた	-819
事実	-820
出家	-821
▁寛	-822
ック	-823
を作	-824
ていない	-825
▁新	-826
ード	-827
継承	-828
都市	-829
(『	-830
氏が	-831
いわ	-832
源氏物語	-833
▁7	-834
かれ	-835
運転	-836
せる	-837
に伴	-838
奈良県	-839
にした	-840
しまった	-841
)5	-842
神宮	-843
経済	-844
位を	-845
同年	-846
資料	-847
としている	-848
を受けて	-849
会社	-850
重要文化財	-851
伝統	-852
りを	-853
▁翌	-854
形式	-855
現存	-856
の発	-857
日本書紀	-858
中納言	-859
建設	-860
仁親王	-861
かけ	-862
名の	-863
となって	-864
いずれ	-865
かな	-866
に任じ	-867
次男	-868
を指す	-869
の実	-870
派遣	-871
場合は	-872
ートル	-873
運動	-874
天正	-875
監督	-876
したため	-877
の一部	-878
上杉	-879
タン	-880
物の	-881
通称	-882
と同じ	-883
方面	-884
▁同年	-885
万石	-886
地を	-887
したという	-888
35	-889
メートル	-890
69	-891
生活	-892
寺に	-893
目的	-894
日記	-895
歳の	-896
かる	-897
院の	-898
常に	-899
一族	-900
如来	-901
はその	-902
武家	-903
わった	-904
規模	-905
を経て	-906
を結	-907
生まれる	-908
とも言	-909
評価	-910
こともある	-911
の間	-912
と思われる	-913
地下	-914
家を	-915
次郎	-916
思想	-917
法華	-918
ことが多い	-919
最も	-920
じょう	-921
のうち	-922
)8	-923
ゆる	-924
を行った	-925
▁安	-926
時間	-927
内親王	-928
)7	-929
再び	-930
等の	-931
するため	-932
に関する	-933
更に	-934
薩摩	-935
大きく	-936
の方	-937
一方	-938
体制	-939
よりも	-940
によると	-941
コン	-942
全国	-943
戦国時代	-944
人々	-945
計画	-946
文学	-947
世の	-948
建て	-949
特徴	-950
基本	-951
に当	-952
を兼	-953
とう	-954
になると	-955
調査	-956
ホーム	-957
58	-958
じる	-959
存在する	-960
』『	-961
)12	-962
程度	-963
アメ	-964
施設	-965
武天皇	-966
異なる	-967
室町時代	-968
官位	-969
軍は	-970
に改	-971
かれている	-972
定の	-973
▁永	-974
相当	-975
にと	-976
次第	-977
美濃	-978
と考えられる	-979
しまう	-980
生まれた	-981
の変	-982
▁このため	-983
75	-984
認め	-985
▁母は	-986
45	-987
月には	-988
かん	-989
...	-990
)6	-991
を使	-992
真言	-993
やま	-994
43	-995
に加	-996
▁特に	-997
▁8	-998
▁父は	-999
出した	-1000
とされた	-1001
といわれる	-1002
はこの	-1003
としても	-1004
延暦	-1005
路線	-1006
内閣	-1007
領主	-1008
_(	-1009
二位	-1010
これは	-1011
の本	-1012
様々	-1013
大夫	-1014
状態	-1015
わず	-1016
事が	-1017
史料	-1018
されており	-1019
71	-1020
国立	-1021
に転	-1022
セン	-1023
五郎	-1024
所領	-1025
ことに	-1026
神道	-1027
初期	-1028
伝承	-1029
主張	-1030
用いられる	-1031
数の	-1032
反対	-1033
本線	-1034
和歌集	-1035
▁木	-1036
城を	-1037
▁義	-1038
ほぼ	-1039
いが	-1040
表現	-1041
しよう	-1042
阿弥陀	-1043
国宝	-1044
▁こう	-1045
の役	-1046
以前	-1047
に基	-1048
対象	-1049
後期	-1050
維新	-1051
表記	-1052
豊臣秀吉	-1053
小路	-1054
月の	-1055
向か	-1056
やす	-1057
大坂	-1058
になっている	-1059
36	-1060
▁日	-1061
物を	-1062
近代	-1063
政策	-1064
)10	-1065
が残	-1066
現代	-1067
武蔵	-1068
▁京都市	-1069
普通	-1070
飛鳥	-1071
さん	-1072
軍事	-1073
宗教	-1074
父の	-1075
政の	-1076
徳川家	-1077
しくは	-1078
▁北	-1079
編纂	-1080
ション	-1081
いの	-1082
もので	-1083
清盛	-1084
までは	-1085
保存	-1086
御家	-1087
しん	-1088
人に	-1089
権を	-1090
高等	-1091
32	-1092
98	-1093
リカ	-1094
出来	-1095
とされ	-1096
軍を	-1097
源氏の	-1098
100	-1099
たい	-1100
の家	-1101
屋敷	-1102
第二	-1103
せず	-1104
に属	-1105
の中で	-1106
を含	-1107
に基づ	-1108
▁法	-1109
構成	-1110
南北朝	-1111
(118	-1112
することが	-1113
尾張	-1114
受け	-1115
大将	-1116
天台	-1117
打ち	-1118
乗り	-1119
誕生	-1120
とも呼ば	-1121
48	-1122
代将軍	-1123
もあり	-1124
国家	-1125
幕末	-1126
)11	-1127
まれ	-1128
らを	-1129
かに	-1130
道路	-1131
銀行	-1132
ものは	-1133
討ち	-1134
織田信長	-1135
べき	-1136
開業	-1137
ものを	-1138
年不詳	-1139
決定	-1140
がいる	-1141
もあった	-1142
73	-1143
持ち	-1144
に就任	-1145
ライ	-1146
管理	-1147
関西	-1148
つか	-1149
博物	-1150
国司	-1151
プロ	-1152
慶応	-1153
▁9	-1154
と改	-1155
状況	-1156
)9	-1157
ごと	-1158
ほう	-1159
自由	-1160
本願寺	-1161
の弟	-1162
出し	-1163
天文	-1164
くる	-1165
文字	-1166
流れ	-1167
42	-1168
独立	-1169
を取り	-1170
の前	-1171
中で	-1172
毛利	-1173
学者	-1174
元号	-1175
東山	-1176
儀式	-1177
入り	-1178
を示	-1179
通常	-1180
という説	-1181
従四	-1182
直接	-1183
かれる	-1184
広く	-1185
陰陽	-1186
の手	-1187
をと	-1188
電気	-1189
▁2	-1190
整備	-1191
72	-1192
従五位下	-1193
流の	-1194
の際	-1195
大な	-1196
大津	-1197
側の	-1198
リア	-1199
38	-1200
南朝	-1201
大将軍	-1202
ュー	-1203
を参照	-1204
。)	-1205
」、	-1206
を学	-1207
新た	-1208
65	-1209
つつ	-1210
を加	-1211
王朝	-1212
観光	-1213
陸軍	-1214
事記	-1215
皇女	-1216
福知	-1217
49	-1218
述べ	-1219
九条	-1220
攻撃	-1221
博物館	-1222
強い	-1223
書き	-1224
滋賀	-1225
と言う	-1226
を中心に	-1227
▁家	-1228
付近	-1229
条約	-1230
ようになる	-1231
と推	-1232
立ち	-1233
組織	-1234
自然	-1235
発展	-1236
福寺	-1237
平氏	-1238
陸奥	-1239
▁享年	-1240
独自	-1241
が多く	-1242
位上	-1243
舞台	-1244
それを	-1245
徳川家康	-1246
ひとつ	-1247
後白河	-1248
99	-1249
可能性	-1250
のある	-1251
叡山	-1252
97	-1253
34	-1254
主義	-1255
85	-1256
確立	-1257
以外の	-1258
82	-1259
名が	-1260
用の	-1261
と言われている	-1262
とある	-1263
改革	-1264
元の	-1265
寺社	-1266
運行	-1267
いている	-1268
を除	-1269
外国	-1270
95	-1271
様々な	-1272
わけ	-1273
▁そこ	-1274
47	-1275
攻め	-1276
城の	-1277
」、「	-1278
に近	-1279
▁10	-1280
89	-1281
十二	-1282
島津	-1283
落ち	-1284
記念	-1285
販売	-1286
行き	-1287
▁3	-1288
と見	-1289
編成	-1290
之助	-1291
、200	-1292
新聞	-1293
らない	-1294
の主	-1295
吉田	-1296
右大臣	-1297
大社	-1298
以上の	-1299
をか	-1300
をはじめ	-1301
以下	-1302
中将	-1303
吉野	-1304
様に	-1305
生産	-1306
41	-1307
ことになる	-1308
記されている	-1309
立場	-1310
少なく	-1311
37	-1312
丹後	-1313
っても	-1314
くに	-1315
ティ	-1316
福知山	-1317
そこ	-1318
学生	-1319
温泉	-1320
▁後に	-1321
初期の	-1322
東京都	-1323
いわゆる	-1324
km	-1325
の下	-1326
せて	-1327
87	-1328
すな	-1329
生まれ	-1330
国際	-1331
中期	-1332
御門	-1333
初めて	-1334
46	-1335
アメリカ	-1336
国を	-1337
日には	-1338
らく	-1339
のう	-1340
やが	-1341
十三	-1342
が行われ	-1343
の小	-1344
次第に	-1345
全て	-1346
▁昭和	-1347
は不明	-1348
律令制	-1349
84	-1350
の高	-1351
名称	-1352
形成	-1353
末期	-1354
55	-1355
の正	-1356
改正	-1357
地で	-1358
行事	-1359
76	-1360
子孫	-1361
東西	-1362
義経	-1363
賀茂	-1364
できない	-1365
意見	-1366
44	-1367
化した	-1368
ともいう	-1369
地区	-1370
記載	-1371
創建	-1372
形で	-1373
音楽	-1374
ようになり	-1375
せん	-1376
京極	-1377
わち	-1378
方法	-1379
電車	-1380
左大臣	-1381
久保	-1382
僧侶	-1383
やがて	-1384
天平	-1385
登場する	-1386
一条	-1387
公園	-1388
を受ける	-1389
の作	-1390
街道	-1391
京都の	-1392
自動	-1393
▁も	-1394
▁前	-1395
十郎	-1396
中村	-1397
最高	-1398
86	-1399
平家	-1400
河原	-1401
別当	-1402
を担	-1403
上に	-1404
時は	-1405
▁天正	-1406
ント	-1407
方に	-1408
とその	-1409
博士	-1410
桃山	-1411
結婚	-1412
起源	-1413
滋賀県	-1414
古代	-1415
77	-1416
一部	-1417
長の	-1418
96	-1419
まつ	-1420
延喜	-1421
▁4	-1422
いを	-1423
兵庫	-1424
開発	-1425
批判	-1426
皇室	-1427
規定	-1428
はない	-1429
▁生	-1430
キリ	-1431
兵を	-1432
摂津	-1433
太政官	-1434
63	-1435
81	-1436
たら	-1437
石川	-1438
読み	-1439
征夷	-1440
比較	-1441
職を	-1442
所の	-1443
本の	-1444
とみ	-1445
身分	-1446
、1	-1447
保護	-1448
制定	-1449
あまり	-1450
(「	-1451
88	-1452
レー	-1453
目の	-1454
従三位	-1455
西日本	-1456
構造	-1457
59	-1458
体の	-1459
すなわち	-1460
他に	-1461
すべて	-1462
のもと	-1463
けられた	-1464
出雲	-1465
嫡男	-1466
ではないか	-1467
ことがある	-1468
▁6	-1469
土佐	-1470
鎌倉幕府	-1471
次の	-1472
さま	-1473
禁止	-1474
きの	-1475
りに	-1476
営業	-1477
自ら	-1478
ング	-1479
果た	-1480
組み	-1481
を命	-1482
法の	-1483
金剛	-1484
さい	-1485
を求	-1486
リス	-1487
西郷	-1488
重要な	-1489
が大	-1490
氏を	-1491
相続	-1492
ることが	-1493
自分	-1494
江戸幕府	-1495
、2	-1496
シア	-1497
伝説	-1498
に伴い	-1499
んでいる	-1500
多かった	-1501
征夷大将軍	-1502
ージ	-1503
背景	-1504
に至る	-1505
まず	-1506
ければ	-1507
すぐ	-1508
ちな	-1509
まれた	-1510
四条	-1511
念仏	-1512
特別	-1513
と伝え	-1514
していった	-1515
天保	-1516
▁彼	-1517
園寺	-1518
民の	-1519
種類	-1520
を生	-1521
に大	-1522
戦後	-1523
採用	-1524
高野	-1525
内大臣	-1526
なし	-1527
藩士	-1528
専門	-1529
歌人	-1530
近畿	-1531
だけで	-1532
非常に	-1533
ーク	-1534
51	-1535
天王	-1536
cm	-1537
上野	-1538
再建	-1539
39	-1540
系の	-1541
の長男	-1542
宮の	-1543
山県	-1544
越前	-1545
するなど	-1546
79	-1547
上が	-1548
熊野	-1549
導入	-1550
の代	-1551
半島	-1552
詳細	-1553
安置	-1554
と呼ばれ	-1555
・・	-1556
特急	-1557
確認	-1558
ジア	-1559
側に	-1560
の中心	-1561
あら	-1562
げた	-1563
大路	-1564
本尊	-1565
皇位	-1566
一揆	-1567
行政	-1568
光秀	-1569
町の	-1570
寛永	-1571
権大納言	-1572
暗殺	-1573
の一人	-1574
治元年	-1575
学部	-1576
流派	-1577
行の	-1578
62	-1579
これに	-1580
行した	-1581
されたが	-1582
会議	-1583
如元	-1584
に昇叙	-1585
電気鉄道	-1586
▁今	-1587
の国	-1588
違い	-1589
釈迦	-1590
の子孫	-1591
するために	-1592
南北朝時代	-1593
権力	-1594
琵琶	-1595
なども	-1596
ること	-1597
いずれも	-1598
日蓮	-1599
製作	-1600
製造	-1601
▁明	-1602
観世	-1603
においても	-1604
かい	-1605
を図	-1606
強く	-1607
滅亡	-1608
を知	-1609
そのまま	-1610
まだ	-1611
区別	-1612
▁幼	-1613
のお	-1614
蘇我	-1615
込み	-1616
91	-1617
庭園	-1618
芸術	-1619
蔵人	-1620
貿易	-1621
54	-1622
▁建	-1623
々の	-1624
区間	-1625
がない	-1626
、3	-1627
が一	-1628
土地	-1629
島県	-1630
の意	-1631
図書	-1632
百済	-1633
と呼ばれた	-1634
に入り	-1635
74	-1636
管領	-1637
ともい	-1638
▁御	-1639
が進	-1640
古事記	-1641
の影響	-1642
わって	-1643
伊藤	-1644
所在	-1645
しては	-1646
生没	-1647
経営	-1648
を重	-1649
などがある	-1650
にわ	-1651
▁五	-1652
を表	-1653
▁これらの	-1654
だい	-1655
春日	-1656
▁12	-1657
天皇に	-1658
を追	-1659
事務	-1660
以来	-1661
田辺	-1662
したり	-1663
▁旧	-1664
93	-1665
ップ	-1666
協会	-1667
まれる	-1668
始め	-1669
成功	-1670
法を	-1671
に見	-1672
宮内	-1673
たって	-1674
頃から	-1675
ヶ原	-1676
の出	-1677
94	-1678
に際	-1679
をもって	-1680
くら	-1681
台湾	-1682
日本国	-1683
本来	-1684
んでいた	-1685
と言われる	-1686
が高	-1687
を取	-1688
古く	-1689
拡大	-1690
法皇	-1691
開始	-1692
普及	-1693
選組	-1694
に指定	-1695
再興	-1696
呼び	-1697
▁最	-1698
変更	-1699
海軍	-1700
祖父	-1701
経由	-1702
』、『	-1703
作られた	-1704
の御	-1705
タイ	-1706
することを	-1707
長州	-1708
きょう	-1709
立像	-1710
後醍醐	-1711
57	-1712
に帰	-1713
の人	-1714
の原	-1715
信濃	-1716
快速	-1717
甲斐	-1718
を与え	-1719
上洛	-1720
徒歩	-1721
摂関	-1722
が起こ	-1723
伝わる	-1724
清水	-1725
弟の	-1726
▁二	-1727
呼称	-1728
みに	-1729
解釈	-1730
フラン	-1731
92	-1732
たび	-1733
播磨	-1734
のちに	-1735
使われる	-1736
66	-1737
正式	-1738
年は	-1739
旅客	-1740
薬師	-1741
部に	-1742
▁慶長	-1743
を行い	-1744
場合もある	-1745
一の	-1746
伊達	-1747
神戸	-1748
▁一般	-1749
以降は	-1750
子内親王	-1751
ディ	-1752
単位	-1753
崩御	-1754
様の	-1755
明らか	-1756
ャン	-1757
祭神	-1758
(12	-1759
をする	-1760
しき	-1761
などは	-1762
当初は	-1763
太平	-1764
旗本	-1765
方が	-1766
食べる	-1767
道具	-1768
あって	-1769
しの	-1770
ちょう	-1771
83	-1772
げる	-1773
を置	-1774
初め	-1775
統治	-1776
形態	-1777
を名乗	-1778
52	-1779
多数	-1780
撮影	-1781
もしくは	-1782
会津	-1783
勢力を	-1784
▁主	-1785
密教	-1786
豪族	-1787
▁これを	-1788
中宮	-1789
井上	-1790
種の	-1791
できた	-1792
少ない	-1793
▁お	-1794
国守	-1795
幹線	-1796
53	-1797
56	-1798
様式	-1799
動き	-1800
中期の	-1801
山に	-1802
遺跡	-1803
を残	-1804
ラー	-1805
停車	-1806
吉良	-1807
を持ち	-1808
ても	-1809
を一	-1810
冷泉	-1811
三好	-1812
手に	-1813
治承	-1814
烏丸	-1815
▁子に	-1816
天下	-1817
急行	-1818
無い	-1819
長崎	-1820
建物	-1821
間で	-1822
78	-1823
を起こ	-1824
者に	-1825
をした	-1826
地下鉄	-1827
西園寺	-1828
完全	-1829
に参加	-1830
していたが	-1831
アル	-1832
安土	-1833
室町幕府	-1834
シー	-1835
必ず	-1836
▁歴史	-1837
の際に	-1838
後期の	-1839
でもある	-1840
▁しかしながら	-1841
神社の	-1842
くり	-1843
所は	-1844
▁和	-1845
が生	-1846
▁石	-1847
合併	-1848
太政大臣	-1849
ルー	-1850
のも	-1851
道を	-1852
に戻	-1853
大内	-1854
摂政	-1855
者も	-1856
能楽	-1857
隠居	-1858
ヤマ	-1859
近江国	-1860
▁京都府	-1861
に進	-1862
古屋	-1863
真宗	-1864
ラス	-1865
変化	-1866
憲法	-1867
指摘	-1868
造営	-1869
ときに	-1870
まと	-1871
元禄	-1872
っており	-1873
部省	-1874
ところが	-1875
の二	-1876
中世	-1877
交渉	-1878
応永	-1879
歴任	-1880
財政	-1881
左近衛	-1882
▁平安時代	-1883
ごろ	-1884
挙兵	-1885
者として	-1886
教授	-1887
施行	-1888
の命	-1889
連合	-1890
となっていた	-1891
いく	-1892
結び	-1893
が行われた	-1894
かわ	-1895
▁ここ	-1896
アジア	-1897
の内	-1898
が存在	-1899
▁実	-1900
しも	-1901
の日	-1902
を描	-1903
維持	-1904
行動	-1905
を目	-1906
千葉	-1907
▁5	-1908
形の	-1909
殺害	-1910
の養子	-1911
なければ	-1912
ものであった	-1913
64	-1914
後半	-1915
六角	-1916
▁奈良	-1917
ったが	-1918
であると	-1919
が見	-1920
を迎	-1921
醤油	-1922
宣下	-1923
城主	-1924
統一	-1925
蝦夷	-1926
過ぎ	-1927
少将	-1928
福岡	-1929
成立した	-1930
ます	-1931
侍従	-1932
性格	-1933
の中に	-1934
供養	-1935
城に	-1936
記の	-1937
院政	-1938
自らの	-1939
西洋	-1940
鹿児	-1941
、7	-1942
が主	-1943
功績	-1944
中国の	-1945
神の	-1946
行為	-1947
一般的	-1948
比叡山	-1949
大阪府	-1950
)(18	-1951
であろう	-1952
修行	-1953
の戦いで	-1954
▁概	-1955
ロー	-1956
不動	-1957
しゅ	-1958
を祀	-1959
カー	-1960
門院	-1961
サン	-1962
ロッ	-1963
文明	-1964
美術館	-1965
せい	-1966
61	-1967
▁宝	-1968
みの	-1969
実施	-1970
所に	-1971
事に	-1972
十一	-1973
▁江戸	-1974
▁そこで	-1975
を主	-1976
学の	-1977
岩倉	-1978
川の	-1979
関ヶ原	-1980
こととなった	-1981
を許	-1982
山田	-1983
▁当時	-1984
寺は	-1985
軍に	-1986
長男	-1987
り返	-1988
代々	-1989
左右	-1990
既に	-1991
翌年	-1992
自体	-1993
議員	-1994
新選組	-1995
とも呼ばれる	-1996
▁源	-1997
しろ	-1998
古今	-1999
るが	-2000
上で	-2001
▁金	-2002
▁15	-2003
▁現在の	-2004
っていない	-2005
という意味	-2006
盛ん	-2007
追い	-2008
があるが	-2009
どん	-2010
事は	-2011
氏と	-2012
東大寺	-2013
仮名	-2014
門の	-2015
現在は	-2016
を通じて	-2017
三河	-2018
定め	-2019
一方で	-2020
高等学校	-2021
を有	-2022
池田	-2023
を使用	-2024
しなかった	-2025
を辞	-2026
一位	-2027
地蔵	-2028
戦死	-2029
称する	-2030
▁日本の	-2031
っていった	-2032
々に	-2033
いん	-2034
会の	-2035
山科	-2036
討伐	-2037
車両	-2038
権中納言	-2039
所有	-2040
マン	-2041
紀伊	-2042
を開始	-2043
これらの	-2044
おう	-2045
傾向	-2046
指揮	-2047
にとって	-2048
帰国	-2049
常陸	-2050
拠点	-2051
も多い	-2052
らしい	-2053
よし	-2054
を集	-2055
官職	-2056
ていった	-2057
つまり	-2058
官位は	-2059
)(16	-2060
京の	-2061
りが	-2062
を賜	-2063
長は	-2064
センター	-2065
にかけての	-2066
らと	-2067
山口	-2068
太子	-2069
01	-2070
大師	-2071
畠山	-2072
発生	-2073
阪急	-2074
由来する	-2075
子供	-2076
▁11	-2077
などから	-2078
役割	-2079
期間	-2080
例えば	-2081
市川	-2082
新田	-2083
インド	-2084
しばしば	-2085
十六	-2086
名古屋	-2087
,000	-2088
水戸	-2089
面に	-2090
ための	-2091
ならない	-2092
おこ	-2093
宗家	-2094
志社	-2095
もなく	-2096
▁南	-2097
のに	-2098
後も	-2099
最大	-2100
を入	-2101
ステ	-2102
活躍した	-2103
亡く	-2104
登録	-2105
の次男	-2106
兵庫県	-2107
自分の	-2108
江戸時代の	-2109
のを	-2110
最初の	-2111
皇太子	-2112
かく	-2113
に応	-2114
っとも	-2115
すで	-2116
学問	-2117
寿司	-2118
は日本	-2119
毎年	-2120
を支	-2121
文章	-2122
氏に	-2123
焼失	-2124
代藩主	-2125
指導	-2126
男性	-2127
御家人	-2128
武天皇の	-2129
方は	-2130
系図	-2131
の一種	-2132
加賀	-2133
近鉄	-2134
いていた	-2135
07	-2136
地は	-2137
追討	-2138
、12	-2139
を務めた	-2140
らし	-2141
公開	-2142
時には	-2143
なくなった	-2144
られており	-2145
用いられた	-2146
に住	-2147
ダイ	-2148
宇多	-2149
師範	-2150
ざま	-2151
シャ	-2152
国道	-2153
を果た	-2154
図書館	-2155
単に	-2156
室は	-2157
情報	-2158
従四位下	-2159
を下	-2160
頃に	-2161
新しい	-2162
えている	-2163
信玄	-2164
薨去	-2165
電鉄	-2166
が必要	-2167
の上に	-2168
明天皇	-2169
えていた	-2170
▁駅	-2171
伊賀	-2172
木津	-2173
王の	-2174
続く	-2175
-19	-2176
▁木造	-2177
れない	-2178
衰退	-2179
....	-2180
▁下	-2181
勢を	-2182
宮津	-2183
無く	-2184
えない	-2185
率いて	-2186
知られている	-2187
▁松	-2188
▁清	-2189
が入	-2190
よい	-2191
人間	-2192
境内	-2193
比べ	-2194
に近い	-2195
するという	-2196
」。	-2197
まさ	-2198
吾妻	-2199
、10	-2200
(6	-2201
▁以後	-2202
していない	-2203
始めた	-2204
」)	-2205
家老	-2206
寺を	-2207
村上	-2208
祇園	-2209
早く	-2210
続き	-2211
越後	-2212
すれば	-2213
されていない	-2214
ドラ	-2215
外交	-2216
貞観	-2217
させて	-2218
▁このとき	-2219
朝の	-2220
狂言	-2221
神話	-2222
▁こうした	-2223
▁ところが	-2224
伊予	-2225
工業	-2226
制作	-2227
否定	-2228
巻き	-2229
所蔵	-2230
正月	-2231
からも	-2232
を引き	-2233
東海道	-2234
の生	-2235
今川	-2236
に任ぜ	-2237
わりに	-2238
日本酒	-2239
ことになった	-2240
熊本	-2241
が設置	-2242
といわれている	-2243
本山	-2244
を用いる	-2245
に列	-2246
イギ	-2247
師事	-2248
集団	-2249
すでに	-2250
テレ	-2251
保元	-2252
行う	-2253
IC	-2254
人気	-2255
名前	-2256
応仁	-2257
といい	-2258
を立て	-2259
始まり	-2260
末期の	-2261
のことを	-2262
イギリス	-2263
▁承	-2264
つく	-2265
価値	-2266
前期	-2267
百姓	-2268
伝える	-2269
新政府	-2270
説もある	-2271
展開	-2272
条件	-2273
流通	-2274
▁中国	-2275
紹介	-2276
近世	-2277
のひとつ	-2278
裁判	-2279
に任命	-2280
屋根	-2281
復活	-2282
書を	-2283
めている	-2284
▁四	-2285
の元	-2286
の父	-2287
式部	-2288
逆に	-2289
を兼任	-2290
を失	-2291
写本	-2292
出す	-2293
太夫	-2294
復興	-2295
田原	-2296
独自の	-2297
しゃ	-2298
菅原	-2299
までに	-2300
(2	-2301
機能	-2302
蕎麦	-2303
新幹線	-2304
用いる	-2305
込んだ	-2306
▁これが	-2307
編入	-2308
日本に	-2309
源頼朝	-2310
時代には	-2311
関連	-2312
に入ると	-2313
万葉	-2314
全く	-2315
▁更に	-2316
めぐ	-2317
報告	-2318
官の	-2319
小説	-2320
有名な	-2321
を継いだ	-2322
によっては	-2323
全体	-2324
手の	-2325
要求	-2326
設定	-2327
造り	-2328
大久保	-2329
年から	-2330
真言宗	-2331
ふじ	-2332
山崎	-2333
えられ	-2334
旅客鉄道	-2335
位の	-2336
着用	-2337
軍が	-2338
)(17	-2339
えられる	-2340
いち	-2341
ンド	-2342
卒業	-2343
団体	-2344
度の	-2345
するもの	-2346
に当たる	-2347
十八	-2348
空海	-2349
)』	-2350
内で	-2351
四郎	-2352
楽器	-2353
正室	-2354
(115	-2355
(3	-2356
貨幣	-2357
を挙げ	-2358
に残	-2359
を築	-2360
フランス	-2361
佐々	-2362
と名乗	-2363
、5	-2364
積極	-2365
ロシア	-2366
(116	-2367
小野	-2368
東北	-2369
自治	-2370
述の	-2371
追放	-2372
実際には	-2373
分離	-2374
後継	-2375
身を	-2376
▁その他	-2377
合わせて	-2378
の一族	-2379
を継承	-2380
大阪市	-2381
なっている	-2382
ずに	-2383
の女	-2384
世襲	-2385
斯波	-2386
新羅	-2387
を得て	-2388
したのは	-2389
を強	-2390
官人	-2391
教え	-2392
荼羅	-2393
のための	-2394
現在では	-2395
▁これにより	-2396
たか	-2397
と並	-2398
らい	-2399
(117	-2400
奥州	-2401
浅野	-2402
しても	-2403
吾妻鏡	-2404
多くは	-2405
に渡	-2406
古い	-2407
深い	-2408
めていた	-2409
されるようになった	-2410
▁内	-2411
を占	-2412
創設	-2413
テレビ	-2414
たと	-2415
つけ	-2416
別の	-2417
祭り	-2418
近く	-2419
われて	-2420
曼荼羅	-2421
キリスト	-2422
死去した	-2423
クラ	-2424
住宅	-2425
若狭	-2426
伊豆	-2427
坐像	-2428
騒動	-2429
とり	-2430
の遺	-2431
文献	-2432
発行	-2433
笠原	-2434
▁概要	-2435
、8	-2436
が置	-2437
に限	-2438
やく	-2439
落語	-2440
としていた	-2441
をあ	-2442
最古	-2443
運営	-2444
これが	-2445
のほか	-2446
比較的	-2447
生没年不詳	-2448
▁京	-2449
、6	-2450
ンジ	-2451
源頼	-2452
知行	-2453
絵画	-2454
さまざま	-2455
元服	-2456
享保	-2457
大蔵	-2458
駿河	-2459
と推定	-2460
始まる	-2461
最後の	-2462
▁久	-2463
そば	-2464
復帰	-2465
稲荷	-2466
北条氏	-2467
ようである	-2468
、4	-2469
分類	-2470
式の	-2471
右近衛	-2472
に乗	-2473
側近	-2474
刊行	-2475
農民	-2476
▁通称	-2477
行った	-2478
が下	-2479
地頭	-2480
のり	-2481
事情	-2482
女の	-2483
妖怪	-2484
権威	-2485
風の	-2486
04	-2487
みな	-2488
事の	-2489
説明	-2490
配置	-2491
位階	-2492
富士	-2493
政は	-2494
設け	-2495
、15	-2496
北海道	-2497
現存する	-2498
として生まれる	-2499
▁八	-2500
▁墓	-2501
に参	-2502
トン	-2503
掛け	-2504
朝倉	-2505
してきた	-2506
フィ	-2507
差し	-2508
以前の	-2509
▁嘉	-2510
安定	-2511
平安時代の	-2512
京都府京都市	-2513
ファ	-2514
混乱	-2515
諸説	-2516
と号	-2517
周囲	-2518
そして	-2519
の意味	-2520
国立博物館	-2521
色の	-2522
を得た	-2523
知県	-2524
立つ	-2525
の山	-2526
国衙	-2527
息子	-2528
方を	-2529
日条	-2530
茶道	-2531
降伏	-2532
かれて	-2533
の名称	-2534
02	-2535
千代	-2536
平城	-2537
第三	-2538
勝利	-2539
を含む	-2540
同盟	-2541
国は	-2542
放送	-2543
異母	-2544
自害	-2545
警察	-2546
自動車	-2547
の書	-2548
壬申	-2549
形状	-2550
所を	-2551
鞍馬	-2552
すべき	-2553
わない	-2554
駅から	-2555
和泉	-2556
山市	-2557
建造	-2558
あるが	-2559
イス	-2560
バー	-2561
号を	-2562
海外	-2563
ヨー	-2564
交流	-2565
任命	-2566
屋の	-2567
用語	-2568
祭祀	-2569
逸話	-2570
華族	-2571
法華経	-2572
営地下鉄	-2573
侵攻	-2574
処分	-2575
嵐山	-2576
深く	-2577
皇太后	-2578
こそ	-2579
太鼓	-2580
率いる	-2581
せられた	-2582
▁このような	-2583
するようになった	-2584
増加	-2585
の駅	-2586
本拠	-2587
演奏	-2588
菩提	-2589
の場合	-2590
戦国大名	-2591
08	-2592
に一	-2593
兄の	-2594
法人	-2595
聖徳	-2596
▁別	-2597
に置	-2598
天守	-2599
謀反	-2600
開催	-2601
同じく	-2602
を送	-2603
を進	-2604
信頼	-2605
性を	-2606
良い	-2607
黒田	-2608
▁16	-2609
つき	-2610
戦闘	-2611
根拠	-2612
られない	-2613
のことである	-2614
』)	-2615
チェ	-2616
手を	-2617
科学	-2618
(200	-2619
したこと	-2620
▁弘	-2621
▁水	-2622
の四	-2623
ルト	-2624
弟子	-2625
静岡	-2626
たった	-2627
なもの	-2628
ドラマ	-2629
興福寺	-2630
寿永	-2631
明智	-2632
それに	-2633
以降の	-2634
時代から	-2635
ねて	-2636
町に	-2637
許可	-2638
おらず	-2639
絵巻	-2640
著名	-2641
に入る	-2642
に師事	-2643
を示す	-2644
織田信	-2645
キリスト教	-2646
きり	-2647
しょ	-2648
ジャ	-2649
リン	-2650
総合	-2651
通の	-2652
ではなかった	-2653
庶民	-2654
がその	-2655
に入った	-2656
朝鮮半島	-2657
が行われる	-2658
宮中	-2659
新たに	-2660
▁が	-2661
▁宗	-2662
まい	-2663
存続	-2664
数は	-2665
文庫	-2666
道長	-2667
次いで	-2668
けん	-2669
サー	-2670
作成	-2671
切腹	-2672
理解	-2673
の末	-2674
実は	-2675
所属	-2676
田中	-2677
たちは	-2678
の死後	-2679
の記述	-2680
各地に	-2681
がな	-2682
建武	-2683
日野	-2684
氏族	-2685
継が	-2686
製の	-2687
ごとに	-2688
考える	-2689
▁このように	-2690
臨時	-2691
にまで	-2692
を与えた	-2693
が現	-2694
利休	-2695
大仏	-2696
大宮	-2697
永禄	-2698
行な	-2699
との関係	-2700
長い	-2701
にいた	-2702
といえる	-2703
クション	-2704
仏像	-2705
天神	-2706
広が	-2707
来た	-2708
最終	-2709
代当主	-2710
かし	-2711
てん	-2712
具体	-2713
史跡	-2714
改札	-2715
本堂	-2716
村の	-2717
段階	-2718
浅井	-2719
鋳造	-2720
くと	-2721
出版	-2722
天智	-2723
岐阜	-2724
産業	-2725
議会	-2726
ヤマト	-2727
に下	-2728
に通	-2729
失敗	-2730
法律	-2731
▁かつて	-2732
▁※	-2733
クリ	-2734
揚げ	-2735
政務	-2736
にする	-2737
に位置	-2738
続けた	-2739
▁従	-2740
かた	-2741
もん	-2742
光明	-2743
押し	-2744
続け	-2745
が発生	-2746
書かれた	-2747
06	-2748
官僚	-2749
延長	-2750
征伐	-2751
経典	-2752
こうした	-2753
したものである	-2754
の妻	-2755
執権	-2756
生き	-2757
諸国	-2758
ならず	-2759
没した	-2760
とする説もある	-2761
を訪	-2762
シュ	-2763
姓は	-2764
寄進	-2765
攘夷	-2766
重臣	-2767
高倉	-2768
が見られる	-2769
05	-2770
・「	-2771
意識	-2772
長く	-2773
代表的な	-2774
日本では	-2775
▁初	-2776
伝来	-2777
総称	-2778
縁起	-2779
an	-2780
効果	-2781
捨て	-2782
文政	-2783
一門	-2784
原則	-2785
反乱	-2786
和田	-2787
女御	-2788
要素	-2789
にあり	-2790
を抱	-2791
愛宕	-2792
続いた	-2793
することは	-2794
に代	-2795
量の	-2796
ロッパ	-2797
されると	-2798
出された	-2799
かが	-2800
シテ	-2801
基礎	-2802
女子	-2803
々と	-2804
大谷	-2805
明王	-2806
皇帝	-2807
相撲	-2808
補任	-2809
▁この時	-2810
皇位継承	-2811
世に	-2812
今日	-2813
書院	-2814
独特	-2815
盛は	-2816
▁京阪	-2817
かけて	-2818
京都駅	-2819
内裏	-2820
国内	-2821
委員	-2822
方向	-2823
概念	-2824
でない	-2825
などと	-2826
のない	-2827
ヨーロッパ	-2828
であるという	-2829
09	-2830
さら	-2831
県の	-2832
▁13	-2833
を利用	-2834
ざる	-2835
ネル	-2836
畿内	-2837
系譜	-2838
だけでなく	-2839
さか	-2840
権限	-2841
福井	-2842
老中	-2843
左京区	-2844
朝廷の	-2845
交差	-2846
文を	-2847
朝臣	-2848
田の	-2849
、11	-2850
に昇叙し	-2851
亀山	-2852
大神	-2853
広島	-2854
王権	-2855
申し	-2856
大日本	-2857
日本で	-2858
▁当時の	-2859
さえ	-2860
に上	-2861
前国	-2862
大戦	-2863
波羅	-2864
ちなみに	-2865
を招	-2866
大宰	-2867
難波	-2868
高く	-2869
ふじわ	-2870
仲麻呂	-2871
地方の	-2872
元は	-2873
国民	-2874
滅ぼ	-2875
芸能	-2876
たちが	-2877
小学校	-2878
後には	-2879
新たな	-2880
安土桃山	-2881
・『	-2882
学科	-2883
されるが	-2884
者である	-2885
のではないか	-2886
を聞	-2887
命令	-2888
慶喜	-2889
ていく	-2890
続いて	-2891
のだ	-2892
もう	-2893
を授	-2894
坂本	-2895
秀忠	-2896
統合	-2897
長岡	-2898
』)。	-2899
規模な	-2900
務省	-2901
国造	-2902
好み	-2903
定着	-2904
田村	-2905
に転任	-2906
しながら	-2907
からである	-2908
一時	-2909
三重	-2910
下車	-2911
安倍	-2912
秋田	-2913
向かう	-2914
していく	-2915
へ移	-2916
も含	-2917
人口	-2918
正二位	-2919
琵琶湖	-2920
明治維新	-2921
回復	-2922
基盤	-2923
良親王	-2924
に関しては	-2925
03	-2926
コー	-2927
化し	-2928
経緯	-2929
▁仁	-2930
ねた	-2931
の新	-2932
三成	-2933
に相当	-2934
と伝えられる	-2935
テル	-2936
基準	-2937
大友	-2938
やすい	-2939
▁各	-2940
▁白	-2941
チャ	-2942
象徴	-2943
、13	-2944
うどん	-2945
(119	-2946
(4	-2947
▁戦	-2948
たま	-2949
ドイ	-2950
ブル	-2951
出羽	-2952
国人	-2953
装束	-2954
の対象	-2955
を祀る	-2956
到着	-2957
工芸	-2958
指す	-2959
斎藤	-2960
応仁の乱	-2961
でもあった	-2962
原因	-2963
壁画	-2964
浪士	-2965
生の	-2966
総督	-2967
時期に	-2968
▁鎌倉時代	-2969
さまざまな	-2970
メン	-2971
民俗	-2972
発見	-2973
はず	-2974
予定	-2975
国で	-2976
女王	-2977
われていた	-2978
鎌倉時代の	-2979
げん	-2980
を巡	-2981
事態	-2982
石の	-2983
天皇を	-2984
に任じられた	-2985
さを	-2986
はい	-2987
要請	-2988
認識	-2989
近年	-2990
前期の	-2991
次世界	-2992
▁地	-2993
えん	-2994
すぎ	-2995
共同	-2996
安政	-2997
実現	-2998
実質	-2999
書の	-3000
範囲	-3001
▁慶応	-3002
日本紀	-3003
足利尊	-3004
存在した	-3005
▁全	-3006
づけ	-3007
人形	-3008
困難	-3009
親鸞	-3010
じられた	-3011
しているが	-3012
三浦	-3013
展示	-3014
漬け	-3015
部は	-3016
事から	-3017
佐々木	-3018
右京区	-3019
十五	-3020
協力	-3021
山名	-3022
込む	-3023
のみや	-3024
八幡宮	-3025
仙台	-3026
命を	-3027
500	-3028
土御門	-3029
乗車	-3030
作業	-3031
創作	-3032
殿の	-3033
赤松	-3034
▁現在は	-3035
に仕えた	-3036
しみ	-3037
ずる	-3038
りは	-3039
大伴	-3040
武器	-3041
距離	-3042
万葉集	-3043
、9	-3044
きん	-3045
大江	-3046
断絶	-3047
讃岐	-3048
赤穂	-3049
五条	-3050
六条	-3051
責任	-3052
それが	-3053
日本人	-3054
ってきた	-3055
の孫	-3056
の法	-3057
付き	-3058
鉄砲	-3059
家督を	-3060
もち	-3061
前田	-3062
環境	-3063
高速	-3064
▁大阪	-3065
の大き	-3066
薩摩藩	-3067
▁日本では	-3068
わっている	-3069
カツ	-3070
下野	-3071
寛文	-3072
見解	-3073
酒造	-3074
異なり	-3075
▁ア	-3076
尽力	-3077
瑠璃	-3078
目を	-3079
道真	-3080
ドイツ	-3081
ったという	-3082
であったため	-3083
▁開	-3084
住職	-3085
菓子	-3086
食品	-3087
した後	-3088
鹿児島	-3089
出川	-3090
擁立	-3091
政変	-3092
母の	-3093
調理	-3094
農業	-3095
が高い	-3096
されたもの	-3097
まれている	-3098
僧正	-3099
出土	-3100
味噌	-3101
結局	-3102
郵便	-3103
くまで	-3104
りょう	-3105
天武天皇	-3106
?-	-3107
がい	-3108
先に	-3109
将門	-3110
方針	-3111
法が	-3112
献上	-3113
確保	-3114
社の	-3115
義仲	-3116
行幸	-3117
醸造	-3118
しゅう	-3119
に基づく	-3120
▁名	-3121
家と	-3122
完全に	-3123
を提	-3124
花山	-3125
表示	-3126
選ば	-3127
鳥取	-3128
各地で	-3129
▁延	-3130
勧修	-3131
学を	-3132
流行	-3133
小笠原	-3134
修理	-3135
前後	-3136
十四	-3137
正平	-3138
海人	-3139
言い	-3140
輸送	-3141
近藤	-3142
金堂	-3143
を結ぶ	-3144
▁例えば	-3145
平家物語	-3146
きっ	-3147
を襲	-3148
人も	-3149
処刑	-3150
消滅	-3151
譲位	-3152
』・『	-3153
わずか	-3154
担当	-3155
民衆	-3156
覚寺	-3157
上げた	-3158
.5	-3159
ひめ	-3160
宇都	-3161
小さ	-3162
成長	-3163
手が	-3164
筆頭	-3165
記した	-3166
▁官位は	-3167
したがって	-3168
かみ	-3169
但し	-3170
▁大正	-3171
出して	-3172
だったが	-3173
との間に	-3174
始まった	-3175
▁こうして	-3176
室町時代の	-3177
やや	-3178
側室	-3179
商品	-3180
扱い	-3181
漢字	-3182
書いた	-3183
▁ちなみに	-3184
そも	-3185
の軍	-3186
停止	-3187
北朝	-3188
南部	-3189
国へ	-3190
山本	-3191
相模	-3192
定めた	-3193
生年不詳	-3194
まち	-3195
を守	-3196
サイ	-3197
朱雀	-3198
鎮守	-3199
とは別	-3200
を用いた	-3201
になっていた	-3202
茶屋	-3203
説話	-3204
ども	-3205
姿を	-3206
隆盛	-3207
を設置	-3208
に入って	-3209
のみこと	-3210
個人	-3211
合流	-3212
抵抗	-3213
株式	-3214
門跡	-3215
非違	-3216
▁天平	-3217
▁東京	-3218
実際に	-3219
れていた	-3220
文の	-3221
長野	-3222
面積	-3223
優れた	-3224
と称する	-3225
古典	-3226
坂上	-3227
清和	-3228
に取り	-3229
従二位	-3230
ふじわらの	-3231
伽藍	-3232
民間	-3233
をは	-3234
向け	-3235
注意	-3236
論争	-3237
院に	-3238
雑誌	-3239
▁14	-3240
に任官	-3241
継いだ	-3242
に登場する	-3243
er	-3244
▁当	-3245
の五	-3246
師の	-3247
往生	-3248
木造	-3249
言う	-3250
行する	-3251
▁唐	-3252
亀岡	-3253
側は	-3254
北陸	-3255
本格	-3256
▁ただ	-3257
各地の	-3258
同志社	-3259
しようとした	-3260
一郎	-3261
子と	-3262
宗派	-3263
実に	-3264
死亡	-3265
一部の	-3266
京都に	-3267
出身の	-3268
を唱	-3269
横浜	-3270
深草	-3271
集落	-3272
面の	-3273
してしまった	-3274
描かれている	-3275
公方	-3276
後円	-3277
捕ら	-3278
紀州	-3279
カレー	-3280
幕府は	-3281
延暦寺	-3282
検非違	-3283
に属する	-3284
場合には	-3285
検非違使	-3286
こともあり	-3287
できなかった	-3288
てた	-3289
の不	-3290
低い	-3291
受領	-3292
居住	-3293
東宮	-3294
正四	-3295
淀川	-3296
祈願	-3297
▁第二	-3298
正三位	-3299
という言葉	-3300
宿禰	-3301
対応	-3302
点で	-3303
長官	-3304
隆寺	-3305
鳥居	-3306
と称した	-3307
に至った	-3308
浄土真宗	-3309
することで	-3310
らなかった	-3311
もり	-3312
を解	-3313
制の	-3314
地位	-3315
年貢	-3316
日は	-3317
病気	-3318
を意味	-3319
宇都宮	-3320
に従って	-3321
このような	-3322
こともあった	-3323
関ヶ原の戦い	-3324
ナギ	-3325
御用	-3326
支援	-3327
書道	-3328
欧米	-3329
著作	-3330
も多く	-3331
宗の僧	-3332
徳天皇	-3333
摂津国	-3334
伊勢神宮	-3335
を中心とした	-3336
(5	-3337
国鉄	-3338
滞在	-3339
葬儀	-3340
装飾	-3341
連絡	-3342
300	-3343
の三男	-3344
を担当	-3345
一般に	-3346
同時に	-3347
明治政府	-3348
の場	-3349
昇進	-3350
材料	-3351
称号	-3352
養女	-3353
皇子の	-3354
に由来する	-3355
天満	-3356
失脚	-3357
文禄	-3358
機に	-3359
階級	-3360
のちの	-3361
六波羅	-3362
勧修寺	-3363
(133	-3364
いくつか	-3365
けい	-3366
すが	-3367
にし	-3368
の歌	-3369
の門	-3370
ノオ	-3371
元和	-3372
加藤	-3373
宣旨	-3374
沖縄	-3375
石山	-3376
行く	-3377
▁主に	-3378
、14	-3379
称した	-3380
繰り返	-3381
であるため	-3382
は平安時代	-3383
合い	-3384
間は	-3385
」・「	-3386
の祖	-3387
を引	-3388
初の	-3389
前半	-3390
叔父	-3391
書く	-3392
臨済	-3393
記事	-3394
貴重	-3395
過程	-3396
道場	-3397
ランダ	-3398
中学校	-3399
従一位	-3400
日から	-3401
と同時に	-3402
人として	-3403
に就	-3404
制限	-3405
嫡流	-3406
屏風	-3407
来る	-3408
直通	-3409
精神	-3410
補佐	-3411
際には	-3412
▁やがて	-3413
伝統的な	-3414
整理	-3415
管轄	-3416
試験	-3417
鎮圧	-3418
藤原氏	-3419
▁現在では	-3420
が存在する	-3421
てる	-3422
は後	-3423
明確	-3424
養老	-3425
メージ	-3426
についても	-3427
▁他	-3428
を付	-3429
人で	-3430
写真	-3431
出て	-3432
区分	-3433
喜多	-3434
彼女	-3435
支持	-3436
木の	-3437
茶の	-3438
韓国	-3439
▁元禄	-3440
ばかり	-3441
信長の	-3442
に着	-3443
パー	-3444
教の	-3445
病死	-3446
直義	-3447
かなり	-3448
親王の	-3449
積極的に	-3450
あん	-3451
ねる	-3452
ほん	-3453
寛政	-3454
崩壊	-3455
工事	-3456
度は	-3457
本能	-3458
火災	-3459
石を	-3460
結成	-3461
阿波	-3462
山古墳	-3463
の北	-3464
探題	-3465
▁寛永	-3466
世紀末	-3467
多数の	-3468
実際の	-3469
に際して	-3470
司令	-3471
小倉	-3472
検校	-3473
物部	-3474
▁天文	-3475
ともと	-3476
コース	-3477
の中には	-3478
オー	-3479
人と	-3480
壬生	-3481
町通	-3482
伏見宮	-3483
浄瑠璃	-3484
のに対し	-3485
古くから	-3486
▁2007	-3487
ことである	-3488
を与えられた	-3489
で大	-3490
の首	-3491
らせ	-3492
型の	-3493
売り	-3494
拒否	-3495
著書	-3496
、16	-3497
インター	-3498
家である	-3499
(1868	-3500
は無	-3501
太刀	-3502
日付	-3503
準備	-3504
逃げ	-3505
政治的	-3506
暦元年	-3507
▁2006	-3508
キノ	-3509
勅撰	-3510
▁17	-3511
なって	-3512
大和国	-3513
家から	-3514
)(15	-3515
あくまで	-3516
帝国大学	-3517
祖とする	-3518
使節	-3519
判断	-3520
負担	-3521
仏教の	-3522
流れを	-3523
を持った	-3524
必ずしも	-3525
されているが	-3526
が増	-3527
天の	-3528
本は	-3529
狩野	-3530
王子	-3531
知識	-3532
ほどの	-3533
壬申の乱	-3534
大輔	-3535
田市	-3536
等を	-3537
英語	-3538
野村	-3539
を使う	-3540
カード	-3541
ダイヤ	-3542
▁公	-3543
』、	-3544
処理	-3545
創立	-3546
連歌	-3547
郡の	-3548
が死去	-3549
ランド	-3550
北条時	-3551
(120	-3552
共通	-3553
収録	-3554
少し	-3555
座の	-3556
過去	-3557
長者	-3558
の大名	-3559
ずつ	-3560
佐賀	-3561
山は	-3562
市場	-3563
部を	-3564
を持た	-3565
の外	-3566
ーン	-3567
上人	-3568
府県	-3569
持統	-3570
改易	-3571
▁幼名は	-3572
ar	-3573
▁武	-3574
と一	-3575
ナル	-3576
大石	-3577
山陰	-3578
文久	-3579
特殊	-3580
製品	-3581
解説	-3582
いった	-3583
と推測	-3584
ニュー	-3585
イメージ	-3586
形文化財	-3587
の墓	-3588
の花	-3589
尼子	-3590
来は	-3591
発表	-3592
遷都	-3593
邸宅	-3594
開設	-3595
株式会社	-3596
▁定	-3597
を決	-3598
持つ	-3599
法は	-3600
漫画	-3601
物が	-3602
物は	-3603
試み	-3604
部隊	-3605
酒を	-3606
したと	-3607
極めて	-3608
と同様に	-3609
オランダ	-3610
の母	-3611
城県	-3612
川県	-3613
弘仁	-3614
推古	-3615
永正	-3616
総理	-3617
譜代	-3618
四天王	-3619
せられる	-3620
などでは	-3621
▁宮	-3622
▁現	-3623
が強	-3624
とよ	-3625
字は	-3626
年度	-3627
寺の変	-3628
されてきた	-3629
次世界大戦	-3630
阿弥陀如来	-3631
あげ	-3632
元に	-3633
獲得	-3634
目に	-3635
継ぎ	-3636
当時は	-3637
愛知県	-3638
発した	-3639
挙げられる	-3640
▁吉	-3641
ちゃ	-3642
の両	-3643
は高	-3644
中山	-3645
向き	-3646
城下	-3647
寺で	-3648
法令	-3649
消費	-3650
たちの	-3651
山城国	-3652
平安京	-3653
研究所	-3654
人である	-3655
▁その後も	-3656
んな	-3657
土岐	-3658
後国	-3659
逃亡	-3660
途中	-3661
伏見区	-3662
行は	-3663
以後は	-3664
年間に	-3665
秀吉の	-3666
を中心とする	-3667
行われている	-3668
グラ	-3669
宗は	-3670
長が	-3671
に仕え	-3672
の研究	-3673
をもつ	-3674
ことができる	-3675
とも言われる	-3676
▁経	-3677
▁道	-3678
はや	-3679
分け	-3680
箇所	-3681
総裁	-3682
訴訟	-3683
を表す	-3684
独特の	-3685
と同じく	-3686
定められた	-3687
▁広	-3688
さが	-3689
ぞう	-3690
俳優	-3691
女房	-3692
水野	-3693
混ぜ	-3694
町村	-3695
著色	-3696
解体	-3697
説が	-3698
ないし	-3699
もとの	-3700
ことにより	-3701
を行っている	-3702
しむ	-3703
合衆	-3704
状の	-3705
線を	-3706
雅楽	-3707
に従い	-3708
コール	-3709
現在も	-3710
頃には	-3711
いえ	-3712
井伊	-3713
在位	-3714
年齢	-3715
豆腐	-3716
に昇進	-3717
武士の	-3718
と対立	-3719
後鳥羽	-3720
に指定されている	-3721
さは	-3722
どち	-3723
の先	-3724
ヶ月	-3725
酒の	-3726
漢詩	-3727
紀元	-3728
にその	-3729
むしろ	-3730
わらず	-3731
美濃国	-3732
▁つまり	-3733
使用される	-3734
に反	-3735
デル	-3736
不満	-3737
体系	-3738
働き	-3739
同様	-3740
政を	-3741
締結	-3742
義務	-3743
花園	-3744
頭に	-3745
がこの	-3746
年後の	-3747
城は	-3748
民族	-3749
被害	-3750
ったり	-3751
東山区	-3752
複数の	-3753
として知られる	-3754
かず	-3755
ジェ	-3756
モン	-3757
楠木	-3758
権守	-3759
正五	-3760
為に	-3761
習慣	-3762
資格	-3763
間が	-3764
-18	-3765
上京区	-3766
地位を	-3767
師範学校	-3768
)→	-3769
にく	-3770
に迎	-3771
の最	-3772
の東	-3773
前方	-3774
鈴木	-3775
ときは	-3776
められ	-3777
タンゴ	-3778
今出川	-3779
奈良市	-3780
ものであり	-3781
を冠	-3782
戊辰	-3783
議院	-3784
を除く	-3785
月から	-3786
世紀後半	-3787
▁室町時代	-3788
の一つである	-3789
に向	-3790
に留	-3791
住吉	-3792
分野	-3793
商人	-3794
地が	-3795
天明	-3796
水を	-3797
砂糖	-3798
統制	-3799
とおり	-3800
を得る	-3801
使い	-3802
例外	-3803
承久	-3804
疑問	-3805
ルート	-3806
知られ	-3807
が起	-3808
像は	-3809
再度	-3810
包囲	-3811
博多	-3812
実の	-3813
平定	-3814
平野	-3815
張り	-3816
心を	-3817
神祇	-3818
輸入	-3819
隊士	-3820
の中でも	-3821
してしまう	-3822
かは	-3823
なす	-3824
みつ	-3825
パス	-3826
上方	-3827
剣術	-3828
北部	-3829
明院	-3830
注目	-3831
渡来	-3832
配流	-3833
▁天保	-3834
▁永禄	-3835
を設立	-3836
を用いて	-3837
町にある	-3838
と対	-3839
むら	-3840
が成立	-3841
頼朝の	-3842
▁一方で	-3843
▁明治維新	-3844
書かれている	-3845
▁出	-3846
に与	-3847
に似	-3848
作り	-3849
側が	-3850
山内	-3851
性が	-3852
扱う	-3853
敗北	-3854
渡辺	-3855
神は	-3856
認定	-3857
送り	-3858
風土	-3859
延喜式	-3860
されない	-3861
もあるが	-3862
を離	-3863
九郎	-3864
参考	-3865
宝字	-3866
あたり	-3867
だろう	-3868
を継ぐ	-3869
信長は	-3870
古今和歌集	-3871
されていたが	-3872
光の	-3873
光寺	-3874
十分	-3875
収入	-3876
国主	-3877
入れた	-3878
本来の	-3879
▁妻	-3880
学院	-3881
尾上	-3882
法師	-3883
流罪	-3884
若い	-3885
かりの	-3886
ものと	-3887
化する	-3888
豊臣秀	-3889
らも	-3890
嫡子	-3891
学術	-3892
安芸	-3893
絹本	-3894
議論	-3895
金を	-3896
▁JR	-3897
と結婚	-3898
所在地	-3899
詳細は	-3900
したとされる	-3901
を持っていた	-3902
じん	-3903
を保	-3904
を推	-3905
フェ	-3906
内部	-3907
国が	-3908
姉妹	-3909
家庭	-3910
弁当	-3911
歴代	-3912
▁翌年	-3913
をめぐ	-3914
舞鶴市	-3915
っていく	-3916
▁千	-3917
あと	-3918
天狗	-3919
対馬	-3920
思い	-3921
親町	-3922
ならば	-3923
は明治	-3924
大きい	-3925
)「	-3926
使う	-3927
側面	-3928
奉納	-3929
権利	-3930
風習	-3931
▁貞	-3932
三男	-3933
平等	-3934
性の	-3935
競技	-3936
のみならず	-3937
が残っている	-3938
▁これに対して	-3939
かす	-3940
が不	-3941
こく	-3942
ごう	-3943
の直	-3944
キー	-3945
主君	-3946
企業	-3947
依頼	-3948
公式	-3949
商業	-3950
栽培	-3951
留守	-3952
神楽	-3953
設計	-3954
運用	-3955
)、「	-3956
▁同じ	-3957
宮内庁	-3958
(114	-3959
ごく	-3960
でん	-3961
の項	-3962
ひろ	-3963
を大	-3964
片岡	-3965
の存在	-3966
撮影所	-3967
藤原頼	-3968
▁したがって	-3969
に変	-3970
を構	-3971
を着	-3972
名で	-3973
宝暦	-3974
歌合	-3975
浮世	-3976
盛り	-3977
藩は	-3978
近い	-3979
ぎょう	-3980
のなか	-3981
を作る	-3982
マキノ	-3983
初期に	-3984
▁当初は	-3985
を与える	-3986
説がある	-3987
なかったが	-3988
二郎	-3989
死後	-3990
紙本	-3991
将軍家	-3992
を求める	-3993
▁能	-3994
ベル	-3995
原料	-3996
弥生	-3997
拾遺	-3998
掌握	-3999
替え	-4000
男子	-4001
移動	-4002
貴族院	-4003
足利義満	-4004
をしている	-4005
えき	-4006
はり	-4007
らす	-4008
代官	-4009
極楽	-4010
頃の	-4011
▁徳川	-4012
地域の	-4013
従五位上	-4014
場合がある	-4015
だと	-4016
はっ	-4017
みや	-4018
乾燥	-4019
入道	-4020
北家	-4021
国史	-4022
宮に	-4023
役者	-4024
翻訳	-4025
鷹司	-4026
それは	-4027
に引き	-4028
上げる	-4029
きっかけ	-4030
どの	-4031
めの	-4032
丁目	-4033
上演	-4034
及ぶ	-4035
線が	-4036
を務める	-4037
現在でも	-4038
▁両	-4039
▁左	-4040
と大	-4041
なう	-4042
を説	-4043
七条	-4044
仏の	-4045
像を	-4046
対策	-4047
貨物	-4048
酵母	-4049
日本語	-4050
特定の	-4051
められる	-4052
奈良時代	-4053
守護大名	-4054
上総	-4055
主要	-4056
化の	-4057
又は	-4058
減少	-4059
演出	-4060
綱吉	-4061
部卿	-4062
場合が多い	-4063
をはじめとする	-4064
たく	-4065
島の	-4066
植物	-4067
琉球	-4068
神が	-4069
ホテル	-4070
丹波国	-4071
従来の	-4072
系電車	-4073
と称される	-4074
ることができる	-4075
▁光	-4076
▁直	-4077
あた	-4078
を越	-4079
イザ	-4080
キャ	-4081
作の	-4082
執筆	-4083
場で	-4084
知事	-4085
禅宗	-4086
興行	-4087
▁文化	-4088
をして	-4089
事実上	-4090
京都で	-4091
江戸時代に	-4092
フォ	-4093
公使	-4094
利益	-4095
士族	-4096
広い	-4097
生涯	-4098
発掘	-4099
みょう	-4100
を出す	-4101
始める	-4102
たとえば	-4103
末期から	-4104
中華	-4105
力が	-4106
員は	-4107
東寺	-4108
没落	-4109
示す	-4110
遠江	-4111
重文	-4112
ケース	-4113
海人皇子	-4114
鎌倉幕府の	-4115
の事	-4116
パン	-4117
交代	-4118
攻略	-4119
新潟	-4120
比売	-4121
自己	-4122
菊池	-4123
地である	-4124
ためである	-4125
の南	-4126
伝授	-4127
年寄	-4128
長谷	-4129
▁本尊	-4130
しまい	-4131
ついた	-4132
の名前	-4133
すけ	-4134
もし	-4135
外の	-4136
太陽	-4137
撤退	-4138
相互	-4139
違う	-4140
やかな	-4141
作った	-4142
期には	-4143
▁正室は	-4144
奈良時代の	-4145
に譲	-4146
専攻	-4147
役職	-4148
政が	-4149
早世	-4150
様な	-4151
機構	-4152
灌頂	-4153
義の	-4154
ついに	-4155
を形成	-4156
家康は	-4157
陸奥国	-4158
ながらも	-4159
アルコール	-4160
とも言われている	-4161
カン	-4162
会が	-4163
但馬	-4164
北区	-4165
同母	-4166
選挙	-4167
飾り	-4168
と表記	-4169
持明院	-4170
トンネル	-4171
に任じられ	-4172
▁頼	-4173
じゅ	-4174
たけ	-4175
に終	-4176
ウン	-4177
人民	-4178
力の	-4179
参詣	-4180
急速	-4181
振る	-4182
明の	-4183
以後の	-4184
頼朝は	-4185
についての	-4186
らとともに	-4187
on	-4188
こち	-4189
の陣	-4190
スル	-4191
一人	-4192
桜井	-4193
無量	-4194
移転	-4195
道は	-4196
から見	-4197
んじゃ	-4198
徐々に	-4199
それぞれの	-4200
▁六	-4201
の別	-4202
交換	-4203
任官	-4204
多田	-4205
茶碗	-4206
謙信	-4207
▁文久	-4208
のまま	-4209
最大の	-4210
人物である	-4211
の語	-4212
べく	-4213
ヒメ	-4214
儒教	-4215
和服	-4216
橋本	-4217
読む	-4218
りゅう	-4219
大津市	-4220
続日本紀	-4221
設置された	-4222
は不明である	-4223
の時	-4224
下り	-4225
内蔵	-4226
格式	-4227
米の	-4228
般若	-4229
以前に	-4230
以来の	-4231
じられる	-4232
にあって	-4233
戊辰戦争	-4234
▁戦国時代	-4235
かれていた	-4236
▁兄	-4237
の第	-4238
会員	-4239
分割	-4240
判官	-4241
野菜	-4242
まって	-4243
嵯峨野	-4244
最古の	-4245
秀吉は	-4246
であることを	-4247
CA	-4248
▁官	-4249
うえ	-4250
と記	-4251
の丸	-4252
の西	-4253
勧進	-4254
堀川	-4255
和元年	-4256
家として	-4257
明天皇の	-4258
アメリカ合衆	-4259
することとなった	-4260
しが	-4261
に先	-4262
プラ	-4263
上京	-4264
作者	-4265
固定	-4266
御陵	-4267
掲載	-4268
新設	-4269
棟梁	-4270
武者	-4271
盛の	-4272
葛城	-4273
以前は	-4274
同様の	-4275
太平洋	-4276
平清盛	-4277
ものもある	-4278
有名である	-4279
わけではない	-4280
の職	-4281
シン	-4282
制を	-4283
山寺	-4284
弟に	-4285
所が	-4286
期待	-4287
▁大和	-4288
を代表	-4289
入れる	-4290
播磨国	-4291
武蔵国	-4292
2000	-4293
明智光秀	-4294
▁重要文化財	-4295
▁■	-4296
が付	-4297
ばん	-4298
寵愛	-4299
店舗	-4300
石田	-4301
駅前	-4302
▁通常	-4303
に乗り	-4304
という説もある	-4305
の入	-4306
徴収	-4307
牧野	-4308
竹田	-4309
する事	-4310
と言い	-4311
に過ぎ	-4312
を歴任	-4313
▁通称は	-4314
代わりに	-4315
▁佐	-4316
なん	-4317
の字	-4318
わか	-4319
体を	-4320
同士	-4321
折り	-4322
▁享保	-4323
の地位	-4324
はなく	-4325
出来る	-4326
その他の	-4327
その後の	-4328
一般的な	-4329
兼任	-4330
家系	-4331
川宮	-4332
座主	-4333
永久	-4334
注釈	-4335
稲葉	-4336
縄文	-4337
購入	-4338
飛び	-4339
がいた	-4340
高野山	-4341
建てられた	-4342
引用	-4343
技法	-4344
没収	-4345
病院	-4346
真田	-4347
羽柴	-4348
▁治承	-4349
のみで	-4350
を学び	-4351
を見て	-4352
を描いた	-4353
廃止された	-4354
されなかった	-4355
に付	-4356
のぼ	-4357
は不	-4358
万国	-4359
三味	-4360
小松	-4361
相手	-4362
綾部	-4363
蓮華	-4364
長慶	-4365
に移り	-4366
まつり	-4367
守護代	-4368
達した	-4369
を名乗る	-4370
とされるが	-4371
むね	-4372
住民	-4373
光院	-4374
制が	-4375
化粧	-4376
御前	-4377
猿楽	-4378
買い	-4379
▁古く	-4380
の歴史	-4381
を用い	-4382
作られる	-4383
▁巻	-4384
ビス	-4385
下で	-4386
下向	-4387
仁王	-4388
十九	-4389
彼の	-4390
法要	-4391
状に	-4392
部屋	-4393
頭の	-4394
天皇と	-4395
ーション	-4396
っていたが	-4397
に相当する	-4398
っぱ	-4399
をお	-4400
を遂	-4401
スサ	-4402
スタ	-4403
下総	-4404
医学	-4405
姿勢	-4406
復元	-4407
東国	-4408
全国の	-4409
務大臣	-4410
政府は	-4411
激しく	-4412
静岡県	-4413
使用する	-4414
en	-4415
▁青	-4416
を破	-4417
教会	-4418
福島	-4419
身の	-4420
隣接	-4421
を学ぶ	-4422
説には	-4423
と言える	-4424
と名	-4425
国寺	-4426
山藩	-4427
旅団	-4428
松本	-4429
生駒	-4430
目録	-4431
解散	-4432
が開業	-4433
全国に	-4434
にあたり	-4435
▁外	-4436
に含	-4437
の巻	-4438
上記	-4439
儀礼	-4440
所司	-4441
淡路	-4442
評定	-4443
▁名は	-4444
じゅう	-4445
その他	-4446
と呼び	-4447
に編入	-4448
交差点	-4449
江戸城	-4450
明治時代	-4451
?)	-4452
なぎ	-4453
に連	-4454
ダム	-4455
ナー	-4456
場の	-4457
大宝	-4458
天然	-4459
幼少	-4460
廃藩	-4461
排除	-4462
明石	-4463
)(1	-4464
▁現代	-4465
がなく	-4466
の弟子	-4467
内容は	-4468
称される	-4469
述べている	-4470
▁時	-4471
五十	-4472
北野	-4473
千家	-4474
政所	-4475
良く	-4476
諏訪	-4477
高麗	-4478
上皇の	-4479
▁忠	-4480
▁重	-4481
の形	-4482
を奪	-4483
スコ	-4484
区域	-4485
吉川	-4486
立憲	-4487
経の	-4488
さない	-4489
近衛府	-4490
しばらく	-4491
いつ	-4492
かせ	-4493
がみ	-4494
と戦	-4495
を超	-4496
デザ	-4497
埼玉	-4498
少年	-4499
建久	-4500
治安	-4501
調味	-4502
集中	-4503
機関車	-4504
河原町	-4505
かわらず	-4506
に大きな	-4507
の際には	-4508
を模	-4509
ポー	-4510
出た	-4511
周防	-4512
役所	-4513
抜き	-4514
玉葉	-4515
辞職	-4516
すぐに	-4517
でなく	-4518
北近畿	-4519
国家の	-4520
守護職	-4521
諸大名	-4522
はこれを	-4523
ウェ	-4524
会館	-4525
原市	-4526
唯一	-4527
大原	-4528
平の	-4529
未詳	-4530
次ぐ	-4531
芝居	-4532
高松	-4533
キャン	-4534
モデル	-4535
自身が	-4536
認められ	-4537
▁これらは	-4538
ヤマト王権	-4539
おか	-4540
場面	-4541
奉公	-4542
当て	-4543
徳寺	-4544
茶室	-4545
領地	-4546
▁絹本	-4547
に追い	-4548
唯一の	-4549
したのが	-4550
の場合は	-4551
スサノオ	-4552
▁藤	-4553
ろく	-4554
普請	-4555
東海	-4556
蒸気	-4557
見方	-4558
開拓	-4559
なので	-4560
に対応	-4561
に改称	-4562
ソース	-4563
▁すなわち	-4564
と称された	-4565
ものがある	-4566
祀られている	-4567
と呼ばれている	-4568
あき	-4569
きて	-4570
一切	-4571
定か	-4572
戸籍	-4573
改良	-4574
神奈	-4575
討た	-4576
領の	-4577
▁中世	-4578
もまた	-4579
和歌山県	-4580
が生まれた	-4581
に対しては	-4582
に任じられる	-4583
▁土	-4584
▁通	-4585
をし	-4586
カラ	-4587
スペ	-4588
タク	-4589
最澄	-4590
朝日	-4591
根本	-4592
のかみ	-4593
を目指	-4594
中には	-4595
理由に	-4596
程度の	-4597
見える	-4598
するよう	-4599
......	-4600
ともいわれる	-4601
▁花	-4602
ゆく	-4603
免許	-4604
大兄	-4605
大字	-4606
正統	-4607
▁幕末	-4608
かどう	-4609
わかる	-4610
有力な	-4611
本来は	-4612
永元年	-4613
と呼んだ	-4614
向かって	-4615
▁2005	-4616
亡くなった	-4617
付けられた	-4618
残っている	-4619
in	-4620
をさ	-4621
下げ	-4622
加茂	-4623
同一	-4624
山陽	-4625
止め	-4626
石器	-4627
駆け	-4628
▁平成	-4629
取った	-4630
化された	-4631
基本的に	-4632
天皇から	-4633
▁その後は	-4634
は三	-4635
ジョ	-4636
定義	-4637
景勝	-4638
約束	-4639
複雑	-4640
財産	-4641
▁近年	-4642
せられ	-4643
の時代	-4644
ループ	-4645
後円墳	-4646
であれば	-4647
もあって	-4648
に努	-4649
を収	-4650
元々	-4651
平治	-4652
庇護	-4653
と改名	-4654
に出て	-4655
世阿弥	-4656
込んで	-4657
からなる	-4658
に応じて	-4659
するための	-4660
すら	-4661
の木	-4662
らん	-4663
を著	-4664
会は	-4665
労働	-4666
危険	-4667
模様	-4668
蒲生	-4669
貢献	-4670
間を	-4671
天台宗	-4672
藤原忠	-4673
▁子	-4674
いろ	-4675
を奉	-4676
を退	-4677
ズム	-4678
一度	-4679
国会	-4680
在地	-4681
地名	-4682
埋葬	-4683
山町	-4684
消息	-4685
特色	-4686
線は	-4687
遣唐	-4688
▁戦後	-4689
に対抗	-4690
三十三	-4691
蔵人頭	-4692
1000	-4693
神である	-4694
▁その結果	-4695
となったが	-4696
アン	-4697
例は	-4698
和睦	-4699
氏や	-4700
租税	-4701
義貞	-4702
酒屋	-4703
ICO	-4704
スター	-4705
ようとした	-4706
が悪	-4707
に嫁	-4708
不足	-4709
半ば	-4710
堂の	-4711
川市	-4712
心の	-4713
教師	-4714
案内	-4715
諱は	-4716
長尾	-4717
題材	-4718
▁幕府	-4719
▁これら	-4720
従四位上	-4721
ものとして	-4722
タンゴ鉄道	-4723
であったという	-4724
が相	-4725
をう	-4726
中止	-4727
瀬戸	-4728
絵師	-4729
運賃	-4730
選択	-4731
院は	-4732
類似	-4733
高さ	-4734
の家臣	-4735
もない	-4736
列車が	-4737
は日本の	-4738
を学んだ	-4739
ICOCA	-4740
と見られる	-4741
りで	-4742
加工	-4743
危機	-4744
夫婦	-4745
女は	-4746
手で	-4747
本を	-4748
百人	-4749
組合	-4750
わせる	-4751
を始め	-4752
に至るまで	-4753
わし	-4754
を放	-4755
争い	-4756
出兵	-4757
出陣	-4758
宮廷	-4759
家で	-4760
彫刻	-4761
意図	-4762
提出	-4763
教団	-4764
残る	-4765
没後	-4766
目は	-4767
結城	-4768
郡司	-4769
かない	-4770
ここで	-4771
を主張	-4772
付ける	-4773
平氏の	-4774
であって	-4775
京都市営地下鉄	-4776
▁信	-4777
▁市	-4778
ちに	-4779
っと	-4780
に流	-4781
ゆう	-4782
タケ	-4783
ッチ	-4784
万円	-4785
乳母	-4786
伊東	-4787
小判	-4788
政党	-4789
獅子	-4790
群馬	-4791
に比べ	-4792
わせて	-4793
幕府に	-4794
西園寺公	-4795
であっても	-4796
がる	-4797
作曲	-4798
像が	-4799
投げ	-4800
歌を	-4801
法然	-4802
皇居	-4803
鴨川	-4804
▁平安	-4805
この時	-4806
は京都	-4807
まれて	-4808
京極高	-4809
営バス	-4810
最初に	-4811
福岡県	-4812
▁西日本	-4813
▁原	-4814
が加	-4815
を避	-4816
取る	-4817
改元	-4818
築城	-4819
終了	-4820
辞任	-4821
金の	-4822
顧問	-4823
、17	-4824
に尽力	-4825
を作り	-4826
を目的	-4827
一族の	-4828
藤原定	-4829
関係の	-4830
物である	-4831
ではあるが	-4832
ろん	-4833
を去	-4834
を渡	-4835
仁和	-4836
家族	-4837
少輔	-4838
弾圧	-4839
復古	-4840
派は	-4841
表面	-4842
」(『	-4843
つなが	-4844
事件の	-4845
太平記	-4846
岡山県	-4847
最後に	-4848
楠木正	-4849
きている	-4850
サービス	-4851
たん	-4852
に敗	-4853
人公	-4854
修験	-4855
勅使	-4856
動員	-4857
参拝	-4858
品種	-4859
恩賞	-4860
皇統	-4861
秩序	-4862
の部分	-4863
を建立	-4864
全ての	-4865
その後も	-4866
の中では	-4867
物として	-4868
ていなかった	-4869
の道	-4870
ゆき	-4871
を脱	-4872
僧都	-4873
共和	-4874
土器	-4875
尽く	-4876
年頃	-4877
延び	-4878
標高	-4879
王は	-4880
禅寺	-4881
連盟	-4882
駅の	-4883
が盛ん	-4884
多くが	-4885
現れた	-4886
神社に	-4887
風土記	-4888
▁海	-4889
さき	-4890
ぼう	-4891
キロ	-4892
スー	-4893
応の	-4894
業務	-4895
洞院	-4896
過ご	-4897
から離	-4898
の方が	-4899
を辞任	-4900
露戦争	-4901
を持って	-4902
が与	-4903
ぜん	-4904
ふる	-4905
りと	-4906
を防	-4907
体は	-4908
大橋	-4909
女が	-4910
安堵	-4911
日常	-4912
松竹	-4913
できず	-4914
後世の	-4915
自身の	-4916
を開いた	-4917
つね	-4918
はる	-4919
レン	-4920
因幡	-4921
早川	-4922
木村	-4923
正確	-4924
行を	-4925
襲撃	-4926
親の	-4927
龍馬	-4928
法親王	-4929
衆議院	-4930
詠んだ	-4931
んじょう	-4932
専門学校	-4933
▁康	-4934
▁歌	-4935
と評	-4936
に寄	-4937
に陥	-4938
クロ	-4939
一番	-4940
光は	-4941
力は	-4942
十七	-4943
措置	-4944
日光	-4945
▁号は	-4946
▁安政	-4947
と改称	-4948
にも関	-4949
伊勢国	-4950
数多く	-4951
河内国	-4952
グループ	-4953
められている	-4954
▁政	-4955
▁春	-4956
いっ	-4957
に同	-4958
ゆえ	-4959
カル	-4960
ダー	-4961
園城	-4962
太秦	-4963
宣言	-4964
数が	-4965
斬り	-4966
松井	-4967
等が	-4968
に移転	-4969
正親町	-4970
氏の祖	-4971
は京都市	-4972
も存在する	-4973
を代表する	-4974
であることから	-4975
なければならない	-4976
さで	-4977
住居	-4978
判明	-4979
台頭	-4980
弘安	-4981
徹底	-4982
振り	-4983
村田	-4984
男爵	-4985
の下に	-4986
一定の	-4987
死んだ	-4988
▁山号は	-4989
事実上の	-4990
▁相	-4991
いと	-4992
おく	-4993
マイ	-4994
倒幕	-4995
八郎	-4996
取引	-4997
岡崎	-4998
行が	-4999
選定	-5000
やその	-5001
公家の	-5002
女性の	-5003
将軍の	-5004
(113	-5005
デザイン	-5006
合わせた	-5007
発生した	-5008
使用された	-5009
1.	-5010
しげ	-5011
一向	-5012
一帯	-5013
地元	-5014
大陸	-5015
後藤	-5016
神事	-5017
紅葉	-5018
衝突	-5019
▁但し	-5020
が完成	-5021
と同一	-5022
に分類	-5023
常陸国	-5024
立った	-5025
立てた	-5026
広まった	-5027
総理大臣	-5028
に基づいて	-5029
に赴	-5030
テー	-5031
マー	-5032
三代	-5033
勢は	-5034
日向	-5035
旧制	-5036
格は	-5037
猶子	-5038
神仏	-5039
門徒	-5040
ないが	-5041
の間に	-5042
を発表	-5043
とも言う	-5044
を率いて	-5045
流れを汲	-5046
使われている	-5047
▁有	-5048
▁略	-5049
▁真	-5050
エル	-5051
上下	-5052
八条	-5053
天照	-5054
工場	-5055
文治	-5056
書状	-5057
独占	-5058
田川	-5059
童子	-5060
の間で	-5061
を図る	-5062
システ	-5063
周辺の	-5064
』(19	-5065
に仕える	-5066
▁2008	-5067
ことも多い	-5068
al	-5069
光が	-5070
切る	-5071
古来	-5072
含む	-5073
成人	-5074
方丈	-5075
行列	-5076
複数	-5077
返し	-5078
通信	-5079
に分け	-5080
に成功	-5081
の結果	-5082
をつと	-5083
従兄弟	-5084
応元年	-5085
武家の	-5086
浄土宗	-5087
正四位下	-5088
本能寺の変	-5089
となっており	-5090
HK	-5091
▁黒	-5092
アイ	-5093
大乗	-5094
家紋	-5095
義満	-5096
警備	-5097
遊び	-5098
願い	-5099
首都	-5100
と同様	-5101
もその	-5102
プロダ	-5103
システム	-5104
(1869	-5105
▁江戸時代には	-5106
が流	-5107
じゃ	-5108
中島	-5109
司法	-5110
吉備	-5111
君主	-5112
太田	-5113
彦根	-5114
待遇	-5115
承和	-5116
朝は	-5117
東洋	-5118
陽成	-5119
NHK	-5120
▁本堂	-5121
ちゅう	-5122
つけた	-5123
付けた	-5124
塚古墳	-5125
貴重な	-5126
ったもの	-5127
ではないが	-5128
に生まれる	-5129
at	-5130
▁無	-5131
が分	-5132
こん	-5133
づく	-5134
に接	-5135
を称	-5136
並び	-5137
先の	-5138
各地	-5139
庶流	-5140
斎宮	-5141
正面	-5142
水尾	-5143
長さ	-5144
およそ	-5145
しつつ	-5146
に伴う	-5147
ッシュ	-5148
大学の	-5149
尾張国	-5150
逃れた	-5151
を有する	-5152
次のように	-5153
けば	-5154
さだ	-5155
の宮	-5156
をた	-5157
セス	-5158
保持	-5159
創始	-5160
居城	-5161
島根	-5162
弓矢	-5163
弥勒	-5164
忠臣	-5165
武力	-5166
立た	-5167
素材	-5168
金属	-5169
にもか	-5170
福井県	-5171
郵便局	-5172
たびたび	-5173
ていたが	-5174
大規模な	-5175
正五位下	-5176
一般的である	-5177
▁七	-5178
▁寺	-5179
を手	-5180
を負	-5181
ヒー	-5182
換え	-5183
書写	-5184
松尾	-5185
父は	-5186
物や	-5187
舞踊	-5188
芹沢	-5189
伊藤博	-5190
となるが	-5191
▁豊	-5192
やり	-5193
像の	-5194
城郭	-5195
布教	-5196
忠は	-5197
本多	-5198
製法	-5199
電化	-5200
とあり	-5201
を建て	-5202
同様に	-5203
立って	-5204
こととなる	-5205
▁入	-5206
せよ	-5207
の進	-5208
エピ	-5209
一覧	-5210
勝宝	-5211
子爵	-5212
家元	-5213
山形	-5214
幕臣	-5215
年を	-5216
教義	-5217
方式	-5218
本社	-5219
次に	-5220
突き	-5221
附属	-5222
駅で	-5223
高槻	-5224
やはり	-5225
ソード	-5226
ネット	-5227
視する	-5228
使われた	-5229
室町幕府の	-5230
以下のように	-5231
プロダクション	-5232
▁川	-5233
▁晩	-5234
▁竹	-5235
りん	-5236
を設	-5237
を連	-5238
信は	-5239
奉還	-5240
慣習	-5241
盛が	-5242
説は	-5243
近臣	-5244
くなる	-5245
を置く	-5246
バス停	-5247
岐阜県	-5248
市にある	-5249
に位置する	-5250
エピソード	-5251
影響を与えた	-5252
▁右	-5253
がり	-5254
下級	-5255
代に	-5256
低下	-5257
山水	-5258
現象	-5259
番線	-5260
筑紫	-5261
経験	-5262
郎党	-5263
開通	-5264
▁主な	-5265
ここに	-5266
もこの	-5267
千葉県	-5268
小田原	-5269
政治家	-5270
朝廷に	-5271
をもたら	-5272
無かった	-5273
は江戸時代	-5274
を冠称する	-5275
福電気鉄道	-5276
がわ	-5277
カバ	-5278
一つ	-5279
伯爵	-5280
兵士	-5281
延伸	-5282
後述	-5283
成の	-5284
編集	-5285
遺産	-5286
閑院	-5287
の乱で	-5288
三条西	-5289
死した	-5290
遣唐使	-5291
(124	-5292
しんのう	-5293
もっとも	-5294
描かれた	-5295
にわたって	-5296
をしていた	-5297
を果たした	-5298
しようとする	-5299
に遭	-5300
トル	-5301
介入	-5302
備前	-5303
四国	-5304
大隈	-5305
工夫	-5306
提供	-5307
書は	-5308
永享	-5309
蓮如	-5310
)、『	-5311
伝えた	-5312
埼玉県	-5313
宮内省	-5314
寺院の	-5315
廃藩置	-5316
摂関家	-5317
チェンジ	-5318
一般的に	-5319
みなもとの	-5320
▁人	-5321
▁酒	-5322
▁阿	-5323
おき	-5324
オリ	-5325
信任	-5326
公領	-5327
名誉	-5328
国府	-5329
宝永	-5330
当然	-5331
感じ	-5332
故実	-5333
救済	-5334
芸妓	-5335
部が	-5336
▁そう	-5337
三条実	-5338
と言った	-5339
を意味する	-5340
考えられる	-5341
以下のような	-5342
平安時代中期の	-5343
インターチェンジ	-5344
を勤	-5345
を移	-5346
再開	-5347
反発	-5348
奉仕	-5349
定期	-5350
寄せ	-5351
描写	-5352
沙汰	-5353
王が	-5354
重塔	-5355
ようやく	-5356
地として	-5357
▁かつては	-5358
▁若	-5359
はん	-5360
を頼	-5361
メー	-5362
上は	-5363
久我	-5364
事で	-5365
木戸	-5366
殿は	-5367
考案	-5368
試合	-5369
離宮	-5370
風俗	-5371
の名は	-5372
激しい	-5373
するのは	-5374
(1867	-5375
でありながら	-5376
なかったため	-5377
かの	-5378
が重	-5379
の葉	-5380
れい	-5381
わす	-5382
ネマ	-5383
三年	-5384
信の	-5385
切れ	-5386
割り	-5387
味方	-5388
文は	-5389
条例	-5390
説を	-5391
金銀	-5392
だけの	-5393
を打ち	-5394
クター	-5395
下京区	-5396
紀元前	-5397
じている	-5398
殺された	-5399
によるもの	-5400
江戸幕府の	-5401
元弘	-5402
光厳	-5403
祭礼	-5404
者と	-5405
連の	-5406
▁初代	-5407
に変更	-5408
の子で	-5409
京都線	-5410
信濃国	-5411
厳しい	-5412
大宰府	-5413
次々と	-5414
臨済宗	-5415
鉄道駅	-5416
長州藩	-5417
伝わった	-5418
したことから	-5419
を受けている	-5420
することになった	-5421
の要	-5422
らう	-5423
を踏	-5424
年月	-5425
構想	-5426
胡弓	-5427
▁松平	-5428
▁関西	-5429
の成立	-5430
改めて	-5431
源義経	-5432
込まれた	-5433
ことが多く	-5434
▁このことから	-5435
めん	-5436
を討	-5437
ワイ	-5438
之丞	-5439
分家	-5440
勃発	-5441
堀河	-5442
態度	-5443
慣例	-5444
朱子	-5445
検討	-5446
祈祷	-5447
範頼	-5448
ことや	-5449
の正室	-5450
らせた	-5451
丹後国	-5452
用いた	-5453
親王が	-5454
指摘されている	-5455
が通	-5456
ご飯	-5457
の平	-5458
の音	-5459
ぶん	-5460
を以	-5461
を打	-5462
ヴァ	-5463
上り	-5464
候補	-5465
塔頭	-5466
山縣	-5467
披露	-5468
数え	-5469
東南	-5470
足軽	-5471
迎え	-5472
▁まず	-5473
の前身	-5474
代表作	-5475
必要な	-5476
成した	-5477
諸国の	-5478
じんじゃ	-5479
を祖とする	-5480
京阪電気鉄道	-5481
○○	-5482
がく	-5483
ふさ	-5484
を問	-5485
バイ	-5486
一首	-5487
中は	-5488
主な	-5489
事例	-5490
内藤	-5491
初頭	-5492
宗が	-5493
払い	-5494
曾孫	-5495
柴田	-5496
職業	-5497
館の	-5498
▁以降	-5499
のりば	-5500
シタン	-5501
・・・	-5502
三重県	-5503
保元年	-5504
福寺の	-5505
▁墓所は	-5506
につなが	-5507
ラーメン	-5508
必要がある	-5509
西日本旅客鉄道	-5510
▁梅	-5511
に命	-5512
の水	-5513
三井	-5514
収集	-5515
品の	-5516
成り	-5517
経路	-5518
職務	-5519
記す	-5520
郷土	-5521
開祖	-5522
関与	-5523
限り	-5524
400	-5525
▁のち	-5526
が開始	-5527
を挙げた	-5528
確立した	-5529
起こった	-5530
▁もっとも	-5531
京都市左京区	-5532
▁円	-5533
▁多	-5534
の石	-5535
ウス	-5536
丁銀	-5537
仕え	-5538
受賞	-5539
各種	-5540
国分	-5541
有の	-5542
画家	-5543
神を	-5544
稽古	-5545
陽明	-5546
駅に	-5547
、20	-5548
ことの	-5549
これら	-5550
の一環	-5551
小さな	-5552
正式に	-5553
江戸の	-5554
点から	-5555
群馬県	-5556
それまで	-5557
廃藩置県	-5558
発展した	-5559
足利義昭	-5560
鹿児島県	-5561
(1863	-5562
キリシタン	-5563
大日本帝国	-5564
飛鳥時代の	-5565
にもかかわらず	-5566
されたものである	-5567
--	-5568
▁保	-5569
▁母	-5570
あい	-5571
のぶ	-5572
中臣	-5573
太上	-5574
姫路	-5575
弁官	-5576
弾正	-5577
性は	-5578
板垣	-5579
武術	-5580
歩兵	-5581
水系	-5582
派が	-5583
特定	-5584
留学	-5585
発酵	-5586
綱は	-5587
習合	-5588
臣籍	-5589
自宅	-5590
長政	-5591
黄砂	-5592
▁細川	-5593
の支配	-5594
もともと	-5595
▁福	-5596
オオ	-5597
史上	-5598
呼ぶ	-5599
平は	-5600
文様	-5601
生母	-5602
発着	-5603
紙を	-5604
覧会	-5605
した際	-5606
の中央	-5607
の嫡男	-5608
ライス	-5609
化して	-5610
現れる	-5611
を迎える	-5612
公卿に列	-5613
と記されている	-5614
かね	-5615
デン	-5616
ヒコ	-5617
口は	-5618
回り	-5619
戦を	-5620
抗争	-5621
文永	-5622
殿に	-5623
番組	-5624
継続	-5625
者や	-5626
開山	-5627
駅は	-5628
▁当初	-5629
の藤原	-5630
岩倉具	-5631
年まで	-5632
研究科	-5633
著名な	-5634
▁それは	-5635
東京大学	-5636
で知られる	-5637
とされていた	-5638
することになる	-5639
or	-5640
ふく	-5641
オン	-5642
テン	-5643
万人	-5644
三人	-5645
単独	-5646
姫命	-5647
学習	-5648
往復	-5649
我が	-5650
肖像	-5651
道に	-5652
金沢	-5653
領国	-5654
鵜飼	-5655
▁文政	-5656
仕えた	-5657
不動明王	-5658
のみである	-5659
伝わっている	-5660
ざん	-5661
に遷	-5662
令制	-5663
創業	-5664
千手	-5665
半分	-5666
古河	-5667
員が	-5668
嘉永	-5669
書に	-5670
機械	-5671
番号	-5672
の関係	-5673
三十六	-5674
切った	-5675
列車は	-5676
制度を	-5677
鎮守府	-5678
はっきり	-5679
聖徳太子	-5680
したもので	-5681
などを歴任	-5682
することができる	-5683
▁十	-5684
しを	-5685
どこ	-5686
レス	-5687
交易	-5688
位は	-5689
出仕	-5690
夫人	-5691
容易	-5692
市に	-5693
市内	-5694
年中	-5695
成果	-5696
朽木	-5697
焼酎	-5698
社長	-5699
高島	-5700
が残る	-5701
出家し	-5702
菅原道真	-5703
に任ぜられる	-5704
ic	-5705
▁茶	-5706
さず	-5707
みず	-5708
並べ	-5709
住持	-5710
圧倒	-5711
妙法	-5712
帰京	-5713
掲げ	-5714
目で	-5715
繁栄	-5716
親交	-5717
降り	-5718
いない	-5719
に従事	-5720
十一面	-5721
東西線	-5722
源氏は	-5723
醍醐寺	-5724
▁この頃	-5725
るという	-5726
を継いで	-5727
後期から	-5728
翌年には	-5729
▁西日本旅客鉄道	-5730
es	-5731
▁岩	-5732
を伴	-5733
を施	-5734
アー	-5735
トリ	-5736
保管	-5737
合う	-5738
天慶	-5739
官司	-5740
恐れ	-5741
津川	-5742
甲賀	-5743
確定	-5744
立命	-5745
衣装	-5746
語の	-5747
車庫	-5748
連携	-5749
饅頭	-5750
▁諱は	-5751
の日本	-5752
ばれる	-5753
を務め	-5754
使われ	-5755
清戦争	-5756
町奉行	-5757
▁のちに	-5758
ることを	-5759
かえ	-5760
すと	-5761
どり	-5762
ぶつ	-5763
ビル	-5764
佐久	-5765
倭国	-5766
医師	-5767
外戚	-5768
役の	-5769
最近	-5770
本家	-5771
等に	-5772
親は	-5773
長浜	-5774
降下	-5775
陵墓	-5776
馬場	-5777
高市	-5778
▁20	-5779
を支配	-5780
センチ	-5781
可能な	-5782
家康の	-5783
日本は	-5784
美しい	-5785
翌年に	-5786
陰陽師	-5787
を使った	-5788
したことが	-5789
天皇の皇子	-5790
、(	-5791
さと	-5792
の天	-5793
坂東	-5794
将来	-5795
戦乱	-5796
捕縛	-5797
義昭	-5798
自殺	-5799
芭蕉	-5800
説に	-5801
逮捕	-5802
672	-5803
とは言	-5804
にとど	-5805
をおこ	-5806
自身も	-5807
のもとで	-5808
独立した	-5809
用いられ	-5810
(1871	-5811
したものの	-5812
is	-5813
▁万	-5814
▁手	-5815
元老	-5816
公法	-5817
地歌	-5818
実在	-5819
布告	-5820
法主	-5821
由良	-5822
短い	-5823
第四	-5824
記紀	-5825
されず	-5826
兄弟に	-5827
務めた	-5828
年後に	-5829
徳大寺	-5830
出家して	-5831
功により	-5832
葬られた	-5833
可能である	-5834
用いられている	-5835
▁先	-5836
▁尊	-5837
べし	-5838
アク	-5839
ッド	-5840
公事	-5841
六位	-5842
南都	-5843
天武	-5844
度も	-5845
後世	-5846
成し	-5847
成分	-5848
房の	-5849
費用	-5850
需要	-5851
駅を	-5852
の武将	-5853
出する	-5854
長野県	-5855
▁これに	-5856
コーヒー	-5857
タクシー	-5858
▁明治時代	-5859
▁絹本著色	-5860
に就任した	-5861
行われていた	-5862
ha	-5863
▁作	-5864
トラ	-5865
久世	-5866
元が	-5867
前で	-5868
嘗祭	-5869
慶安	-5870
援助	-5871
日を	-5872
流は	-5873
涅槃	-5874
紛争	-5875
規制	-5876
軌道	-5877
遺構	-5878
部門	-5879
-12	-5880
▁以下	-5881
▁古代	-5882
▁寛文	-5883
に復帰	-5884
グラム	-5885
時期は	-5886
藤原師	-5887
に基づき	-5888
を築いた	-5889
を迎えた	-5890
天平宝字	-5891
されたため	-5892
▁伊	-5893
があ	-5894
が終	-5895
ぶり	-5896
一旦	-5897
主演	-5898
価格	-5899
文が	-5900
明け	-5901
明神	-5902
歌仙	-5903
気を	-5904
王寺	-5905
町人	-5906
秋の	-5907
荒廃	-5908
趣味	-5909
隊の	-5910
きゅう	-5911
制度の	-5912
文化の	-5913
を図った	-5914
代わって	-5915
推古天皇	-5916
河内源氏の	-5917
▁仏	-5918
さに	-5919
を産	-5920
京津	-5921
典範	-5922
北畠	-5923
厚く	-5924
唐の	-5925
園部	-5926
奨励	-5927
孝謙	-5928
安全	-5929
投入	-5930
画の	-5931
諸藩	-5932
長門	-5933
階層	-5934
隠岐	-5935
委員会	-5936
少納言	-5937
皇子は	-5938
とはいえ	-5939
に関して	-5940
命により	-5941
設けられた	-5942
であることが	-5943
いか	-5944
きみ	-5945
きわ	-5946
ては	-5947
一色	-5948
三国	-5949
健康	-5950
印象	-5951
反映	-5952
取締	-5953
専用	-5954
後見	-5955
才能	-5956
桐壺	-5957
武道	-5958
異説	-5959
舎人	-5960
高橋	-5961
よって	-5962
一つの	-5963
勢力の	-5964
團十郎	-5965
所司代	-5966
栖川宮	-5967
武田氏	-5968
を加えて	-5969
即位した	-5970
歌舞伎の	-5971
平安時代末期の	-5972
三大	-5973
印刷	-5974
敵対	-5975
最後	-5976
標準	-5977
権は	-5978
清原	-5979
田郡	-5980
米を	-5981
規則	-5982
講堂	-5983
通貨	-5984
うちに	-5985
が主流	-5986
が発見	-5987
と称し	-5988
両編成	-5989
併せて	-5990
日蓮宗	-5991
時代劇	-5992
残った	-5993
貴族の	-5994
難しい	-5995
以外にも	-5996
六波羅探題	-5997
少なくない	-5998
認められる	-5999
と伝えられている	-6000
かま	-6001
みち	-6002
処罰	-6003
名に	-6004
土方	-6005
居士	-6006
崇徳	-6007
度々	-6008
往来	-6009
支給	-6010
機会	-6011
沿岸	-6012
物に	-6013
町柳	-6014
筒井	-6015
親族	-6016
解決	-6017
譲り	-6018
が中心	-6019
とくに	-6020
前述の	-6021
団法人	-6022
子孫は	-6023
正式な	-6024
生没年	-6025
(112	-6026
3000	-6027
荘園領主	-6028
▁たとえば	-6029
に代わって	-6030
が用いられる	-6031
されたという	-6032
1,	-6033
を任	-6034
を極	-6035
佐藤	-6036
備中	-6037
公布	-6038
学会	-6039
巫女	-6040
市街	-6041
強化	-6042
所で	-6043
旅行	-6044
権現	-6045
毎日	-6046
津田	-6047
考慮	-6048
行し	-6049
が強く	-6050
そこに	-6051
上記の	-6052
単なる	-6053
権力を	-6054
浮世絵	-6055
無量寿	-6056
日本神話	-6057
河ドラマ	-6058
ささ	-6059
の分	-6060
バラ	-6061
下記	-6062
佐竹	-6063
俳句	-6064
勝頼	-6065
合奏	-6066
大会	-6067
大衆	-6068
山を	-6069
晴明	-6070
相談	-6071
警護	-6072
食材	-6073
養成	-6074
かかる	-6075
のとき	-6076
を見せ	-6077
キネマ	-6078
内には	-6079
島根県	-6080
神社は	-6081
述べた	-6082
皇室典範	-6083
を開始した	-6084
ことによって	-6085
と呼ばれていた	-6086
▁香	-6087
に学	-6088
まん	-6089
を執	-6090
伯耆	-6091
季節	-6092
希望	-6093
弁慶	-6094
樺太	-6095
衣服	-6096
鎮座	-6097
)」「	-6098
▁近代	-6099
と区別	-6100
どおり	-6101
のみが	-6102
京田辺	-6103
平城京	-6104
急速に	-6105
の中から	-6106
氏の一族	-6107
流れを汲む	-6108
かき	-6109
主導	-6110
余儀	-6111
如意	-6112
妙心	-6113
幽閉	-6114
村は	-6115
沙門	-6116
浅草	-6117
無視	-6118
考古	-6119
職の	-6120
通し	-6121
▁他に	-6122
▁生涯	-6123
らしく	-6124
制度が	-6125
現代の	-6126
▁所在地	-6127
少なくとも	-6128
0.	-6129
▁→	-6130
▁馬	-6131
の身	-6132
を上	-6133
ウィ	-6134
エン	-6135
スク	-6136
ーズ	-6137
世話	-6138
作る	-6139
信号	-6140
刀を	-6141
囃子	-6142
文人	-6143
経は	-6144
踊り	-6145
通が	-6146
防衛	-6147
ており	-6148
につき	-6149
以降に	-6150
大坂城	-6151
説では	-6152
ゆかりの	-6153
らと共に	-6154
出される	-6155
徳川秀忠	-6156
があったが	-6157
が置かれた	-6158
を行っていた	-6159
日本における	-6160
▁行	-6161
うる	-6162
しだ	-6163
とく	-6164
やむ	-6165
を採	-6166
クト	-6167
厳密	-6168
師直	-6169
昆布	-6170
派と	-6171
演目	-6172
激怒	-6173
紙幣	-6174
観念	-6175
質の	-6176
隊は	-6177
非難	-6178
▁朝鮮	-6179
からず	-6180
とみな	-6181
を見た	-6182
三味線	-6183
余儀なく	-6184
地方では	-6185
にあたった	-6186
代表される	-6187
イタ	-6188
クス	-6189
リオ	-6190
仲介	-6191
借り	-6192
内は	-6193
列強	-6194
劇場	-6195
吹き	-6196
家や	-6197
従来	-6198
村が	-6199
目付	-6200
語り	-6201
講談	-6202
赦免	-6203
エリア	-6204
スタン	-6205
リーズ	-6206
内では	-6207
藤原道	-6208
に移った	-6209
を加えた	-6210
持統天皇	-6211
のではなく	-6212
右近衛大将	-6213
無形文化財	-6214
が行われている	-6215
-)	-6216
▁女	-6217
アマ	-6218
俳諧	-6219
参謀	-6220
吸収	-6221
地上	-6222
夕霧	-6223
奮戦	-6224
敗走	-6225
教員	-6226
最上	-6227
橋立	-6228
設備	-6229
軍と	-6230
風呂	-6231
▁正月	-6232
定める	-6233
立命館	-6234
聖徳太	-6235
をかけて	-6236
例として	-6237
武田信玄	-6238
勅撰和歌集	-6239
後白河法皇	-6240
者であった	-6241
と推定される	-6242
内閣総理大臣	-6243
▁赤	-6244
を分	-6245
を納	-6246
佐渡	-6247
建長	-6248
指示	-6249
気に	-6250
水の	-6251
瀬川	-6252
石高	-6253
箱館	-6254
締め	-6255
草子	-6256
の後継	-6257
建造物	-6258
自身は	-6259
と伝わる	-6260
していたため	-6261
▁火	-6262
の様	-6263
わざ	-6264
タル	-6265
一致	-6266
安永	-6267
御殿	-6268
本殿	-6269
栃木	-6270
白川	-6271
すべく	-6272
に叙任	-6273
の世界	-6274
朝廷は	-6275
正しい	-6276
神戸市	-6277
薬師如来	-6278
するように	-6279
にとっては	-6280
らによって	-6281
認められた	-6282
いま	-6283
おも	-6284
じめ	-6285
は東	-6286
らぬ	-6287
を終	-6288
イベ	-6289
ウム	-6290
ワキ	-6291
五位	-6292
企画	-6293
地獄	-6294
大野	-6295
宝塚	-6296
明和	-6297
本朝	-6298
箏曲	-6299
説得	-6300
豊岡	-6301
通は	-6302
青年	-6303
▁二条	-6304
▁伊勢	-6305
▁近世	-6306
の発展	-6307
ものも	-6308
大覚寺	-6309
学者の	-6310
家臣団	-6311
描いた	-6312
と並んで	-6313
保元の乱	-6314
改元して	-6315
日本鉄道	-6316
▁2004	-6317
左近衛中将	-6318
使用されている	-6319
▁田	-6320
二階	-6321
天津	-6322
差別	-6323
幕政	-6324
建仁	-6325
本文	-6326
番頭	-6327
紙の	-6328
絶対	-6329
西南	-6330
転換	-6331
連続	-6332
▁舞鶴	-6333
の通り	-6334
三河国	-6335
政府の	-6336
続ける	-6337
▁133	-6338
▁本尊は	-6339
しかった	-6340
を作った	-6341
徳川慶喜	-6342
にあたって	-6343
ほとんどが	-6344
えられている	-6345
とする説がある	-6346
丸太	-6347
伸ば	-6348
力士	-6349
助け	-6350
婚姻	-6351
寺が	-6352
振興	-6353
権の	-6354
橋駅	-6355
点は	-6356
発言	-6357
竣工	-6358
紀伝	-6359
調整	-6360
酒井	-6361
陰謀	-6362
雑賀	-6363
霊元	-6364
くして	-6365
を除き	-6366
中でも	-6367
人物が	-6368
愛宕山	-6369
▁奈良県	-6370
が大きく	-6371
として扱	-6372
などにも	-6373
位置する	-6374
本願寺の	-6375
▁その一方で	-6376
)～	-6377
に優	-6378
の古	-6379
国師	-6380
敦賀	-6381
桓武	-6382
次は	-6383
歳三	-6384
美作	-6385
に派遣	-6386
下に置	-6387
井伊直	-6388
京阪神	-6389
家臣の	-6390
徳元年	-6391
考えた	-6392
茨城県	-6393
調味料	-6394
越前国	-6395
なくなる	-6396
イベント	-6397
淀川水系	-6398
百人一首	-6399
▁このうち	-6400
られてきた	-6401
ダイヤ改正	-6402
伝えられた	-6403
存在しない	-6404
立てられた	-6405
いい	-6406
うま	-6407
を望	-6408
を領	-6409
プン	-6410
勘定	-6411
北山	-6412
官が	-6413
帝の	-6414
御霊	-6415
志士	-6416
授与	-6417
数を	-6418
日間	-6419
来日	-6420
活用	-6421
海岸	-6422
発売	-6423
禅師	-6424
舎利	-6425
近隣	-6426
遠州	-6427
かける	-6428
に際し	-6429
ブーム	-6430
亀元年	-6431
内蔵助	-6432
行して	-6433
(100	-6434
5000	-6435
に見える	-6436
万国公法	-6437
安置する	-6438
知られた	-6439
(1180	-6440
という説がある	-6441
▁不	-6442
▁常	-6443
▁聖	-6444
ひら	-6445
三宅	-6446
下旬	-6447
勲章	-6448
役を	-6449
活発	-6450
紋は	-6451
育成	-6452
適用	-6453
隊を	-6454
飲み	-6455
▁文禄	-6456
に入れ	-6457
を取る	-6458
を経由	-6459
天満宮	-6460
部分は	-6461
を繰り返	-6462
(1864	-6463
の子である	-6464
▁玉	-6465
えず	-6466
ハイ	-6467
体が	-6468
八木	-6469
前は	-6470
助六	-6471
勅許	-6472
収穫	-6473
大日	-6474
年で	-6475
教養	-6476
比定	-6477
淳和	-6478
理論	-6479
綱が	-6480
綱の	-6481
西国	-6482
西部	-6483
類の	-6484
駅間	-6485
駿府	-6486
▁仏教	-6487
▁関東	-6488
」)。	-6489
これも	-6490
子女王	-6491
浄土真	-6492
薬師寺	-6493
とは別に	-6494
らがいる	-6495
をつけた	-6496
宗の寺院	-6497
とみられる	-6498
前方後円墳	-6499
平安時代後期の	-6500
とに	-6501
をな	-6502
を射	-6503
制圧	-6504
加増	-6505
動物	-6506
商店	-6507
宇佐	-6508
屋台	-6509
弓道	-6510
春の	-6511
未だ	-6512
武装	-6513
等で	-6514
進出	-6515
還俗	-6516
障子	-6517
▁妻は	-6518
が登場	-6519
両者の	-6520
化され	-6521
息子の	-6522
身分の	-6523
2006	-6524
とするが	-6525
神奈川県	-6526
釈迦如来	-6527
人であった	-6528
蒸気機関車	-6529
ことはなかった	-6530
Ta	-6531
の仕	-6532
ガイ	-6533
ガス	-6534
ロン	-6535
与謝	-6536
典侍	-6537
尼崎	-6538
岡本	-6539
工程	-6540
房は	-6541
教科	-6542
曹洞	-6543
発祥	-6544
系は	-6545
聞き	-6546
議定	-6547
量が	-6548
▁元々	-6549
が出て	-6550
のみを	-6551
ほかに	-6552
タイプ	-6553
人々が	-6554
名称は	-6555
味付け	-6556
政権を	-6557
▁すると	-6558
▁同志社	-6559
のものは	-6560
地蔵菩薩	-6561
(1600	-6562
▁2003	-6563
記述がある	-6564
▁月	-6565
しに	-6566
すり	-6567
エビ	-6568
ニア	-6569
別名	-6570
命名	-6571
埴輪	-6572
堂上	-6573
実朝	-6574
平田	-6575
新撰	-6576
書店	-6577
武功	-6578
源平	-6579
若干	-6580
追加	-6581
食事	-6582
▁ある	-6583
▁経歴	-6584
するも	-6585
つける	-6586
とほぼ	-6587
ほうが	-6588
アメノ	-6589
ジャン	-6590
世紀中	-6591
会津藩	-6592
政権の	-6593
法隆寺	-6594
盛んに	-6595
花山院	-6596
と考える	-6597
についた	-6598
シリーズ	-6599
城の戦い	-6600
神として	-6601
それまでの	-6602
十一面観音	-6603
京都市右京区	-6604
▁加	-6605
▁応	-6606
くだ	-6607
に達	-6608
ナム	-6609
公認	-6610
勤務	-6611
器の	-6612
実務	-6613
性質	-6614
比企	-6615
経が	-6616
繰り	-6617
講和	-6618
退位	-6619
遣わ	-6620
馬の	-6621
600	-6622
▁鎌倉	-6623
けない	-6624
そらく	-6625
カバネ	-6626
ックス	-6627
ポーツ	-6628
以外は	-6629
外国人	-6630
年間の	-6631
所領を	-6632
珍しい	-6633
▁彼らは	-6634
と称して	-6635
まもなく	-6636
みられる	-6637
を出した	-6638
天智天皇	-6639
自動車道	-6640
させている	-6641
されたのは	-6642
大河ドラマ	-6643
伝えられている	-6644
北近畿タンゴ鉄道	-6645
うじ	-6646
に重	-6647
を改	-6648
二分	-6649
官吏	-6650
宝塔	-6651
察使	-6652
岡山	-6653
干し	-6654
時が	-6655
有効	-6656
殆ど	-6657
海苔	-6658
生を	-6659
界の	-6660
神護	-6661
装置	-6662
風は	-6663
(68	-6664
))-	-6665
▁文明	-6666
の作品	-6667
元元年	-6668
切って	-6669
武士団	-6670
特殊な	-6671
を入れる	-6672
を求めた	-6673
伝えられる	-6674
mm	-6675
▁俗	-6676
がつ	-6677
と書	-6678
の姿	-6679
を変	-6680
一等	-6681
全般	-6682
公演	-6683
化学	-6684
執事	-6685
小浜	-6686
師団	-6687
強制	-6688
政友	-6689
本紀	-6690
正徳	-6691
死に	-6692
浸透	-6693
演劇	-6694
線と	-6695
被官	-6696
証拠	-6697
限定	-6698
隊長	-6699
▁宇治	-6700
と主張	-6701
の系統	-6702
互いに	-6703
以外に	-6704
資料館	-6705
(125	-6706
と言って	-6707
詳しくは	-6708
民俗文化財	-6709
アメリカ合衆国	-6710
▁九	-6711
に送	-6712
の真	-6713
伝奏	-6714
屋町	-6715
成は	-6716
渡り	-6717
点が	-6718
船の	-6719
邪馬	-6720
阿部	-6721
高級	-6722
)))	-6723
▁元和	-6724
が高く	-6725
上がり	-6726
信長が	-6727
女性が	-6728
能楽師	-6729
▁同時に	-6730
に伴って	-6731
を命じた	-6732
を通して	-6733
位置づけ	-6734
日露戦争	-6735
歳で死去	-6736
そのような	-6737
を起こした	-6738
られていたが	-6739
と呼ばれるようになった	-6740
▁朝	-6741
▁諸	-6742
かさ	-6743
の姓	-6744
二重	-6745
供給	-6746
免除	-6747
公共	-6748
出る	-6749
向日	-6750
四男	-6751
地震	-6752
墨画	-6753
大山	-6754
幽斎	-6755
敷地	-6756
民権	-6757
混同	-6758
田は	-6759
矛盾	-6760
秀頼	-6761
義弘	-6762
能登	-6763
謹慎	-6764
退却	-6765
遊女	-6766
達は	-6767
遣い	-6768
領土	-6769
▁永正	-6770
▁紙本	-6771
じられ	-6772
本線の	-6773
栄えた	-6774
理由は	-6775
自体が	-6776
込まれ	-6777
(110	-6778
(123	-6779
)...	-6780
が起こり	-6781
さらには	-6782
ざるを得	-6783
それらの	-6784
主として	-6785
京阪バス	-6786
持明院統	-6787
天皇の即位	-6788
江戸時代には	-6789
と推定されている	-6790
えい	-6791
とか	-6792
ガン	-6793
事故	-6794
二十	-6795
党の	-6796
別に	-6797
客が	-6798
尺八	-6799
崩れ	-6800
推進	-6801
敗戦	-6802
春宮	-6803
流を	-6804
白い	-6805
破壊	-6806
血縁	-6807
の使用	-6808
らせる	-6809
をかけ	-6810
京都へ	-6811
他にも	-6812
幕府が	-6813
時代は	-6814
直後に	-6815
▁文化財	-6816
このとき	-6817
との対立	-6818
太平洋戦争	-6819
記している	-6820
Pa	-6821
が決	-6822
に於	-6823
ナミ	-6824
ーフ	-6825
二つ	-6826
円融	-6827
口の	-6828
在任	-6829
大島	-6830
家格	-6831
有職	-6832
法度	-6833
用途	-6834
盛期	-6835
社殿	-6836
築造	-6837
納豆	-6838
色が	-6839
西軍	-6840
首を	-6841
駅舎	-6842
▁今日	-6843
に至り	-6844
のみの	-6845
ケット	-6846
如来の	-6847
2007	-6848
なくなり	-6849
藤原氏の	-6850
(1862	-6851
が起こった	-6852
などにより	-6853
AN	-6854
▁富	-6855
▁野	-6856
バル	-6857
召し	-6858
外に	-6859
居留	-6860
層の	-6861
戦場	-6862
文殊	-6863
普段	-6864
本が	-6865
桂川	-6866
武芸	-6867
清正	-6868
理事	-6869
篆刻	-6870
継ぐ	-6871
継体	-6872
線に	-6873
計算	-6874
詰め	-6875
須賀	-6876
願寺	-6877
馬頭	-6878
▁近鉄	-6879
ウナギ	-6880
向かい	-6881
大いに	-6882
後期に	-6883
毘沙門	-6884
認める	-6885
起きた	-6886
が継いだ	-6887
との間で	-6888
にわたり	-6889
の地位を	-6890
を集めた	-6891
メーカー	-6892
古墳時代	-6893
引き続き	-6894
石田三成	-6895
ということ	-6896
にも関わらず	-6897
せき	-6898
とお	-6899
井戸	-6900
享年	-6901
嗣子	-6902
天長	-6903
太閤	-6904
契約	-6905
宮家	-6906
小川	-6907
左京	-6908
有馬	-6909
準急	-6910
資金	-6911
走る	-6912
黄檗	-6913
につく	-6914
の変化	-6915
をとる	-6916
八幡市	-6917
大路通	-6918
瀬戸内	-6919
立太子	-6920
近代化	-6921
するのが	-6922
▁その後の	-6923
ものが多い	-6924
を参照のこと	-6925
記載されている	-6926
▁河	-6927
うた	-6928
れず	-6929
タカ	-6930
力で	-6931
命は	-6932
大分	-6933
夫の	-6934
守る	-6935
宮崎	-6936
封建	-6937
工作	-6938
抗議	-6939
握り	-6940
昇殿	-6941
李氏	-6942
流儀	-6943
海上	-6944
満州	-6945
空手	-6946
華厳	-6947
落城	-6948
西の	-6949
講義	-6950
赴任	-6951
金春	-6952
隠棲	-6953
-16	-6954
の原因	-6955
の命令	-6956
を廃止	-6957
タイル	-6958
世紀の	-6959
営業所	-6960
園城寺	-6961
江戸で	-6962
理由で	-6963
紀伊国	-6964
(128	-6965
と号した	-6966
と名乗る	-6967
例である	-6968
清和源氏	-6969
近年では	-6970
原則として	-6971
ことが多かった	-6972
▁書	-6973
▁養	-6974
を企	-6975
コミ	-6976
不可	-6977
二人	-6978
侯爵	-6979
前提	-6980
姫君	-6981
宮は	-6982
平均	-6983
現地	-6984
神名	-6985
納入	-6986
繊維	-6987
説の	-6988
頼之	-6989
がった	-6990
与した	-6991
出され	-6992
小早川	-6993
当たり	-6994
料理の	-6995
翌年の	-6996
する場合	-6997
といえば	-6998
のもとに	-6999
具体的な	-7000
叡山電鉄	-7001
選ばれた	-7002
阿弥陀仏	-7003
に携	-7004
の兵	-7005
を殺	-7006
タマ	-7007
五百	-7008
信が	-7009
八代	-7010
午前	-7011
史実	-7012
好き	-7013
徳政	-7014
抜け	-7015
残り	-7016
海の	-7017
直轄	-7018
能力	-7019
興寺	-7020
調べ	-7021
隊が	-7022
風景	-7023
飛騨	-7024
)?-	-7025
が有力	-7026
ごとく	-7027
どころ	-7028
の子の	-7029
わせた	-7030
)(10	-7031
してから	-7032
といって	-7033
をかけた	-7034
を除いて	-7035
世紀前半	-7036
以前から	-7037
受け入れ	-7038
映画監督	-7039
(1582	-7040
▁豊臣秀吉	-7041
いくつかの	-7042
が残されている	-7043
▁尚	-7044
▁沿	-7045
さの	-7046
ざい	-7047
の各	-7048
はな	-7049
をま	-7050
中川	-7051
会長	-7052
地帯	-7053
境界	-7054
多賀	-7055
大王	-7056
官制	-7057
実録	-7058
宿泊	-7059
旅館	-7060
暦の	-7061
治世	-7062
田氏	-7063
男女	-7064
線で	-7065
育て	-7066
軍記	-7067
阪神	-7068
陣屋	-7069
▁上記	-7070
に補任	-7071
古代の	-7072
実際は	-7073
帰った	-7074
月下旬	-7075
)(14	-7076
をつける	-7077
を使って	-7078
子である	-7079
従五位下に叙	-7080
しら	-7081
アニ	-7082
グレ	-7083
三尊	-7084
三輪	-7085
倉庫	-7086
内紛	-7087
安達	-7088
容器	-7089
想定	-7090
数十	-7091
日活	-7092
末に	-7093
正倉	-7094
知恩	-7095
社は	-7096
義興	-7097
解由	-7098
話が	-7099
))。	-7100
いたが	-7101
そこで	-7102
を襲名	-7103
天王寺	-7104
歴史的	-7105
転じて	-7106
部分が	-7107
(126	-7108
を伝える	-7109
春日大社	-7110
李氏朝鮮	-7111
が多かった	-7112
後醍醐天皇の	-7113
▁京都市営地下鉄	-7114
▁カ	-7115
▁娘	-7116
▁院	-7117
にん	-7118
に面	-7119
の儀	-7120
コレ	-7121
作法	-7122
使の	-7123
征討	-7124
曲輪	-7125
朱印	-7126
用意	-7127
義隆	-7128
舞う	-7129
豊後	-7130
軍人	-7131
道が	-7132
量に	-7133
▁和歌	-7134
が強い	-7135
に加え	-7136
上げて	-7137
人間の	-7138
共和国	-7139
考え方	-7140
記念館	-7141
麻呂は	-7142
▁ここで	-7143
仁親王の	-7144
呼ばれる	-7145
書である	-7146
になっていった	-7147
に処	-7148
の土	-7149
を待	-7150
を拝	-7151
を断	-7152
上田	-7153
先代	-7154
墳丘	-7155
大弁	-7156
寝返	-7157
島に	-7158
料金	-7159
短期	-7160
肥後	-7161
舞い	-7162
衆の	-7163
親が	-7164
課程	-7165
違反	-7166
遺言	-7167
革命	-7168
せずに	-7169
にくい	-7170
を知る	-7171
ファン	-7172
一般の	-7173
平家の	-7174
清盛は	-7175
▁この間	-7176
を失った	-7177
京都大学	-7178
特徴である	-7179
東京国立博物館	-7180
▁都	-7181
きよ	-7182
しな	-7183
位牌	-7184
口に	-7185
吉祥	-7186
国と	-7187
教学	-7188
興味	-7189
見る	-7190
達の	-7191
集に	-7192
領域	-7193
▁中村	-7194
が誕生	-7195
伝統的	-7196
制度は	-7197
源義仲	-7198
第二次	-7199
見られ	-7200
詳しい	-7201
(127	-7202
といわれ	-7203
ときには	-7204
完成した	-7205
間もなく	-7206
されるなど	-7207
制定された	-7208
後醍醐天皇	-7209
などによって	-7210
Pi	-7211
▁年	-7212
たた	-7213
にぎ	-7214
の旧	-7215
の諸	-7216
を高	-7217
ギー	-7218
ジュ	-7219
ハン	-7220
パリ	-7221
ヶ崎	-7222
三昧	-7223
中原	-7224
主従	-7225
出演	-7226
単純	-7227
句麗	-7228
団地	-7229
塗り	-7230
始祖	-7231
宝生	-7232
戦で	-7233
推挙	-7234
書記	-7235
本町	-7236
林寺	-7237
登用	-7238
航空	-7239
複線	-7240
議長	-7241
量は	-7242
高田	-7243
▁境内	-7244
▁賀茂	-7245
かけた	-7246
にちな	-7247
にとも	-7248
の四男	-7249
亀岡市	-7250
厳しく	-7251
広島県	-7252
権大夫	-7253
これらは	-7254
しようと	-7255
親王宣下	-7256
というのは	-7257
に対しても	-7258
わなかった	-7259
桓武天皇の	-7260
と見られている	-7261
▁総	-7262
ゃく	-7263
同族	-7264
基は	-7265
女官	-7266
宰府	-7267
意思	-7268
愛媛	-7269
文芸	-7270
理想	-7271
直し	-7272
薄い	-7273
要因	-7274
越中	-7275
邸に	-7276
(11	-7277
だから	-7278
ばれた	-7279
やすく	-7280
を開設	-7281
武田信	-7282
福島県	-7283
背景に	-7284
退した	-7285
するまで	-7286
国立銀行	-7287
まっている	-7288
建立された	-7289
であるとする	-7290
▁これによって	-7291
しめ	-7292
すめ	-7293
もろ	-7294
や大	-7295
三千	-7296
二年	-7297
仏師	-7298
住む	-7299
占領	-7300
寄り	-7301
弘文	-7302
現実	-7303
病に	-7304
蘭学	-7305
車の	-7306
途絶	-7307
をまと	-7308
取って	-7309
東舞鶴	-7310
決して	-7311
法華宗	-7312
自らが	-7313
障壁画	-7314
千手観音	-7315
とは異なる	-7316
▁江戸時代の	-7317
が著	-7318
を流	-7319
クー	-7320
トー	-7321
予備	-7322
先祖	-7323
内侍	-7324
宮城	-7325
承認	-7326
梅若	-7327
業を	-7328
産地	-7329
田区	-7330
由緒	-7331
町は	-7332
禅僧	-7333
秩父	-7334
訪問	-7335
賦課	-7336
阿倍	-7337
陥落	-7338
養育	-7339
▁第一	-7340
に出家	-7341
の前に	-7342
を結び	-7343
を見る	-7344
化が進	-7345
司令官	-7346
大寺の	-7347
PiTa	-7348
ことなく	-7349
ことを知	-7350
日本人の	-7351
明らかに	-7352
を与えられ	-7353
PiTaPa	-7354
が必要である	-7355
で一	-7356
なき	-7357
れん	-7358
を交	-7359
を促	-7360
五大	-7361
使者	-7362
口を	-7363
変わ	-7364
小姓	-7365
巨勢	-7366
急死	-7367
戦時	-7368
月上	-7369
本所	-7370
松浦	-7371
法相	-7372
王政	-7373
精米	-7374
▁別名	-7375
』19	-7376
っては	-7377
を認め	-7378
変わり	-7379
庶民の	-7380
延元年	-7381
弟子の	-7382
自体は	-7383
述べる	-7384
▁よって	-7385
が異なる	-7386
登場人物	-7387
西郷隆盛	-7388
阪急電鉄	-7389
が成立した	-7390
以下の通り	-7391
編成された	-7392
られるようになった	-7393
2)	-7394
IS	-7395
▁あ	-7396
ぐら	-7397
ねん	-7398
の重	-7399
中興	-7400
全面	-7401
六郎	-7402
卑弥	-7403
及ぼ	-7404
向上	-7405
国有	-7406
延宝	-7407
悪化	-7408
支店	-7409
政宗	-7410
春秋	-7411
書物	-7412
月中	-7413
条に	-7414
熱心	-7415
石室	-7416
経過	-7417
輸出	-7418
配慮	-7419
障害	-7420
雄略	-7421
▁結局	-7422
の名で	-7423
を開き	-7424
二代目	-7425
前から	-7426
後水尾	-7427
斯波義	-7428
藤原兼	-7429
途中で	-7430
そこから	-7431
有栖川宮	-7432
朝廷から	-7433
▁数	-7434
▁秋	-7435
くじ	-7436
ぽう	-7437
ナイ	-7438
人質	-7439
伸び	-7440
併合	-7441
南方	-7442
壊滅	-7443
市で	-7444
戒律	-7445
業は	-7446
湖西	-7447
統計	-7448
義は	-7449
茶を	-7450
▁大坂	-7451
▁建久	-7452
と比べ	-7453
と結び	-7454
まると	-7455
を担う	-7456
卑弥呼	-7457
年より	-7458
歳の若	-7459
独自に	-7460
)(13	-7461
かつての	-7462
アクセス	-7463
年中行事	-7464
置かれた	-7465
臣籍降下	-7466
ことによる	-7467
左近衛大将	-7468
に任命された	-7469
の一環として	-7470
がた	-7471
を要	-7472
元就	-7473
別れ	-7474
号の	-7475
合気	-7476
名神	-7477
天理	-7478
建つ	-7479
忠興	-7480
文部	-7481
深夜	-7482
画像	-7483
確実	-7484
稚児	-7485
線路	-7486
観測	-7487
評判	-7488
霊場	-7489
▁寿永	-7490
がよく	-7491
に反対	-7492
の記録	-7493
を実施	-7494
ローマ	-7495
事務所	-7496
何らか	-7497
備中国	-7498
勢力が	-7499
大学寮	-7500
意味で	-7501
的にも	-7502
からない	-7503
ところで	-7504
のあった	-7505
将軍家の	-7506
岩倉具視	-7507
文章博士	-7508
藤原道長	-7509
▁1997	-7510
に見られる	-7511
京福電気鉄道	-7512
使われていた	-7513
▁米	-7514
▁龍	-7515
の任	-7516
の色	-7517
の行	-7518
の開	-7519
ガル	-7520
備え	-7521
城で	-7522
広げ	-7523
得度	-7524
御三	-7525
戦功	-7526
推定	-7527
改修	-7528
桃園	-7529
次官	-7530
治郎	-7531
申請	-7532
突然	-7533
緒に	-7534
西行	-7535
該当	-7536
長屋	-7537
額の	-7538
▁寛政	-7539
が多数	-7540
と見る	-7541
の大半	-7542
を派遣	-7543
仁天皇	-7544
日まで	-7545
松平家	-7546
栃木県	-7547
歳の時	-7548
熊本県	-7549
▁後白河	-7550
きわめて	-7551
まったく	-7552
をかける	-7553
日本帝国	-7554
(1185	-7555
することも	-7556
の代わりに	-7557
▁勝	-7558
▁成	-7559
と答	-7560
は神	-7561
ひこ	-7562
を買	-7563
交替	-7564
人や	-7565
今井	-7566
低く	-7567
典型	-7568
吟醸	-7569
土着	-7570
帰り	-7571
早雲	-7572
景観	-7573
本部	-7574
父が	-7575
石見	-7576
能の	-7577
通用	-7578
達が	-7579
▁他の	-7580
▁地方	-7581
▁日蓮	-7582
が日本	-7583
をとり	-7584
サンス	-7585
中央区	-7586
人々の	-7587
全体の	-7588
文部省	-7589
目的で	-7590
社会の	-7591
秀吉が	-7592
総督府	-7593
藤原実	-7594
過程で	-7595
した際に	-7596
へ向かう	-7597
れており	-7598
プラット	-7599
京阪宇治	-7600
全国的に	-7601
王政復古	-7602
福知山市	-7603
豊臣政権	-7604
▁いわゆる	-7605
▁日本書紀	-7606
▁織田信長	-7607
が始まった	-7608
として活躍	-7609
▁徳	-7610
まき	-7611
を深	-7612
ビメ	-7613
予算	-7614
分裂	-7615
名勝	-7616
子で	-7617
宸翰	-7618
式内	-7619
得宗	-7620
情勢	-7621
打倒	-7622
方形	-7623
明法	-7624
服部	-7625
母屋	-7626
浪人	-7627
立花	-7628
練り	-7629
証明	-7630
重視	-7631
門下	-7632
うかが	-7633
が設け	-7634
の一般	-7635
の大阪	-7636
の教え	-7637
を多く	-7638
勢力は	-7639
土地の	-7640
甲斐国	-7641
相模国	-7642
長岡京	-7643
▁いずれ	-7644
▁古くは	-7645
天照大神	-7646
焼き討ち	-7647
贈られた	-7648
造られた	-7649
▁現在でも	-7650
が存在した	-7651
に師事して	-7652
の駅となる	-7653
でた	-7654
とす	-7655
へん	-7656
ナン	-7657
五山	-7658
住友	-7659
優秀	-7660
号が	-7661
味の	-7662
委託	-7663
山中	-7664
心が	-7665
成寺	-7666
派生	-7667
王国	-7668
省略	-7669
等は	-7670
職員	-7671
自筆	-7672
藤堂	-7673
課税	-7674
▁交通	-7675
▁応永	-7676
まで昇	-7677
テラス	-7678
上野国	-7679
前後の	-7680
前田利	-7681
古墳群	-7682
月上旬	-7683
皇子が	-7684
親王は	-7685
鉄道の	-7686
関係が	-7687
▁古事記	-7688
▁本姓は	-7689
だという	-7690
となると	-7691
伊藤博文	-7692
初期には	-7693
名である	-7694
氏の家臣	-7695
との説もある	-7696
を中心として	-7697
プラットホーム	-7698
.8	-7699
▁城	-7700
▁秀	-7701
▁藩	-7702
おろ	-7703
かぶ	-7704
に復	-7705
に準	-7706
は約	-7707
を勧	-7708
を増	-7709
を願	-7710
出自	-7711
同志	-7712
味が	-7713
官は	-7714
客の	-7715
平和	-7716
形は	-7717
応神	-7718
意向	-7719
拒絶	-7720
改新	-7721
故郷	-7722
浜松	-7723
薄く	-7724
語源	-7725
通商	-7726
飢饉	-7727
150	-7728
▁嘉永	-7729
▁近江	-7730
こうじ	-7731
ていて	-7732
に出仕	-7733
に属し	-7734
の編纂	-7735
をつけ	-7736
を継ぎ	-7737
功皇后	-7738
戦った	-7739
権中将	-7740
法大師	-7741
▁律令制	-7742
そのもの	-7743
と同様の	-7744
を賜った	-7745
初代藩主	-7746
ともいえる	-7747
出している	-7748
▁これに対し	-7749
するとともに	-7750
てて	-7751
と云	-7752
ねば	-7753
は小	-7754
ゴル	-7755
ジオ	-7756
ドリ	-7757
修正	-7758
嘆願	-7759
富田	-7760
府中	-7761
座敷	-7762
接続	-7763
本丸	-7764
東区	-7765
甲府	-7766
置き	-7767
請け	-7768
論を	-7769
院を	-7770
▁本来	-7771
に叙爵	-7772
の下で	-7773
の中国	-7774
を討ち	-7775
を開く	-7776
ターミ	-7777
ビュー	-7778
年のち	-7779
年以上	-7780
駿河国	-7781
▁多くの	-7782
▁法名は	-7783
を残した	-7784
御家人の	-7785
歳の時に	-7786
▁いずれも	-7787
▁藤原北家	-7788
ターミナル	-7789
編纂された	-7790
したのである	-7791
だけではなく	-7792
とされているが	-7793
第二次世界大戦	-7794
▁つ	-7795
▁町	-7796
おん	-7797
が含	-7798
ぎん	-7799
マル	-7800
三田	-7801
主の	-7802
人材	-7803
会所	-7804
作戦	-7805
廃絶	-7806
御池	-7807
提案	-7808
早い	-7809
書が	-7810
根来	-7811
正宗	-7812
清は	-7813
空間	-7814
義朝	-7815
舞妓	-7816
西欧	-7817
講師	-7818
120	-7819
▁天皇	-7820
▁貞観	-7821
世紀に	-7822
中御門	-7823
出町柳	-7824
国内の	-7825
幕末の	-7826
後継者	-7827
西大寺	-7828
▁東大寺	-7829
とも書く	-7830
を入れて	-7831
スペイン	-7832
ラッシュ	-7833
乗り入れ	-7834
受け継が	-7835
早くから	-7836
無量寿経	-7837
▁鎌倉幕府	-7838
で行われる	-7839
されることとなった	-7840
いし	-7841
の礼	-7842
はち	-7843
わら	-7844
を演	-7845
ノ浦	-7846
並ぶ	-7847
今昔	-7848
備後	-7849
八重	-7850
右京	-7851
右記	-7852
妻の	-7853
戒壇	-7854
手段	-7855
新興	-7856
末裔	-7857
検地	-7858
津軽	-7859
茨木	-7860
農村	-7861
通過	-7862
閉鎖	-7863
かせた	-7864
わしい	-7865
を出し	-7866
使者を	-7867
博覧会	-7868
密かに	-7869
日本海	-7870
自治体	-7871
読みは	-7872
頼朝が	-7873
かどうか	-7874
じていた	-7875
そうした	-7876
を加える	-7877
徳天皇の	-7878
足利尊氏	-7879
させられた	-7880
京都所司代	-7881
基本的には	-7882
次のような	-7883
されていった	-7884
を残している	-7885
京都市上京区	-7886
年のち改元して	-7887
)〔	-7888
えの	-7889
みこ	-7890
ケー	-7891
中弁	-7892
仏壇	-7893
保守	-7894
孫の	-7895
宗我	-7896
尊氏	-7897
小山	-7898
梅雨	-7899
理念	-7900
発足	-7901
端に	-7902
羽織	-7903
蔵の	-7904
見た	-7905
鑑賞	-7906
院が	-7907
頻繁	-7908
飲食	-7909
▁一条	-7910
▁標高	-7911
▁高野	-7912
に入門	-7913
の内容	-7914
保存会	-7915
命じた	-7916
左兵衛	-7917
彼らの	-7918
武士が	-7919
石川県	-7920
菊五郎	-7921
落とし	-7922
上がった	-7923
寺社奉行	-7924
普通列車	-7925
したために	-7926
大海人皇子	-7927
と推測される	-7928
京都市東山区	-7929
安土桃山時代の	-7930
であったことから	-7931
it	-7932
に収	-7933
の官	-7934
三山	-7935
余り	-7936
出会	-7937
和尚	-7938
哲学	-7939
宝亀	-7940
少女	-7941
局長	-7942
成仏	-7943
手は	-7944
扶持	-7945
推薦	-7946
日が	-7947
枚方	-7948
片町	-7949
町が	-7950
者で	-7951
自刃	-7952
藤氏	-7953
話題	-7954
践祚	-7955
都合	-7956
首相	-7957
高度	-7958
たちに	-7959
ホール	-7960
中京区	-7961
体制を	-7962
信長に	-7963
側には	-7964
有する	-7965
江戸へ	-7966
科大学	-7967
親しま	-7968
▁歌舞伎	-7969
したとき	-7970
スタイル	-7971
地域では	-7972
新田義貞	-7973
(1183	-7974
を持っている	-7975
代将軍足利義	-7976
:『	-7977
▁夏	-7978
▁死	-7979
いき	-7980
が許	-7981
たれ	-7982
の合	-7983
ふた	-7984
やか	-7985
をみ	-7986
を抑	-7987
吹負	-7988
執行	-7989
家も	-7990
峰山	-7991
帰還	-7992
年後	-7993
忠の	-7994
熊谷	-7995
耕作	-7996
葛野	-7997
衛士	-7998
軍勢	-7999
速度	-8000
重盛	-8001
高校	-8002
▁結果	-8003
▁近衛	-8004
が無い	-8005
っくり	-8006
と見な	-8007
に遷任	-8008
の由来	-8009
も参照	-8010
ビール	-8011
属する	-8012
山口県	-8013
者には	-8014
▁以上の	-8015
に加えて	-8016
メニュー	-8017
出家した	-8018
左衛門尉	-8019
慶長の役	-8020
描かれる	-8021
日清戦争	-8022
▁1987	-8023
▁2000	-8024
▁このほか	-8025
したことで	-8026
であること	-8027
拾遺和歌集	-8028
▁南北朝時代	-8029
されることが多い	-8030
▁観	-8031
へは	-8032
まろ	-8033
ドル	-8034
ブラ	-8035
マス	-8036
不比	-8037
小袖	-8038
山梨	-8039
怨霊	-8040
政界	-8041
日吉	-8042
柔術	-8043
温度	-8044
相馬	-8045
石垣	-8046
負傷	-8047
項目	-8048
-13	-8049
▁彼は	-8050
に残る	-8051
の儀式	-8052
の形式	-8053
家の祖	-8054
足利氏	-8055
邪馬台	-8056
部分を	-8057
あったが	-8058
でもあり	-8059
と異なり	-8060
の大きな	-8061
方として	-8062
東アジア	-8063
背景には	-8064
キャンパス	-8065
派遣された	-8066
神社である	-8067
-1	-8068
はら	-8069
参戦	-8070
回の	-8071
市民	-8072
来航	-8073
相違	-8074
苦し	-8075
解放	-8076
通説	-8077
那須	-8078
▁伏見	-8079
▁子は	-8080
と読む	-8081
の人物	-8082
みこと	-8083
をいう	-8084
を構成	-8085
カラー	-8086
ワイン	-8087
国民の	-8088
天橋立	-8089
存在し	-8090
戦後の	-8091
直ちに	-8092
神道の	-8093
通常の	-8094
イタリア	-8095
天台座主	-8096
承久の乱	-8097
桓武天皇	-8098
まれていた	-8099
とも呼ばれた	-8100
に代表される	-8101
安土桃山時代	-8102
確認されている	-8103
▁イ	-8104
▁社	-8105
たが	-8106
です	-8107
全域	-8108
兵の	-8109
前駅	-8110
功労	-8111
場に	-8112
天暦	-8113
契機	-8114
実が	-8115
実態	-8116
実行	-8117
推測	-8118
明応	-8119
本門	-8120
東部	-8121
物資	-8122
蜂起	-8123
語る	-8124
警戒	-8125
遠征	-8126
際の	-8127
風に	-8128
風を	-8129
騎馬	-8130
おこな	-8131
の中の	-8132
ました	-8133
を呼び	-8134
を支持	-8135
を着用	-8136
メディ	-8137
九条兼	-8138
二人の	-8139
作品は	-8140
新潟県	-8141
点では	-8142
▁一般に	-8143
に関わる	-8144
スポーツ	-8145
山陰本線	-8146
的なもの	-8147
に任ぜられ	-8148
に指定された	-8149
可能性が高い	-8150
するようになる	-8151
▁サ	-8152
▁奥	-8153
▁横	-8154
▁表	-8155
を擁	-8156
事項	-8157
似た	-8158
信徒	-8159
児玉	-8160
入内	-8161
制は	-8162
区画	-8163
外記	-8164
少弐	-8165
岩手	-8166
有朋	-8167
構築	-8168
気が	-8169
水分	-8170
流し	-8171
流布	-8172
煎茶	-8173
玄関	-8174
理学	-8175
蒸し	-8176
親政	-8177
語で	-8178
郡に	-8179
閣寺	-8180
高は	-8181
やまと	-8182
よりは	-8183
らした	-8184
を生み	-8185
一種の	-8186
人々は	-8187
作られ	-8188
側から	-8189
入りの	-8190
内務省	-8191
地元の	-8192
複雑な	-8193
との戦い	-8194
のものが	-8195
譜代大名	-8196
高く評価	-8197
はなかった	-8198
国会図書館	-8199
ヶ岳	-8200
久は	-8201
佐伯	-8202
作家	-8203
功徳	-8204
勝ち	-8205
口駅	-8206
回避	-8207
大使	-8208
大同	-8209
奏上	-8210
尊皇	-8211
山頂	-8212
差異	-8213
斎院	-8214
東軍	-8215
樹立	-8216
清の	-8217
用に	-8218
福澤	-8219
視察	-8220
麦粉	-8221
▁最近	-8222
▁長男	-8223
に到着	-8224
の立場	-8225
パート	-8226
一門の	-8227
以下に	-8228
作品の	-8229
古くは	-8230
或いは	-8231
日本軍	-8232
明親王	-8233
水戸藩	-8234
烏丸線	-8235
種の神	-8236
近くに	-8237
陰陽道	-8238
2005	-8239
わたって	-8240
を起こす	-8241
好み焼き	-8242
川の戦い	-8243
戦死した	-8244
明治元年	-8245
本格的な	-8246
発掘調査	-8247
見られた	-8248
高速道路	-8249
なっていた	-8250
のに対して	-8251
もあったが	-8252
に任ぜられた	-8253
2.	-8254
:(	-8255
がし	-8256
さね	-8257
の源	-8258
を挟	-8259
入学	-8260
兵糧	-8261
品川	-8262
対抗	-8263
形を	-8264
木下	-8265
盆地	-8266
石橋	-8267
福原	-8268
素麺	-8269
鶴岡	-8270
との間	-8271
のみこ	-8272
ようだ	-8273
を要求	-8274
んどう	-8275
城下町	-8276
壇ノ浦	-8277
家康が	-8278
権を握	-8279
求める	-8280
(130	-8281
2008	-8282
▁本来は	-8283
イザナギ	-8284
クリット	-8285
取り上げ	-8286
諸説ある	-8287
かれており	-8288
に参加した	-8289
歳の若さで	-8290
だったという	-8291
であったことが	-8292
サンスクリット	-8293
重要無形文化財	-8294
:「	-8295
に及	-8296
の異	-8297
まえ	-8298
ワカ	-8299
三宝	-8300
体験	-8301
元慶	-8302
千本	-8303
協議	-8304
城が	-8305
堂は	-8306
実力	-8307
寄合	-8308
島田	-8309
彼は	-8310
忘れ	-8311
払う	-8312
有り	-8313
直後	-8314
銀座	-8315
鎌足	-8316
類聚	-8317
食い	-8318
▁飛鳥	-8319
が出土	-8320
の起源	-8321
伊予国	-8322
入れて	-8323
兵衛は	-8324
出身で	-8325
各地を	-8326
家当主	-8327
自由党	-8328
観世流	-8329
越後国	-8330
の一つで	-8331
市川團十郎	-8332
であるとして	-8333
が集	-8334
さく	-8335
さつ	-8336
のあ	-8337
の他	-8338
を好	-8339
ソン	-8340
ワー	-8341
一定	-8342
創刊	-8343
動向	-8344
勝寺	-8345
合祀	-8346
君が	-8347
圧迫	-8348
完了	-8349
宮殿	-8350
山で	-8351
巡礼	-8352
感謝	-8353
朝貢	-8354
柏原	-8355
森林	-8356
楽の	-8357
歌が	-8358
焼く	-8359
田堵	-8360
級の	-8361
討幕	-8362
防止	-8363
飲む	-8364
-17	-8365
800	-8366
▁三条	-8367
▁同母	-8368
▁大宝	-8369
▁逆に	-8370
によく	-8371
やって	-8372
ようで	-8373
るため	-8374
を賜り	-8375
姿を消	-8376
敗れた	-8377
永久秀	-8378
通から	-8379
かつては	-8380
つつある	-8381
としたが	-8382
事になる	-8383
出来ない	-8384
隣接する	-8385
▁現存する	-8386
あくまでも	-8387
として利用	-8388
に際しては	-8389
藤原仲麻呂	-8390
の一つとして	-8391
がき	-8392
ごん	-8393
に沿	-8394
の初	-8395
は長	-8396
を正	-8397
を誇	-8398
フト	-8399
・■	-8400
今の	-8401
区の	-8402
嘉吉	-8403
尊卑	-8404
山が	-8405
師匠	-8406
後ろ	-8407
忠が	-8408
打撃	-8409
有利	-8410
木を	-8411
末寺	-8412
次女	-8413
毎月	-8414
渡し	-8415
産の	-8416
田町	-8417
町名	-8418
的で	-8419
稲田	-8420
職掌	-8421
返還	-8422
逝去	-8423
酒は	-8424
黄泉	-8425
▁宝暦	-8426
▁源義	-8427
を維持	-8428
を置き	-8429
クーデ	-8430
ショウ	-8431
分かる	-8432
天皇や	-8433
妙心寺	-8434
宇喜多	-8435
市町村	-8436
正月に	-8437
藩の第	-8438
(111	-8439
その後は	-8440
北条氏の	-8441
廃止され	-8442
▁この事件	-8443
▁江戸幕府	-8444
も見られる	-8445
を余儀なく	-8446
不明である	-8447
つる	-8448
の見	-8449
チン	-8450
プレ	-8451
メイ	-8452
和解	-8453
婦人	-8454
店の	-8455
愛好	-8456
成が	-8457
房が	-8458
敷き	-8459
書籍	-8460
柳原	-8461
格の	-8462
植民	-8463
業の	-8464
異例	-8465
職人	-8466
高山	-8467
に従う	-8468
の原型	-8469
の名を	-8470
を採用	-8471
を設け	-8472
以仁王	-8473
月中旬	-8474
活動を	-8475
浪士組	-8476
系統の	-8477
細川氏	-8478
経済的	-8479
近藤勇	-8480
▁はじめ	-8481
▁従って	-8482
に向かう	-8483
天平勝宝	-8484
家督相続	-8485
延暦寺の	-8486
役として	-8487
興福寺の	-8488
財団法人	-8489
▁天武天皇	-8490
を利用して	-8491
の兄	-8492
の妹	-8493
ノ谷	-8494
堺市	-8495
夜の	-8496
天井	-8497
宮司	-8498
市立	-8499
平が	-8500
日朝	-8501
梶原	-8502
楽部	-8503
比叡	-8504
節会	-8505
義景	-8506
花の	-8507
郷士	-8508
鉱毒	-8509
)(7	-8510
)(8	-8511
いては	-8512
つけて	-8513
なのか	-8514
には大	-8515
は大和	-8516
を重視	-8517
を養子	-8518
グレゴ	-8519
テーマ	-8520
仁元年	-8521
備前国	-8522
勲一等	-8523
合いが	-8524
外国語	-8525
宇治市	-8526
宗我部	-8527
政奉還	-8528
特別な	-8529
観音寺	-8530
のことで	-8531
をつけて	-8532
官として	-8533
焼失した	-8534
的である	-8535
落ち延び	-8536
醍醐天皇	-8537
▁2002	-8538
▁またこの	-8539
とする見解	-8540
設立された	-8541
とも称される	-8542
作られている	-8543
関係にあった	-8544
は終	-8545
めい	-8546
を自	-8547
チョ	-8548
ワン	-8549
両替	-8550
助命	-8551
斬首	-8552
書類	-8553
浮舟	-8554
篤胤	-8555
統率	-8556
薩長	-8557
誤り	-8558
資本	-8559
逃れ	-8560
造の	-8561
重用	-8562
青山	-8563
顕彰	-8564
鹿島	-8565
▁承久	-8566
▁神社	-8567
ささぎ	-8568
っぱら	-8569
の主要	-8570
の改革	-8571
るなど	-8572
を申し	-8573
セット	-8574
リング	-8575
場所に	-8576
末期に	-8577
松平忠	-8578
皇族の	-8579
細川政	-8580
麻呂が	-8581
(129	-8582
▁中国の	-8583
てんのう	-8584
とりわけ	-8585
と言われ	-8586
に入れて	-8587
スーパー	-8588
幕府から	-8589
ことはない	-8590
をそのまま	-8591
行なわれる	-8592
代征夷大将軍	-8593
▁鉄	-8594
カリ	-8595
ズン	-8596
ダン	-8597
ボン	-8598
三宮	-8599
下関	-8600
住み	-8601
削減	-8602
商売	-8603
問答	-8604
在庁	-8605
在来	-8606
大型	-8607
実業	-8608
把握	-8609
提携	-8610
民主	-8611
河川	-8612
脚本	-8613
豊富	-8614
軍艦	-8615
銀貨	-8616
青森	-8617
顕著	-8618
するか	-8619
たちを	-8620
に従軍	-8621
の文字	-8622
勘解由	-8623
工芸品	-8624
柔らか	-8625
訪れた	-8626
陸奥守	-8627
駅まで	-8628
▁その際	-8629
を目指す	-8630
数多くの	-8631
藤原北家	-8632
天武天皇の	-8633
東南アジア	-8634
に叙せられる	-8635
可能性がある	-8636
として生まれた	-8637
(=	-8638
すみ	-8639
の金	-8640
三十	-8641
内匠	-8642
分脈	-8643
別働	-8644
千石	-8645
厩戸	-8646
安寺	-8647
小屋	-8648
崇神	-8649
帯刀	-8650
引退	-8651
形に	-8652
本宮	-8653
構内	-8654
橋の	-8655
清浄	-8656
無理	-8657
白石	-8658
藩が	-8659
親子	-8660
調達	-8661
財閥	-8662
通と	-8663
重衡	-8664
防御	-8665
雰囲	-8666
非常	-8667
面で	-8668
革新	-8669
馬寮	-8670
▁吉田	-8671
▁秀吉	-8672
が可能	-8673
が形成	-8674
に住む	-8675
を描く	-8676
下野国	-8677
大蔵省	-8678
守護の	-8679
影響を	-8680
東京の	-8681
治天の	-8682
総大将	-8683
あたりの	-8684
を見せた	-8685
京都御所	-8686
及びその	-8687
▁1990	-8688
▁室町幕府	-8689
するところ	-8690
と考えられ	-8691
与えられた	-8692
されることもある	-8693
▁橘	-8694
つゆ	-8695
は上	-8696
めで	-8697
わが	-8698
を選	-8699
ミン	-8700
依然	-8701
信じ	-8702
出世	-8703
動車	-8704
即ち	-8705
多様	-8706
廷臣	-8707
弓術	-8708
悟り	-8709
明徳	-8710
東照	-8711
為義	-8712
秘密	-8713
称は	-8714
筑前	-8715
苗字	-8716
追捕	-8717
達磨	-8718
長安	-8719
領を	-8720
食料	-8721
▁九州	-8722
▁正式	-8723
かした	-8724
に下向	-8725
の上で	-8726
の言葉	-8727
ようと	-8728
チャン	-8729
ベース	-8730
備えた	-8731
名高い	-8732
書では	-8733
権勢を	-8734
浅野長	-8735
異母弟	-8736
評定衆	-8737
おそらく	-8738
を示した	-8739
歳のとき	-8740
自由民権	-8741
、2006	-8742
の命により	-8743
はほとんど	-8744
を継承した	-8745
室町時代に	-8746
建設された	-8747
が設置された	-8748
ことなどから	-8749
に叙せられた	-8750
定かではない	-8751
us	-8752
がん	-8753
だし	-8754
の話	-8755
デー	-8756
一乗	-8757
修復	-8758
如し	-8759
対外	-8760
山荘	-8761
左遷	-8762
幼い	-8763
捕虜	-8764
敗れ	-8765
日で	-8766
晴元	-8767
東征	-8768
浦上	-8769
満た	-8770
田正	-8771
笠置	-8772
野市	-8773
離脱	-8774
が決定	-8775
に戻り	-8776
のだが	-8777
の地に	-8778
は昭和	-8779
を受賞	-8780
を指し	-8781
パーク	-8782
メント	-8783
中期に	-8784
付近に	-8785
入った	-8786
合戦で	-8787
国神社	-8788
従五位	-8789
愛媛県	-8790
沖縄県	-8791
自分が	-8792
芸術院	-8793
茶の湯	-8794
▁158	-8795
▁続いて	-8796
ごろから	-8797
に入れる	-8798
に努めた	-8799
を生んだ	-8800
坂本龍馬	-8801
神武天皇	-8802
徳川家康の	-8803
▁紫	-8804
あま	-8805
へい	-8806
を固	-8807
ヴィ	-8808
出発	-8809
列島	-8810
午後	-8811
川町	-8812
弘化	-8813
拡張	-8814
東の	-8815
柳生	-8816
衛生	-8817
西に	-8818
部長	-8819
配給	-8820
院殿	-8821
▁足利	-8822
に渡り	-8823
までも	-8824
を防ぐ	-8825
ポルト	-8826
上皇が	-8827
出雲国	-8828
多様な	-8829
朱子学	-8830
楽しむ	-8831
石清水	-8832
神名帳	-8833
立てる	-8834
が続いた	-8835
ったため	-8836
をもとに	-8837
天台宗の	-8838
グレゴリオ	-8839
ようになって	-8840
ようになっている	-8841
▁桂	-8842
▁立	-8843
かか	-8844
が施	-8845
の曲	-8846
の表	-8847
は義	-8848
を免	-8849
シナ	-8850
ネギ	-8851
世代	-8852
久邇	-8853
伊丹	-8854
伊周	-8855
信用	-8856
全長	-8857
兼務	-8858
国王	-8859
堂に	-8860
寛平	-8861
専修	-8862
少数	-8863
山岳	-8864
循環	-8865
所持	-8866
所管	-8867
架空	-8868
業績	-8869
榎本	-8870
河野	-8871
点を	-8872
画策	-8873
目が	-8874
相対	-8875
神輿	-8876
藩札	-8877
討死	-8878
間隔	-8879
闍梨	-8880
面を	-8881
▁最終	-8882
▁武田	-8883
▁略歴	-8884
に及ぶ	-8885
の後に	-8886
の技術	-8887
の総称	-8888
受けた	-8889
後嵯峨	-8890
掛ける	-8891
日本が	-8892
松平定	-8893
状態で	-8894
▁上記の	-8895
▁京都の	-8896
すべての	-8897
という語	-8898
に命じて	-8899
イザナミ	-8900
尊卑分脈	-8901
わっていた	-8902
を受けていた	-8903
公卿に列する	-8904
研究センター	-8905
-8	-8906
とら	-8907
と結	-8908
なた	-8909
を廃	-8910
久米	-8911
代理	-8912
仲間	-8913
修好	-8914
公記	-8915
冊封	-8916
味を	-8917
大成	-8918
尊王	-8919
庄内	-8920
強硬	-8921
彩色	-8922
戦う	-8923
昼間	-8924
正則	-8925
水に	-8926
法で	-8927
法に	-8928
玉鬘	-8929
着物	-8930
総長	-8931
血統	-8932
道鏡	-8933
250	-8934
▁毎年	-8935
」(「	-8936
が確立	-8937
を本拠	-8938
今日の	-8939
場合に	-8940
学校の	-8941
折り返	-8942
時間帯	-8943
通常は	-8944
遠江国	-8945
駅開業	-8946
高句麗	-8947
シーズン	-8948
失われた	-8949
自害した	-8950
関東管領	-8951
(1184	-8952
▁応仁の乱	-8953
に尽力した	-8954
もしれない	-8955
ようとする	-8956
刊行された	-8957
豊臣秀吉の	-8958
られなかった	-8959
▁屋	-8960
の数	-8961
エズ	-8962
トロ	-8963
ヶ瀬	-8964
亡き	-8965
守備	-8966
小林	-8967
年が	-8968
当駅	-8969
改称	-8970
敷設	-8971
方で	-8972
早朝	-8973
木材	-8974
杜氏	-8975
枢密	-8976
死ぬ	-8977
流域	-8978
社が	-8979
藩に	-8980
西院	-8981
触れ	-8982
▁国宝	-8983
ちゃん	-8984
ものに	-8985
を切り	-8986
二つの	-8987
仁和寺	-8988
地方に	-8989
天下の	-8990
安元年	-8991
後世に	-8992
水野忠	-8993
続けて	-8994
▁当時は	-8995
にしても	-8996
を指して	-8997
を見せる	-8998
を避ける	-8999
天皇即位	-9000
豊臣秀頼	-9001
▁それぞれ	-9002
▁それでも	-9003
▁代表的な	-9004
とは異なり	-9005
は鎌倉時代	-9006
具体的には	-9007
意見もある	-9008
有形文化財	-9009
▁京都市営バス	-9010
江戸時代中期の	-9011
販売されている	-9012
▁ハ	-9013
▁景	-9014
に記	-9015
に集	-9016
の再	-9017
めに	-9018
ニギ	-9019
ネス	-9020
フル	-9021
三島	-9022
三角	-9023
事も	-9024
入口	-9025
割合	-9026
叙位	-9027
和気	-9028
品を	-9029
大判	-9030
小町	-9031
川上	-9032
抜擢	-9033
拝殿	-9034
桑名	-9035
決意	-9036
港区	-9037
特権	-9038
直系	-9039
船が	-9040
訓練	-9041
車場	-9042
鍛冶	-9043
鑑真	-9044
に移住	-9045
の設置	-9046
を攻撃	-9047
を試み	-9048
コンビ	-9049
タウン	-9050
ワーク	-9051
上皇は	-9052
二条城	-9053
西京区	-9054
認めた	-9055
を知った	-9056
平治の乱	-9057
後期には	-9058
皇太后宮	-9059
そのものが	-9060
に向かった	-9061
クーデター	-9062
伏見の戦い	-9063
家督を相続	-9064
形民俗文化財	-9065
していたことが	-9066
▁マ	-9067
▁太	-9068
すい	-9069
の僧	-9070
の頃	-9071
みを	-9072
を基	-9073
不安	-9074
伯父	-9075
函館	-9076
北の	-9077
南無	-9078
右近	-9079
幅に	-9080
所収	-9081
承平	-9082
清朝	-9083
神と	-9084
祭の	-9085
署名	-9086
訴え	-9087
貞享	-9088
遂に	-9089
野町	-9090
高僧	-9091
▁国道	-9092
だけが	-9093
の娘を	-9094
の整備	-9095
をもう	-9096
地には	-9097
専用の	-9098
山科区	-9099
年度の	-9100
広がり	-9101
炊御門	-9102
菩提寺	-9103
道府県	-9104
配下の	-9105
してその	-9106
そもそも	-9107
につれて	-9108
もちろん	-9109
を巡って	-9110
一向一揆	-9111
世紀初頭	-9112
大久保利	-9113
武家政権	-9114
▁1928	-9115
▁近年では	-9116
ことになり	-9117
ポルトガル	-9118
殺害された	-9119
発見された	-9120
京都市伏見区	-9121
現存している	-9122
ものと思われる	-9123
ap	-9124
he	-9125
すじ	-9126
へ戻	-9127
を営	-9128
ピン	-9129
モチ	-9130
ヶ所	-9131
付属	-9132
体で	-9133
出汁	-9134
史書	-9135
命が	-9136
和銅	-9137
執り	-9138
外様	-9139
守り	-9140
審査	-9141
小豆	-9142
山門	-9143
左近	-9144
帽子	-9145
御室	-9146
情を	-9147
手紙	-9148
故に	-9149
明暦	-9150
本位	-9151
権介	-9152
武勇	-9153
甲州	-9154
番目	-9155
盗賊	-9156
神職	-9157
種子	-9158
竹内	-9159
経を	-9160
興隆	-9161
葦原	-9162
須磨	-9163
飲料	-9164
▁嵯峨	-9165
ことと	-9166
の基礎	-9167
の普及	-9168
ゲーム	-9169
トナム	-9170
今川氏	-9171
天皇陵	-9172
柴田勝	-9173
歴代の	-9174
肖像画	-9175
藤原基	-9176
逃れる	-9177
門の変	-9178
▁本名は	-9179
が生じた	-9180
などには	-9181
例もある	-9182
宇多天皇	-9183
西南戦争	-9184
(1873	-9185
あげられる	-9186
と名乗った	-9187
日本において	-9188
滋賀県大津市	-9189
BN	-9190
▁修	-9191
つな	-9192
に再	-9193
に数	-9194
に適	-9195
は本	-9196
タレ	-9197
ユニ	-9198
一宮	-9199
伝記	-9200
優先	-9201
全線	-9202
名目	-9203
員の	-9204
寄席	-9205
引付	-9206
日香	-9207
来て	-9208
死刑	-9209
水で	-9210
添加	-9211
漢文	-9212
澤村	-9213
状を	-9214
統括	-9215
義を	-9216
艦隊	-9217
葺き	-9218
行い	-9219
評論	-9220
軍団	-9221
院宣	-9222
龍寺	-9223
▁上杉	-9224
▁幼少	-9225
▁延宝	-9226
が最も	-9227
の位置	-9228
まない	-9229
をさす	-9230
を扱う	-9231
上がる	-9232
事件で	-9233
多大な	-9234
大徳寺	-9235
建てた	-9236
聞いた	-9237
西舞鶴	-9238
離れた	-9239
ISBN	-9240
▁愛宕山	-9241
は大きく	-9242
を行って	-9243
中国では	-9244
元治元年	-9245
合わせる	-9246
建武の新	-9247
滅亡した	-9248
(1872	-9249
、2007	-9250
を名乗った	-9251
見方もある	-9252
という意味で	-9253
SA	-9254
am	-9255
すき	-9256
に因	-9257
のこ	-9258
の根	-9259
便宜	-9260
分布	-9261
判決	-9262
前身	-9263
化が	-9264
喧嘩	-9265
大奥	-9266
奏者	-9267
山麓	-9268
既存	-9269
期は	-9270
東亜	-9271
桜町	-9272
梅田	-9273
残党	-9274
法印	-9275
演習	-9276
現れ	-9277
競馬	-9278
脇坂	-9279
電話	-9280
食用	-9281
養父	-9282
▁保元	-9283
▁初め	-9284
▁大学	-9285
で構成	-9286
に関連	-9287
の末裔	-9288
の特徴	-9289
の管理	-9290
ひとり	-9291
を使い	-9292
を加え	-9293
を残す	-9294
んだが	-9295
二階堂	-9296
奈良線	-9297
姉小路	-9298
後深草	-9299
日より	-9300
横浜市	-9301
賞受賞	-9302
重要視	-9303
長谷川	-9304
駅より	-9305
されたり	-9306
する際に	-9307
をとった	-9308
を取った	-9309
例がある	-9310
消滅した	-9311
▁1949	-9312
▁1950	-9313
▁この場合	-9314
で行われた	-9315
という名称	-9316
とも言える	-9317
は不明だが	-9318
人民共和国	-9319
ならなかった	-9320
を命じられた	-9321
していなかった	-9322
されるようになり	-9323
.4	-9324
▁学	-9325
▁玄	-9326
すく	-9327
だん	-9328
を弔	-9329
を造	-9330
作は	-9331
入る	-9332
剣道	-9333
南は	-9334
同心	-9335
呪術	-9336
天原	-9337
実践	-9338
少な	-9339
屋は	-9340
巻第	-9341
強力	-9342
村に	-9343
歌は	-9344
生は	-9345
発達	-9346
神に	-9347
神田	-9348
縁組	-9349
行基	-9350
蹴鞠	-9351
音が	-9352
高架	-9353
▁祭神	-9354
しかも	-9355
の長女	-9356
まらず	-9357
を巡る	-9358
を築き	-9359
を補佐	-9360
交通局	-9361
代わり	-9362
宣教師	-9363
旧来の	-9364
経由で	-9365
重なる	-9366
関係は	-9367
阿闍梨	-9368
陰陽寮	-9369
鳥取県	-9370
に従三位	-9371
を置いた	-9372
中国から	-9373
が登場する	-9374
ことに成功	-9375
に合わせて	-9376
文化財保護	-9377
述のように	-9378
が死去すると	-9379
3)	-9380
が上	-9381
しさ	-9382
の会	-9383
の年	-9384
ひさ	-9385
みが	-9386
わた	-9387
を祈	-9388
体に	-9389
倭寇	-9390
南丹	-9391
名主	-9392
品質	-9393
娘の	-9394
官軍	-9395
岡田	-9396
干渉	-9397
座に	-9398
死の	-9399
浴び	-9400
王族	-9401
相承	-9402
石上	-9403
細工	-9404
自主	-9405
色彩	-9406
言及	-9407
跡は	-9408
部で	-9409
阿蘇	-9410
順に	-9411
預け	-9412
風潮	-9413
-11	-9414
▁大内	-9415
▁本項	-9416
この頃	-9417
といえ	-9418
に移る	-9419
の一員	-9420
の役割	-9421
を結成	-9422
中世の	-9423
境内に	-9424
宮津線	-9425
忠臣蔵	-9426
旧幕府	-9427
気動車	-9428
神社が	-9429
秀吉に	-9430
裁判所	-9431
讃岐国	-9432
～19	-9433
の一部を	-9434
を理由に	-9435
土方歳三	-9436
者もいる	-9437
したところ	-9438
としており	-9439
ともされる	-9440
まっていた	-9441
伝えている	-9442
確認できる	-9443
見られない	-9444
こともあって	-9445
ことに由来する	-9446
▁エ	-9447
がち	-9448
けり	-9449
を配	-9450
ッと	-9451
ヴェ	-9452
三つ	-9453
三世	-9454
主催	-9455
主流	-9456
九鬼	-9457
価な	-9458
信西	-9459
八月	-9460
南宋	-9461
回忌	-9462
塩谷	-9463
多用	-9464
夭折	-9465
宗盛	-9466
宗祖	-9467
崇敬	-9468
待ち	-9469
愚管	-9470
敏達	-9471
本陣	-9472
民営	-9473
清涼	-9474
渋谷	-9475
生年	-9476
籠城	-9477
義賢	-9478
誤解	-9479
身に	-9480
車が	-9481
道隆	-9482
隠し	-9483
700	-9484
▁丹波	-9485
かせる	-9486
を重ね	-9487
北条政	-9488
式内社	-9489
藤原公	-9490
えられて	-9491
たいらの	-9492
などでも	-9493
を占める	-9494
仁左衛門	-9495
代目中村	-9496
国の守護	-9497
弥生時代	-9498
徳川綱吉	-9499
意味する	-9500
法である	-9501
が発生した	-9502
したものを	-9503
のみささぎ	-9504
われており	-9505
代将軍徳川家	-9506
されてしまった	-9507
▁官位は従五位下	-9508
▁例	-9509
うつ	-9510
かも	-9511
かを	-9512
つと	-9513
とが	-9514
に生	-9515
の義	-9516
の著	-9517
を司	-9518
を教	-9519
コト	-9520
ニー	-9521
一円	-9522
万里	-9523
予想	-9524
体育	-9525
停留	-9526
売買	-9527
大尉	-9528
学園	-9529
安藤	-9530
官庁	-9531
性に	-9532
惣領	-9533
松方	-9534
歩く	-9535
滝川	-9536
犯罪	-9537
町駅	-9538
礼拝	-9539
簡易	-9540
精進	-9541
美人	-9542
連れ	-9543
里見	-9544
門前	-9545
▁大き	-9546
▁天明	-9547
▁織田	-9548
が発足	-9549
を続け	-9550
内部の	-9551
冷泉為	-9552
大阪の	-9553
建物の	-9554
東福寺	-9555
様子を	-9556
江戸に	-9557
種類の	-9558
義経は	-9559
▁初名は	-9560
かなりの	-9561
らによる	-9562
モンゴル	-9563
化により	-9564
名古屋市	-9565
国の史跡	-9566
家の当主	-9567
松永久秀	-9568
種の神器	-9569
貢献した	-9570
(1870	-9571
という呼称	-9572
に終わった	-9573
めるために	-9574
をつとめた	-9575
大きかった	-9576
に用いられる	-9577
ものではない	-9578
.3	-9579
かげ	-9580
の全	-9581
仕事	-9582
信繁	-9583
剃髪	-9584
加熱	-9585
参勤	-9586
台所	-9587
合同	-9588
姫は	-9589
寛弘	-9590
少弁	-9591
携帯	-9592
日市	-9593
書簡	-9594
木曽	-9595
本庄	-9596
札所	-9597
来迎	-9598
検査	-9599
極印	-9600
没し	-9601
治療	-9602
波多	-9603
物で	-9604
脇侍	-9605
蟄居	-9606
諭吉	-9607
転戦	-9608
金銭	-9609
錦絵	-9610
面は	-9611
魚の	-9612
鳳凰	-9613
▁弟に	-9614
と並ぶ	-9615
に入学	-9616
の日記	-9617
の時に	-9618
ゆえに	-9619
を去る	-9620
レスト	-9621
一人の	-9622
合併し	-9623
年月日	-9624
新聞社	-9625
日本史	-9626
時から	-9627
民部省	-9628
珍しく	-9629
直後の	-9630
示した	-9631
▁この後	-9632
▁天皇の	-9633
とも表記	-9634
にわたる	-9635
を結んだ	-9636
メディア	-9637
仮名遣い	-9638
定着した	-9639
家督を譲	-9640
建立した	-9641
▁2001	-9642
えなかった	-9643
に過ぎない	-9644
鎮守府将軍	-9645
ってしまった	-9646
残されている	-9647
するようになり	-9648
いな	-9649
なぜ	-9650
の声	-9651
の目	-9652
ょく	-9653
ムス	-9654
例が	-9655
儒学	-9656
入鹿	-9657
南区	-9658
大祭	-9659
姿で	-9660
字を	-9661
宗全	-9662
専念	-9663
岩波	-9664
広義	-9665
得た	-9666
提唱	-9667
摂家	-9668
改善	-9669
松山	-9670
松江	-9671
桐野	-9672
民部	-9673
清華	-9674
火で	-9675
病弱	-9676
私塾	-9677
綬章	-9678
虚空	-9679
解官	-9680
諸島	-9681
長久	-9682
食堂	-9683
▁(『	-9684
▁信長	-9685
▁朝廷	-9686
▁源氏	-9687
▁近畿	-9688
の名手	-9689
の発達	-9690
はこれ	-9691
を占領	-9692
を守る	-9693
を引く	-9694
アニメ	-9695
ガラス	-9696
三人衆	-9697
下記の	-9698
今度は	-9699
儒学者	-9700
入した	-9701
制施行	-9702
愚管抄	-9703
言えば	-9704
おおむね	-9705
に戻った	-9706
るところ	-9707
を唱える	-9708
を問わず	-9709
一般には	-9710
京都から	-9711
使用した	-9712
落とした	-9713
アマテラス	-9714
左近衛少将	-9715
示している	-9716
が行われていた	-9717
江戸時代前期の	-9718
▁乱	-9719
ュニ	-9720
久御	-9721
先鋒	-9722
刀の	-9723
刀剣	-9724
勢の	-9725
北京	-9726
双方	-9727
叙爵	-9728
司馬	-9729
因坊	-9730
土居	-9731
大手	-9732
女院	-9733
家柄	-9734
屋が	-9735
強訴	-9736
成敗	-9737
数百	-9738
曾我	-9739
村落	-9740
林家	-9741
枚の	-9742
柏木	-9743
権が	-9744
清酒	-9745
火縄	-9746
犬養	-9747
皇極	-9748
箇条	-9749
縮小	-9750
荒木	-9751
解消	-9752
言語	-9753
貸し	-9754
近辺	-9755
野球	-9756
面が	-9757
風が	-9758
▁将軍	-9759
ならび	-9760
は主に	-9761
を推進	-9762
シテ方	-9763
ライン	-9764
ーター	-9765
北条義	-9766
山梨県	-9767
▁それが	-9768
向かった	-9769
駅である	-9770
▁その他の	-9771
▁一説には	-9772
があるため	-9773
したものが	-9774
だったため	-9775
に就任する	-9776
作成された	-9777
指定文化財	-9778
と述べている	-9779
末期から鎌倉時代	-9780
▁何	-9781
▁弓	-9782
▁隣	-9783
ぐん	-9784
に依	-9785
に招	-9786
ばら	-9787
を探	-9788
アナ	-9789
スパ	-9790
一代	-9791
令の	-9792
会を	-9793
側を	-9794
具材	-9795
別院	-9796
勅令	-9797
奔走	-9798
川に	-9799
心に	-9800
悪い	-9801
戸田	-9802
救援	-9803
気の	-9804
火を	-9805
狭い	-9806
環状	-9807
臣下	-9808
観客	-9809
貼り	-9810
道三	-9811
高台	-9812
-10	-9813
▁--	-9814
▁中央	-9815
▁島津	-9816
▁長崎	-9817
が広く	-9818
に力を	-9819
に次ぐ	-9820
の拠点	-9821
られず	-9822
を否定	-9823
ッカー	-9824
作品を	-9825
公文書	-9826
出羽国	-9827
土地を	-9828
太郎は	-9829
官人の	-9830
広大な	-9831
掛けた	-9832
植民地	-9833
毛利氏	-9834
現した	-9835
説いた	-9836
連れて	-9837
▁詳細は	-9838
から明治	-9839
が起こる	-9840
さかのぼ	-9841
というが	-9842
京都府道	-9843
在地領主	-9844
河内源氏	-9845
▁元治元年	-9846
、2005	-9847
に当たった	-9848
メートルの	-9849
衆議院議員	-9850
することもある	-9851
▁第二次世界大戦	-9852
の子として生まれる	-9853
)『	-9854
.6	-9855
しは	-9856
の戦	-9857
の白	-9858
アレ	-9859
クレ	-9860
世間	-9861
兵力	-9862
勝負	-9863
厚い	-9864
味わ	-9865
地図	-9866
地租	-9867
墾田	-9868
実験	-9869
密接	-9870
富豪	-9871
帰依	-9872
店で	-9873
座で	-9874
感覚	-9875
日曜	-9876
洛中	-9877
災害	-9878
烈な	-9879
片桐	-9880
班田	-9881
田楽	-9882
着色	-9883
砲術	-9884
確か	-9885
積み	-9886
立の	-9887
米沢	-9888
精華	-9889
臣従	-9890
自衛	-9891
論は	-9892
遠く	-9893
阻止	-9894
▁そも	-9895
▁以上	-9896
▁利用	-9897
▁実際	-9898
▁鳥羽	-9899
が出る	-9900
が勃発	-9901
に出る	-9902
に関係	-9903
の他に	-9904
の第一	-9905
シーン	-9906
佐久間	-9907
信号場	-9908
個人の	-9909
六角氏	-9910
列車の	-9911
大山崎	-9912
巨大な	-9913
形式の	-9914
徳川吉	-9915
按察使	-9916
改札機	-9917
清水寺	-9918
皇后宮	-9919
相手に	-9920
福門院	-9921
総本山	-9922
▁この際	-9923
する必要	-9924
つである	-9925
との交流	-9926
の一部が	-9927
を定めた	-9928
を求めて	-9929
人間国宝	-9930
取られた	-9931
天皇の第	-9932
▁そのほか	-9933
こととなり	-9934
それ以外の	-9935
にしている	-9936
天皇が即位	-9937
国の重要文化財	-9938
▁少	-9939
くろ	-9940
の座	-9941
の霊	-9942
へ進	-9943
まし	-9944
をひ	-9945
ガラ	-9946
キン	-9947
マツ	-9948
ヶ丘	-9949
一本	-9950
五男	-9951
元文	-9952
先生	-9953
合計	-9954
大工	-9955
実用	-9956
宰相	-9957
帯び	-9958
形が	-9959
御子	-9960
徴兵	-9961
志賀	-9962
旨を	-9963
歌の	-9964
気象	-9965
発し	-9966
直径	-9967
罷免	-9968
軽く	-9969
離反	-9970
頼は	-9971
▁字は	-9972
が出来	-9973
しかし	-9974
と並び	-9975
めない	-9976
ティー	-9977
如意輪	-9978
家の家	-9979
家督は	-9980
教科書	-9981
文化が	-9982
清盛の	-9983
▁それを	-9984
▁他にも	-9985
▁福知山	-9986
あらゆる	-9987
に用いる	-9988
はすべて	-9989
を含めた	-9990
仁親王が	-9991
今昔物語	-9992
帰国した	-9993
弘法大師	-9994
足利義輝	-9995
長宗我部	-9996
▁もともと	-9997
したことを	-9998
発行された	-9999
貴族院議員	-10000
▁そのような	-10001
平安時代中期	-10002
年の壬申の乱	-10003
であるとされる	-10004
とも考えられる	-10005
▁─	-10006
▁遺	-10007
を助	-10008
を狙	-10009
を輩	-10010
三木	-10011
与力	-10012
之介	-10013
二世	-10014
二度	-10015
会見	-10016
勲功	-10017
厳島	-10018
四年	-10019
奥羽	-10020
宇陀	-10021
宿場	-10022
寄付	-10023
小堀	-10024
崇拝	-10025
当該	-10026
所作	-10027
撤去	-10028
放火	-10029
政に	-10030
本当	-10031
札幌	-10032
東宝	-10033
武官	-10034
気候	-10035
津市	-10036
盛衰	-10037
紙に	-10038
藤田	-10039
衣笠	-10040
装備	-10041
諸侯	-10042
谷の	-10043
賞賛	-10044
載せ	-10045
農耕	-10046
長に	-10047
顕如	-10048
騒ぎ	-10049
あたご	-10050
あれば	-10051
かねて	-10052
の名跡	-10053
の養女	-10054
りする	-10055
をよく	-10056
を決定	-10057
ベット	-10058
三条公	-10059
叔父の	-10060
政権は	-10061
焼いた	-10062
留学生	-10063
▁兄弟に	-10064
あわせて	-10065
が多いが	-10066
が起きた	-10067
に入れた	-10068
のものを	-10069
を入れた	-10070
を行なう	-10071
所在する	-10072
最終的に	-10073
本格的に	-10074
番のりば	-10075
阿弥陀堂	-10076
とも呼ばれ	-10077
西園寺公望	-10078
自由民権運動	-10079
▁オ	-10080
▁シ	-10081
▁兼	-10082
▁夜	-10083
▁草	-10084
が変	-10085
が絶	-10086
づる	-10087
とど	-10088
に長	-10089
は中	-10090
まじ	-10091
やし	-10092
ニュ	-10093
乙訓	-10094
今も	-10095
八坂	-10096
具を	-10097
協定	-10098
回転	-10099
国土	-10100
国境	-10101
地理	-10102
墓所	-10103
大化	-10104
実子	-10105
局は	-10106
川村	-10107
後宮	-10108
想像	-10109
新宮	-10110
普賢	-10111
景虎	-10112
曖昧	-10113
東映	-10114
歩合	-10115
泉寺	-10116
深刻	-10117
源五	-10118
演技	-10119
甘露	-10120
知り	-10121
穢れ	-10122
累進	-10123
義が	-10124
蒔絵	-10125
補助	-10126
課題	-10127
譲渡	-10128
通勤	-10129
重の	-10130
鐘楼	-10131
隠れ	-10132
雄は	-10133
高齢	-10134
鬼の	-10135
▁国鉄	-10136
▁地域	-10137
が現れ	-10138
くらい	-10139
てきた	-10140
に進み	-10141
までを	-10142
下総国	-10143
中央の	-10144
兄弟の	-10145
内での	-10146
北九州	-10147
工事が	-10148
恐れた	-10149
時点で	-10150
謀反の	-10151
に乗って	-10152
は現在の	-10153
もっぱら	-10154
クリート	-10155
上杉謙信	-10156
京都府立	-10157
実質的に	-10158
討たれた	-10159
などによる	-10160
に含まれる	-10161
を使用した	-10162
採用された	-10163
▁平安時代の	-10164
コンクリート	-10165
ur	-10166
▁伝	-10167
たて	-10168
つい	-10169
に供	-10170
に合	-10171
の記	-10172
はく	-10173
交戦	-10174
八十	-10175
医療	-10176
南海	-10177
回収	-10178
在住	-10179
娯楽	-10180
存命	-10181
屯田	-10182
山背	-10183
拍子	-10184
撃破	-10185
撃退	-10186
月末	-10187
民国	-10188
求め	-10189
決着	-10190
泉涌	-10191
濃い	-10192
牛肉	-10193
空港	-10194
粟田	-10195
結ぶ	-10196
荘官	-10197
西山	-10198
西方	-10199
豪華	-10200
踏み	-10201
通宝	-10202
郷の	-10203
闘争	-10204
除く	-10205
陶器	-10206
高階	-10207
▁宝永	-10208
する際	-10209
づける	-10210
につれ	-10211
めると	-10212
を作成	-10213
アール	-10214
ページ	-10215
リット	-10216
代執権	-10217
元老院	-10218
前には	-10219
古文書	-10220
図屏風	-10221
大国主	-10222
敗れて	-10223
数々の	-10224
文学部	-10225
浄土教	-10226
知恩院	-10227
若狭国	-10228
訪れる	-10229
近衛基	-10230
が一般的	-10231
それほど	-10232
を起こし	-10233
一説には	-10234
登場した	-10235
駅となる	-10236
(1156	-10237
▁そもそも	-10238
として存続	-10239
として開業	-10240
とするのが	-10241
と言われた	-10242
どのような	-10243
に葬られた	-10244
を使用する	-10245
歌舞伎役者	-10246
ことがあった	-10247
になっており	-10248
の一種である	-10249
が記されている	-10250
江戸時代後期の	-10251
考えられている	-10252
として用いられる	-10253
▁孝	-10254
づき	-10255
の節	-10256
の美	-10257
アミ	-10258
イワ	-10259
サル	-10260
スピ	-10261
フロ	-10262
信憑	-10263
出生	-10264
剥奪	-10265
名所	-10266
名跡	-10267
売却	-10268
多少	-10269
本庁	-10270
概ね	-10271
殿を	-10272
毛野	-10273
監視	-10274
終結	-10275
緩和	-10276
義輝	-10277
説く	-10278
論文	-10279
讒言	-10280
退治	-10281
郡山	-10282
降臨	-10283
黄金	-10284
▁律令	-10285
かして	-10286
が開催	-10287
に似た	-10288
に出た	-10289
の兵を	-10290
の必要	-10291
の際の	-10292
ましい	-10293
を拒否	-10294
カツ丼	-10295
カラオ	-10296
クラス	-10297
一連の	-10298
分けて	-10299
小さい	-10300
徒歩約	-10301
怒りを	-10302
恵まれ	-10303
歴史学	-10304
源義朝	-10305
異母兄	-10306
研究会	-10307
細かく	-10308
鎌倉へ	-10309
養子の	-10310
▁672	-10311
に属した	-10312
を支える	-10313
亡くなる	-10314
京都本線	-10315
派遣した	-10316
真宗大谷	-10317
足利直義	-10318
▁1988	-10319
がなかった	-10320
などである	-10321
尾上菊五郎	-10322
最終的には	-10323
に分類される	-10324
ものであるが	-10325
わけではなく	-10326
-(	-10327
たに	-10328
に開	-10329
の海	-10330
の裏	-10331
ふん	-10332
アラ	-10333
スポ	-10334
七郎	-10335
京に	-10336
任の	-10337
傀儡	-10338
分に	-10339
北方	-10340
合体	-10341
国学	-10342
巻の	-10343
御影	-10344
相伝	-10345
真っ	-10346
祖先	-10347
競争	-10348
簡略	-10349
精霊	-10350
義教	-10351
誅組	-10352
転封	-10353
追贈	-10354
高明	-10355
▁全国	-10356
▁墓所	-10357
▁延暦	-10358
▁時代	-10359
の一門	-10360
の息子	-10361
を兼ね	-10362
を出産	-10363
を導入	-10364
を指揮	-10365
を滅ぼ	-10366
乗車券	-10367
仕える	-10368
以降も	-10369
兵部卿	-10370
南禅寺	-10371
学専攻	-10372
祖父の	-10373
稲葉正	-10374
藤原良	-10375
造りの	-10376
鉄道が	-10377
長元年	-10378
▁北海道	-10379
に就任し	-10380
コミュニ	-10381
デビュー	-10382
何らかの	-10383
取り入れ	-10384
皇太子に	-10385
直通運転	-10386
神功皇后	-10387
鉄道事業	-10388
(1866	-10389
(1889	-10390
▁1889	-10391
▁中国では	-10392
▁戊辰戦争	-10393
が出された	-10394
一般的には	-10395
徳川家康が	-10396
浄土真宗の	-10397
の一人として	-10398
グレゴリオ暦	-10399
家督を継いだ	-10400
されることになった	-10401
1-	-10402
▁頭	-10403
ちか	-10404
ちん	-10405
に随	-10406
の為	-10407
ばし	-10408
ノキ	-10409
七夕	-10410
丹羽	-10411
修羅	-10412
公爵	-10413
兵部	-10414
刺身	-10415
坊城	-10416
埋め	-10417
孝允	-10418
寺田	-10419
市村	-10420
役人	-10421
役目	-10422
御堂	-10423
愛称	-10424
拝謁	-10425
本営	-10426
権大	-10427
火葬	-10428
父子	-10429
生命	-10430
田畑	-10431
発音	-10432
知る	-10433
祝日	-10434
織物	-10435
西は	-10436
認可	-10437
配下	-10438
酒蔵	-10439
鎖国	-10440
開化	-10441
震災	-10442
-15	-10443
に所属	-10444
の名所	-10445
の子供	-10446
の後見	-10447
の長さ	-10448
は後に	-10449
を失い	-10450
を招き	-10451
を確保	-10452
伺える	-10453
何度も	-10454
協力を	-10455
合戦の	-10456
小さく	-10457
山形県	-10458
幹線の	-10459
湖西線	-10460
皇室の	-10461
終わり	-10462
考古学	-10463
路線の	-10464
領地を	-10465
が見える	-10466
化の改新	-10467
天皇の勅	-10468
許された	-10469
▁1945	-10470
▁ここでは	-10471
に置かれた	-10472
をめぐって	-10473
を持たない	-10474
創建された	-10475
立命館大学	-10476
されてしまう	-10477
延喜式神名帳	-10478
に記されている	-10479
▁男	-10480
▁自	-10481
は天	-10482
を広	-10483
を禁	-10484
イカ	-10485
スケ	-10486
中間	-10487
元亀	-10488
公武	-10489
初演	-10490
卿記	-10491
回る	-10492
囲碁	-10493
山上	-10494
布団	-10495
平忠	-10496
広域	-10497
思議	-10498
校地	-10499
構え	-10500
満仲	-10501
潜伏	-10502
現世	-10503
生存	-10504
疫病	-10505
私鉄	-10506
線香	-10507
縁戚	-10508
職は	-10509
西宮	-10510
資源	-10511
走り	-10512
風流	-10513
▁台湾	-10514
▁清和	-10515
から一	-10516
から外	-10517
だけは	-10518
づくり	-10519
の代表	-10520
の高い	-10521
めたが	-10522
を命ぜ	-10523
を展開	-10524
を差し	-10525
を開催	-10526
ルーツ	-10527
上野介	-10528
以上に	-10529
千利休	-10530
周囲の	-10531
広まり	-10532
後三条	-10533
政友会	-10534
紫式部	-10535
継いで	-10536
近衛家	-10537
鎌倉市	-10538
▁同じく	-10539
きょうと	-10540
けている	-10541
しかない	-10542
に仕えて	-10543
のなかで	-10544
を果たす	-10545
んでおり	-10546
チェーン	-10547
加藤清正	-10548
明治天皇	-10549
有職故実	-10550
末期には	-10551
称された	-10552
西日本の	-10553
諸説あり	-10554
▁1970	-10555
というのが	-10556
など多くの	-10557
ろうとした	-10558
右近衛中将	-10559
暗殺された	-10560
理由として	-10561
組み合わせ	-10562
運転される	-10563
食べられる	-10564
が与えられた	-10565
収録されている	-10566
という意味である	-10567
▁身	-10568
▁霊	-10569
くま	-10570
くわ	-10571
さし	-10572
そん	-10573
の心	-10574
は新	-10575
も出	-10576
ブリ	-10577
主神	-10578
事や	-10579
五條	-10580
令外	-10581
伴奏	-10582
南蛮	-10583
原の	-10584
反撃	-10585
大門	-10586
姫の	-10587
安房	-10588
彼が	-10589
斑鳩	-10590
料亭	-10591
日米	-10592
明経	-10593
未満	-10594
染め	-10595
橿原	-10596
沖田	-10597
石が	-10598
秘仏	-10599
翌日	-10600
聞こ	-10601
若宮	-10602
血筋	-10603
衝撃	-10604
表す	-10605
謁見	-10606
飛行	-10607
魚介	-10608
)」(	-10609
▁-「	-10610
▁四条	-10611
▁著書	-10612
に立ち	-10613
を批判	-10614
を追放	-10615
元服し	-10616
号系統	-10617
大学院	-10618
宗家の	-10619
宮城県	-10620
木津川	-10621
権力の	-10622
違いは	-10623
都市の	-10624
都市圏	-10625
ができる	-10626
に伝わる	-10627
に比べて	-10628
は非常に	-10629
を遂げた	-10630
を集めて	-10631
オープン	-10632
今日では	-10633
似ている	-10634
最後まで	-10635
結果的に	-10636
▁一般的に	-10637
▁天平宝字	-10638
しておらず	-10639
であるから	-10640
とよばれる	-10641
などがいる	-10642
を許される	-10643
処刑された	-10644
東海道本線	-10645
から江戸時代	-10646
と呼んでいる	-10647
日本の飛鳥時代の	-10648
2,	-10649
ll	-10650
▁村	-10651
▁銅	-10652
▁門	-10653
こだ	-10654
っぽ	-10655
の例	-10656
ひで	-10657
バン	-10658
一橋	-10659
三曲	-10660
中務	-10661
伐採	-10662
倭人	-10663
兵が	-10664
困窮	-10665
在原	-10666
序列	-10667
新八	-10668
新宿	-10669
新書	-10670
楽曲	-10671
次ぎ	-10672
無し	-10673
石は	-10674
考証	-10675
藤井	-10676
護摩	-10677
運び	-10678
野の	-10679
金融	-10680
頼盛	-10681
鹿苑	-10682
▁平城	-10683
▁建武	-10684
▁法名	-10685
▁父の	-10686
かって	-10687
がつく	-10688
の後裔	-10689
の指導	-10690
を擁立	-10691
を書き	-10692
を祈願	-10693
を聞き	-10694
シート	-10695
主人公	-10696
主要な	-10697
倶楽部	-10698
天神川	-10699
太郎が	-10700
失った	-10701
彼らは	-10702
生じた	-10703
禄元年	-10704
起源は	-10705
部から	-10706
酒井忠	-10707
鎌倉の	-10708
長らく	-10709
ANSA	-10710
した場合	-10711
する形で	-10712
そのため	-10713
を兼ねる	-10714
ブランド	-10715
事が多い	-10716
品として	-10717
教育機関	-10718
真言宗の	-10719
祀られる	-10720
観音菩薩	-10721
駅に改称	-10722
に当たって	-10723
人物として	-10724
東京都港区	-10725
検非違使別当	-10726
▁日本における	-10727
▁さ	-10728
▁良	-10729
うが	-10730
は平	-10731
を儲	-10732
を治	-10733
ギリ	-10734
ニャ	-10735
一名	-10736
一国	-10737
休日	-10738
会場	-10739
全集	-10740
回向	-10741
団子	-10742
大変	-10743
弱体	-10744
手本	-10745
排斥	-10746
文に	-10747
旗を	-10748
検断	-10749
様子	-10750
渋川	-10751
襲名	-10752
護衛	-10753
豪商	-10754
辞典	-10755
達成	-10756
鈴鹿	-10757
陶磁	-10758
食器	-10759
▁姓は	-10760
▁延喜	-10761
▁金剛	-10762
さから	-10763
たとえ	-10764
に就く	-10765
の意向	-10766
もたら	-10767
を以て	-10768
を元に	-10769
を殺害	-10770
を獲得	-10771
リズム	-10772
ルール	-10773
中央に	-10774
分ける	-10775
土佐藩	-10776
大阪駅	-10777
密教の	-10778
将軍に	-10779
後陽成	-10780
最高位	-10781
者から	-10782
肥前国	-10783
自己の	-10784
藤原為	-10785
▁160	-10786
▁後醍醐	-10787
いったん	-10788
かという	-10789
ともとは	-10790
なかなか	-10791
などして	-10792
はあまり	-10793
はないが	-10794
ひとつの	-10795
を見ると	-10796
を記した	-10797
政治的な	-10798
レストラン	-10799
三十六歌仙	-10800
京都市北区	-10801
導入された	-10802
施行された	-10803
明治時代の	-10804
石山本願寺	-10805
行なわれた	-10806
▁一般的には	-10807
▁漢	-10808
かど	-10809
を乗	-10810
ノミ	-10811
一体	-10812
僧が	-10813
僧の	-10814
優勢	-10815
光圀	-10816
募集	-10817
反論	-10818
問屋	-10819
四等	-10820
学ぶ	-10821
実隆	-10822
家集	-10823
寝殿	-10824
度に	-10825
征韓	-10826
恨み	-10827
慶應	-10828
成就	-10829
戦略	-10830
支流	-10831
改造	-10832
時忠	-10833
服装	-10834
松田	-10835
栄養	-10836
業界	-10837
水軍	-10838
法寺	-10839
澄元	-10840
火の	-10841
碑が	-10842
祝詞	-10843
衆生	-10844
退助	-10845
遅れ	-10846
鍋島	-10847
麗な	-10848
▁兄に	-10849
の呼称	-10850
の娘で	-10851
れると	-10852
ジャー	-10853
上杉憲	-10854
享元年	-10855
小麦粉	-10856
数える	-10857
桜井市	-10858
様子が	-10859
歴史書	-10860
荘園の	-10861
藤原秀	-10862
記念物	-10863
諸国を	-10864
養子に	-10865
▁大阪府	-10866
▁晩年は	-10867
と伝える	-10868
のほかに	-10869
の時代に	-10870
を越えて	-10871
を食べる	-10872
太政官符	-10873
摂関政治	-10874
比叡山の	-10875
過ごした	-10876
(1590	-10877
▁京都府立	-10878
だけである	-10879
ほとんどの	-10880
続いている	-10881
豊臣秀吉が	-10882
うと	-10883
がお	-10884
せば	-10885
はし	-10886
を修	-10887
シェ	-10888
三善	-10889
事変	-10890
内覧	-10891
出張	-10892
動揺	-10893
参内	-10894
受容	-10895
吉村	-10896
君の	-10897
和漢	-10898
大韓	-10899
密告	-10900
庁舎	-10901
廃仏	-10902
後を	-10903
本店	-10904
束帯	-10905
校長	-10906
牡丹	-10907
狩猟	-10908
産物	-10909
神体	-10910
禁裏	-10911
第五	-10912
緩行	-10913
融合	-10914
観察	-10915
買収	-10916
道教	-10917
銭の	-10918
長年	-10919
隆景	-10920
騎射	-10921
▁元は	-10922
▁安土	-10923
▁阪急	-10924
、?-	-10925
に死去	-10926
の前で	-10927
の方針	-10928
をあげ	-10929
を混ぜ	-10930
キャラ	-10931
チャー	-10932
万石の	-10933
上洛し	-10934
仕込み	-10935
前後に	-10936
各種の	-10937
国際法	-10938
岩手県	-10939
従四位	-10940
祇園祭	-10941
秋田県	-10942
豊かな	-10943
近年の	-10944
通りの	-10945
門院の	-10946
間違い	-10947
▁中でも	-10948
これらを	-10949
スルッと	-10950
三条実美	-10951
尊皇攘夷	-10952
日本料理	-10953
東北地方	-10954
細川幽斎	-10955
賞を受賞	-10956
鎌倉公方	-10957
養老律令	-10958
(1573	-10959
KANSA	-10960
▁1995	-10961
、2008	-10962
いなかった	-10963
を担当する	-10964
付けられる	-10965
天皇の皇女	-10966
完成させた	-10967
線の鉄道駅	-10968
ことができた	-10969
江戸時代中期	-10970
していたという	-10971
が設置されている	-10972
▁弟	-10973
▁池	-10974
▁没	-10975
ぐう	-10976
けの	-10977
つこ	-10978
に苦	-10979
に行	-10980
のし	-10981
を再	-10982
ハー	-10983
モノ	-10984
一貫	-10985
作用	-10986
偽書	-10987
分析	-10988
回し	-10989
報恩	-10990
大弐	-10991
如く	-10992
定員	-10993
対面	-10994
尊重	-10995
幕藩	-10996
御息	-10997
打た	-10998
接待	-10999
旭日	-11000
条の	-11001
梵鐘	-11002
歌集	-11003
水が	-11004
活字	-11005
男の	-11006
籠も	-11007
練習	-11008
親指	-11009
赤坂	-11010
重は	-11011
鉄板	-11012
長女	-11013
長寿	-11014
随筆	-11015
髪を	-11016
っかり	-11017
づけた	-11018
の種類	-11019
をつく	-11020
を入れ	-11021
を襲撃	-11022
を送り	-11023
事前に	-11024
付けて	-11025
古来の	-11026
時間が	-11027
正一位	-11028
浜大津	-11029
百済の	-11030
道長の	-11031
▁ここに	-11032
ところを	-11033
としない	-11034
を担った	-11035
を聞いた	-11036
条約改正	-11037
禁門の変	-11038
都道府県	-11039
▁1996	-11040
の子として	-11041
の戦いでは	-11042
化している	-11043
KANSAI	-11044
が挙げられる	-11045
したことにより	-11046
日本の飛鳥時代の人物である	-11047
(→	-11048
▁氏	-11049
ぎり	-11050
に倣	-11051
は同	-11052
みて	-11053
を押	-11054
下駄	-11055
下鴨	-11056
俘囚	-11057
南の	-11058
呉服	-11059
告げ	-11060
大鏡	-11061
大黒	-11062
対照	-11063
局の	-11064
座は	-11065
建保	-11066
建白	-11067
律師	-11068
徒然	-11069
御厨	-11070
楽郡	-11071
模写	-11072
殺し	-11073
法眼	-11074
海舟	-11075
清国	-11076
焼け	-11077
片山	-11078
王丸	-11079
看板	-11080
神々	-11081
秀で	-11082
義塾	-11083
西暦	-11084
通行	-11085
長期	-11086
が発達	-11087
と思い	-11088
に限定	-11089
の本尊	-11090
は無い	-11091
ひょう	-11092
を迎え	-11093
中から	-11094
付いた	-11095
全日本	-11096
右兵衛	-11097
周囲に	-11098
明日香	-11099
殺した	-11100
行動を	-11101
西洋の	-11102
請け負	-11103
軍事的	-11104
近くの	-11105
追討の	-11106
閑院宮	-11107
面では	-11108
▁伏見宮	-11109
したので	-11110
に渡って	-11111
ベトナム	-11112
乗り換え	-11113
伝来した	-11114
徳川家の	-11115
日本初の	-11116
観点から	-11117
がそれぞれ	-11118
ともなった	-11119
にかけては	-11120
の神として	-11121
は戦国時代	-11122
を引き起こ	-11123
ことがわかる	-11124
の養子となり	-11125
用いられていた	-11126
.1	-11127
▁塩	-11128
▁姓	-11129
が目	-11130
せつ	-11131
の寺	-11132
リエ	-11133
事績	-11134
伝わ	-11135
出席	-11136
分岐	-11137
収容	-11138
口伝	-11139
和議	-11140
坊門	-11141
壱岐	-11142
学士	-11143
宮本	-11144
審議	-11145
従軍	-11146
得意	-11147
志摩	-11148
急激	-11149
損害	-11150
新制	-11151
業者	-11152
権帥	-11153
源光	-11154
福祉	-11155
移住	-11156
移封	-11157
種別	-11158
航海	-11159
色紙	-11160
花見	-11161
藤壺	-11162
踏歌	-11163
軍隊	-11164
退去	-11165
重信	-11166
鎮西	-11167
院で	-11168
陸上	-11169
食糧	-11170
高知	-11171
(69	-11172
▁蘇我	-11173
でいう	-11174
るべき	-11175
ニニギ	-11176
吉良義	-11177
地域に	-11178
太郎の	-11179
屋事件	-11180
東日本	-11181
止める	-11182
活躍し	-11183
直前に	-11184
神祇官	-11185
駐車場	-11186
を兼ねた	-11187
バイパス	-11188
大覚寺統	-11189
山縣有朋	-11190
帝国議会	-11191
相次いで	-11192
(1877	-11193
▁1943	-11194
▁1989	-11195
▁一般には	-11196
お好み焼き	-11197
がなされた	-11198
が起こると	-11199
三種の神器	-11200
傾向にある	-11201
町に編成された	-11202
▁ミ	-11203
▁見	-11204
▁関	-11205
きを	-11206
じょ	-11207
とこ	-11208
に不	-11209
に頼	-11210
は白	-11211
ふり	-11212
ほっ	-11213
をこ	-11214
を贈	-11215
サク	-11216
ソウ	-11217
上級	-11218
中津	-11219
傑作	-11220
円形	-11221
勾玉	-11222
原田	-11223
反面	-11224
在京	-11225
変遷	-11226
奪還	-11227
奴婢	-11228
宗旦	-11229
岩戸	-11230
戦の	-11231
戸主	-11232
持た	-11233
派を	-11234
海賊	-11235
渤海	-11236
登山	-11237
短縮	-11238
確執	-11239
移築	-11240
穴穂	-11241
等持	-11242
箱根	-11243
継嗣	-11244
繋が	-11245
肥前	-11246
興国	-11247
詔勅	-11248
話は	-11249
貞和	-11250
重が	-11251
開国	-11252
開城	-11253
頂点	-11254
頼が	-11255
鰹節	-11256
-14	-11257
が起き	-11258
すべし	-11259
と比較	-11260
に由来	-11261
を発見	-11262
を賜る	-11263
ビエル	-11264
世界の	-11265
争いが	-11266
但馬国	-11267
全体を	-11268
和泉国	-11269
大綬章	-11270
大量の	-11271
寄せた	-11272
座して	-11273
挙兵を	-11274
政府が	-11275
明確な	-11276
橿原市	-11277
正倉院	-11278
段階で	-11279
没する	-11280
火縄銃	-11281
的存在	-11282
織田氏	-11283
詳しく	-11284
が現れる	-11285
が置かれ	-11286
この時期	-11287
していき	-11288
それらを	-11289
ところに	-11290
を奉じて	-11291
内にある	-11292
利用可能	-11293
大宝律令	-11294
当初から	-11295
毘沙門天	-11296
終わった	-11297
(1221	-11298
(1865	-11299
▁1871	-11300
影響を与え	-11301
▁私	-11302
の跡	-11303
を閉	-11304
イル	-11305
キュ	-11306
ヨシ	-11307
中院	-11308
二月	-11309
付く	-11310
任務	-11311
原型	-11312
名田	-11313
名詞	-11314
四季	-11315
委任	-11316
御料	-11317
木綿	-11318
清洲	-11319
田重	-11320
至る	-11321
茶会	-11322
足を	-11323
農林	-11324
通路	-11325
金貨	-11326
開基	-11327
青蓮	-11328
～3	-11329
▁鉄道	-11330
したい	-11331
その子	-11332
で死去	-11333
と合流	-11334
に関与	-11335
の語源	-11336
は中国	-11337
を兼務	-11338
を生む	-11339
を辞す	-11340
を食べ	-11341
ヒット	-11342
五重塔	-11343
傷を負	-11344
北大路	-11345
大仏殿	-11346
御所の	-11347
日会社	-11348
曹洞宗	-11349
梶原景	-11350
母方の	-11351
無関係	-11352
番目の	-11353
福岡市	-11354
立てて	-11355
▁実際に	-11356
▁西園寺	-11357
があって	-11358
で有名な	-11359
ともいい	-11360
なかでも	-11361
を名乗り	-11362
を立てた	-11363
三好長慶	-11364
建築様式	-11365
普及した	-11366
木戸孝允	-11367
歌右衛門	-11368
歳にして	-11369
込まれる	-11370
(1585	-11371
▁1980	-11372
であるとの	-11373
での読みは	-11374
をもたらす	-11375
を許された	-11376
同志社大学	-11377
日本国憲法	-11378
ということで	-11379
テレビドラマ	-11380
存在している	-11381
することがある	-11382
国立国会図書館	-11383
▁裏	-11384
▁車	-11385
おみ	-11386
つぶ	-11387
の物	-11388
を仕	-11389
トイ	-11390
上郡	-11391
久の	-11392
人事	-11393
令が	-11394
僅か	-11395
円珍	-11396
勅旨	-11397
千鳥	-11398
名字	-11399
土木	-11400
大村	-11401
寛正	-11402
師輔	-11403
帰る	-11404
幸徳	-11405
忠実	-11406
怪談	-11407
手な	-11408
掘り	-11409
支線	-11410
朗詠	-11411
段の	-11412
永仁	-11413
狭義	-11414
環濠	-11415
盛岡	-11416
短歌	-11417
絵図	-11418
衰微	-11419
門は	-11420
食感	-11421
香炉	-11422
ica	-11423
▁北条	-11424
▁天台	-11425
▁武家	-11426
▁沿革	-11427
が設立	-11428
くると	-11429
しんだ	-11430
の上洛	-11431
やかに	-11432
を下賜	-11433
を招く	-11434
を進め	-11435
不可能	-11436
人々に	-11437
六地蔵	-11438
地域で	-11439
大名の	-11440
大規模	-11441
捨てて	-11442
方向に	-11443
町名は	-11444
盛衰記	-11445
研究者	-11446
義経の	-11447
若年寄	-11448
落とす	-11449
親しく	-11450
野村万	-11451
2004	-11452
▁東海道	-11453
えており	-11454
かかった	-11455
が始まる	-11456
けられる	-11457
まつわる	-11458
らかじめ	-11459
を付けた	-11460
を含めて	-11461
光明皇后	-11462
女子大学	-11463
摂関家の	-11464
▁1898	-11465
▁そうした	-11466
などがあり	-11467
につながる	-11468
側近として	-11469
明治時代に	-11470
生没年未詳	-11471
▁このことは	-11472
▁旧仮名遣い	-11473
が有力である	-11474
に分けられる	-11475
を目的とした	-11476
付けられている	-11477
▁旧仮名遣いでの読みは	-11478
.0	-11479
.2	-11480
▁と	-11481
▁教	-11482
▁百	-11483
どれ	-11484
ぼん	-11485
スカ	-11486
トウ	-11487
一品	-11488
丘陵	-11489
仏堂	-11490
例も	-11491
倒れ	-11492
元来	-11493
光を	-11494
刃傷	-11495
北側	-11496
和団	-11497
学区	-11498
宇和	-11499
川崎	-11500
役は	-11501
御座	-11502
徴税	-11503
志向	-11504
承安	-11505
拝観	-11506
放棄	-11507
有能	-11508
次が	-11509
正史	-11510
民法	-11511
泣き	-11512
洋服	-11513
用人	-11514
純粋	-11515
縫い	-11516
自立	-11517
色を	-11518
藩政	-11519
見は	-11520
調停	-11521
逃走	-11522
選手	-11523
長を	-11524
関心	-11525
順調	-11526
駅弁	-11527
髪型	-11528
(67	-11529
▁法然	-11530
と号す	-11531
に統合	-11532
に進む	-11533
の軍勢	-11534
はある	-11535
を含め	-11536
を追い	-11537
ストラ	-11538
体制が	-11539
地方で	-11540
奏者番	-11541
小路通	-11542
山神社	-11543
年以降	-11544
強力な	-11545
明確に	-11546
時期の	-11547
普通の	-11548
書いて	-11549
法皇の	-11550
波多野	-11551
第一次	-11552
長男の	-11553
関東の	-11554
院近臣	-11555
▁日本で	-11556
しやすい	-11557
の子孫は	-11558
を招いた	-11559
インドの	-11560
挙兵した	-11561
村上天皇	-11562
武田氏の	-11563
治安維持	-11564
瀬戸内海	-11565
点である	-11566
表現する	-11567
降伏した	-11568
(1884	-11569
といわれた	-11570
の娘である	-11571
▁しかしこの	-11572
▁しかしその	-11573
が描かれている	-11574
のひとつである	-11575
していることから	-11576
日本神話に登場する	-11577
▁堀	-11578
▁島	-11579
▁慈	-11580
あめ	-11581
に配	-11582
べん	-11583
を攻	-11584
トヨ	-11585
ドア	-11586
ピア	-11587
ボウ	-11588
上位	-11589
中書	-11590
億円	-11591
兵は	-11592
兵隊	-11593
冠位	-11594
分か	-11595
取扱	-11596
呼応	-11597
堅田	-11598
夏の	-11599
夜に	-11600
大永	-11601
天地	-11602
寛治	-11603
当麻	-11604
擾乱	-11605
永井	-11606
淀殿	-11607
淡海	-11608
牛丼	-11609
直属	-11610
禄は	-11611
華道	-11612
行者	-11613
規格	-11614
論の	-11615
足の	-11616
道徳	-11617
量を	-11618
開き	-11619
難を	-11620
▁バス	-11621
▁文治	-11622
▁明和	-11623
▁武蔵	-11624
▁第三	-11625
が定め	-11626
までが	-11627
を付け	-11628
を題材	-11629
アップ	-11630
ンドン	-11631
九州の	-11632
使節団	-11633
勝手に	-11634
周辺に	-11635
学んだ	-11636
宗派の	-11637
宮中に	-11638
当たる	-11639
留守居	-11640
鎌倉に	-11641
鴈治郎	-11642
▁あたご	-11643
▁現代の	-11644
▁現在も	-11645
▁近江国	-11646
あらすじ	-11647
との関連	-11648
とは考え	-11649
に属して	-11650
を称した	-11651
カラオケ	-11652
一条天皇	-11653
名の由来	-11654
太上天皇	-11655
弟である	-11656
文部大臣	-11657
断絶した	-11658
▁1999	-11659
いたという	-11660
が設置され	-11661
づけられた	-11662
という形で	-11663
実施された	-11664
影響を及ぼ	-11665
持っていた	-11666
明治天皇の	-11667
織田信長の	-11668
者となった	-11669
の長男として	-11670
可能性もある	-11671
▁関ヶ原の戦い	-11672
することとなる	-11673
平安時代前期の	-11674
されるようになる	-11675
as	-11676
▁倭	-11677
▁夫	-11678
▁湯	-11679
▁船	-11680
さび	-11681
そろ	-11682
だる	-11683
と共	-11684
の順	-11685
はた	-11686
ひき	-11687
ませ	-11688
を博	-11689
一休	-11690
三の	-11691
会談	-11692
何か	-11693
円仁	-11694
南西	-11695
危惧	-11696
原作	-11697
名物	-11698
命の	-11699
土倉	-11700
場は	-11701
夜行	-11702
大根	-11703
姿は	-11704
孤立	-11705
家伝	-11706
専売	-11707
居宣	-11708
廃寺	-11709
微妙	-11710
接触	-11711
改築	-11712
本土	-11713
権門	-11714
正義	-11715
比良	-11716
決め	-11717
注文	-11718
淀屋	-11719
灯籠	-11720
牽制	-11721
男系	-11722
神格	-11723
祭事	-11724
経費	-11725
行方	-11726
論が	-11727
質は	-11728
返す	-11729
造形	-11730
除目	-11731
電子	-11732
駅が	-11733
高の	-11734
高国	-11735
▁春日	-11736
』(『	-11737
が無く	-11738
しゅん	-11739
すめら	-11740
に戻る	-11741
に記載	-11742
の問題	-11743
の形態	-11744
を無視	-11745
を発揮	-11746
を禁止	-11747
ジョン	-11748
スルー	-11749
乏しい	-11750
人員は	-11751
住んだ	-11752
受ける	-11753
学習院	-11754
宮中の	-11755
容易に	-11756
掛けて	-11757
本因坊	-11758
演じる	-11759
甘露寺	-11760
自らは	-11761
長崎県	-11762
養嗣子	-11763
高知県	-11764
▁しかも	-11765
▁京都駅	-11766
▁天皇は	-11767
うために	-11768
かせない	-11769
に始まる	-11770
をめぐる	-11771
ッション	-11772
メンバー	-11773
世紀には	-11774
令により	-11775
停車する	-11776
冷泉天皇	-11777
創建した	-11778
名がある	-11779
影響力を	-11780
東本願寺	-11781
源頼朝の	-11782
郷土料理	-11783
(1181	-11784
▁1951	-11785
ところから	-11786
を経由して	-11787
再建された	-11788
太政官布告	-11789
▁江戸時代に	-11790
を務めていた	-11791
存在していた	-11792
初期にかけての	-11793
-7	-11794
▁コ	-11795
つて	-11796
の刻	-11797
の文	-11798
ギャ	-11799
チュ	-11800
主人	-11801
伝法	-11802
何も	-11803
保有	-11804
像高	-11805
全員	-11806
八瀬	-11807
写経	-11808
別雷	-11809
北斎	-11810
千里	-11811
厨子	-11812
古筆	-11813
名家	-11814
圧力	-11815
容保	-11816
密な	-11817
平面	-11818
所要	-11819
攻防	-11820
新町	-11821
日と	-11822
有無	-11823
歌謡	-11824
正六	-11825
氏も	-11826
海水	-11827
照寺	-11828
率い	-11829
産品	-11830
目標	-11831
祀る	-11832
秀は	-11833
立后	-11834
竹の	-11835
細い	-11836
美浜	-11837
色に	-11838
花粉	-11839
蔵は	-11840
豊島	-11841
辺路	-11842
酸化	-11843
重ね	-11844
重忠	-11845
門主	-11846
門人	-11847
魏志	-11848
180	-11849
▁同日	-11850
▁山城	-11851
▁石川	-11852
がおり	-11853
が有名	-11854
に参議	-11855
に巻き	-11856
に組み	-11857
の基本	-11858
の建設	-11859
もはや	-11860
も含む	-11861
を必要	-11862
ウェイ	-11863
エズス	-11864
コンブ	-11865
フライ	-11866
フリー	-11867
ランス	-11868
一時は	-11869
上から	-11870
中では	-11871
井上馨	-11872
兵衛の	-11873
兵部省	-11874
同士の	-11875
向けの	-11876
周防国	-11877
年成立	-11878
広がる	-11879
死後の	-11880
社会的	-11881
藤原顕	-11882
観世音	-11883
軍勢を	-11884
関係を	-11885
1500	-11886
▁家業は	-11887
が大きい	-11888
が存在し	-11889
と呼んで	-11890
に限らず	-11891
の影響で	-11892
の死後は	-11893
チベット	-11894
京都交通	-11895
官である	-11896
応の擾乱	-11897
(1598	-11898
(1615	-11899
が使われる	-11900
さなかった	-11901
で作られた	-11902
功績により	-11903
軍を率いて	-11904
が開始された	-11905
されておらず	-11906
を与えられる	-11907
片岡仁左衛門	-11908
▁京阪電気鉄道	-11909
としての地位を	-11910
▁矢	-11911
が始	-11912
が後	-11913
で約	-11914
と語	-11915
に励	-11916
ばれ	-11917
もつ	-11918
をの	-11919
を外	-11920
を愛	-11921
フラ	-11922
ルの	-11923
不破	-11924
依り	-11925
冬の	-11926
南側	-11927
参り	-11928
坐禅	-11929
多聞	-11930
婚約	-11931
学研	-11932
宗像	-11933
屋で	-11934
常盤	-11935
年賀	-11936
幽霊	-11937
怒り	-11938
戦前	-11939
数学	-11940
晩年	-11941
柳本	-11942
植え	-11943
歌壇	-11944
段目	-11945
法第	-11946
渡る	-11947
犠牲	-11948
登り	-11949
皇籍	-11950
短く	-11951
筑波	-11952
純友	-11953
認知	-11954
赤い	-11955
運慶	-11956
開港	-11957
陣を	-11958
頭を	-11959
馬を	-11960
▁丹後	-11961
▁大江	-11962
▁安永	-11963
▁弘仁	-11964
いわば	-11965
から出	-11966
だけに	-11967
に登録	-11968
を指摘	-11969
ペリー	-11970
三代目	-11971
上総国	-11972
中務省	-11973
仙台藩	-11974
伏見城	-11975
協議会	-11976
国指定	-11977
場所は	-11978
大震災	-11979
契機に	-11980
影響力	-11981
朝鮮の	-11982
権少将	-11983
毛利輝	-11984
注釈書	-11985
相国寺	-11986
藤原隆	-11987
観光客	-11988
諸法度	-11989
関わり	-11990
頼朝に	-11991
けていた	-11992
に師事し	-11993
を設ける	-11994
を重んじ	-11995
ケーブル	-11996
ティバス	-11997
上杉景勝	-11998
以前には	-11999
含まれる	-12000
提出した	-12001
楠木正成	-12002
界曼荼羅	-12003
聖武天皇	-12004
選ばれる	-12005
(1858	-12006
▁1868	-12007
ってしまう	-12008
まで昇った	-12009
を安置する	-12010
天皇が崩御	-12011
寺院である	-12012
年にかけて	-12013
と同じように	-12014
と推測されている	-12015
▁善	-12016
▁足	-12017
』「	-12018
うら	-12019
おほ	-12020
の	-12021
、	-12022
▁	-12023
に	-12024
。	-12025
る	-12026
た	-12027
と	-12028
は	-12029
を	-12030
し	-12031
て	-12032
い	-12033
が	-12034
で	-12035
(	-12036
)	-12037
れ	-12038
な	-12039
1	-12040
年	-12041
っ	-12042
ら	-12043
あ	-12044
も	-12045
か	-12046
こ	-12047
り	-12048
さ	-12049
日	-12050
う	-12051
す	-12052
大	-12053
2	-12054
・	-12055
ま	-12056
0	-12057
よ	-12058
「	-12059
」	-12060
本	-12061
国	-12062
く	-12063
3	-12064
月	-12065
め	-12066
8	-12067
9	-12068
代	-12069
そ	-12070
家	-12071
5	-12072
一	-12073
時	-12074
後	-12075
き	-12076
4	-12077
6	-12078
天	-12079
7	-12080
中	-12081
人	-12082
ど	-12083
け	-12084
え	-12085
や	-12086
子	-12087
わ	-12088
お	-12089
山	-12090
行	-12091
皇	-12092
京	-12093
つ	-12094
上	-12095
名	-12096
地	-12097
ん	-12098
ー	-12099
長	-12100
神	-12101
寺	-12102
明	-12103
文	-12104
だ	-12105
出	-12106
氏	-12107
田	-12108
元	-12109
都	-12110
三	-12111
『	-12112
』	-12113
道	-12114
事	-12115
政	-12116
平	-12117
市	-12118
学	-12119
下	-12120
内	-12121
治	-12122
ン	-12123
-	-12124
方	-12125
生	-12126
じ	-12127
ち	-12128
正	-12129
み	-12130
立	-12131
的	-12132
和	-12133
東	-12134
川	-12135
者	-12136
位	-12137
原	-12138
部	-12139
せ	-12140
高	-12141
法	-12142
ば	-12143
用	-12144
前	-12145
主	-12146
同	-12147
物	-12148
定	-12149
通	-12150
軍	-12151
成	-12152
合	-12153
現	-12154
ス	-12155
記	-12156
義	-12157
間	-12158
府	-12159
所	-12160
多	-12161
戦	-12162
分	-12163
見	-12164
書	-12165
社	-12166
入	-12167
在	-12168
以	-12169
朝	-12170
院	-12171
町	-12172
宮	-12173
世	-12174
武	-12175
王	-12176
期	-12177
安	-12178
当	-12179
場	-12180
新	-12181
関	-12182
城	-12183
作	-12184
近	-12185
言	-12186
化	-12187
実	-12188
西	-12189
野	-12190
信	-12191
会	-12192
小	-12193
宗	-12194
戸	-12195
条	-12196
藤	-12197
へ	-12198
江	-12199
北	-12200
ル	-12201
御	-12202
門	-12203
教	-12204
対	-12205
発	-12206
流	-12207
自	-12208
官	-12209
経	-12210
ず	-12211
古	-12212
二	-12213
駅	-12214
公	-12215
重	-12216
来	-12217
源	-12218
ト	-12219
藩	-12220
任	-12221
目	-12222
臣	-12223
開	-12224
県	-12225
線	-12226
イ	-12227
伝	-12228
説	-12229
女	-12230
権	-12231
第	-12232
石	-12233
び	-12234
親	-12235
建	-12236
力	-12237
旧	-12238
使	-12239
制	-12240
将	-12241
暦	-12242
利	-12243
初	-12244
手	-12245
太	-12246
吉	-12247
徳	-12248
称	-12249
呼	-12250
リ	-12251
土	-12252
歌	-12253
良	-12254
業	-12255
木	-12256
幕	-12257
ろ	-12258
設	-12259
理	-12260
形	-12261
次	-12262
ア	-12263
ラ	-12264
保	-12265
外	-12266
島	-12267
五	-12268
持	-12269
南	-12270
要	-12271
村	-12272
不	-12273
式	-12274
屋	-12275
有	-12276
造	-12277
守	-12278
置	-12279
従	-12280
知	-12281
語	-12282
十	-12283
体	-12284
光	-12285
水	-12286
倉	-12287
死	-12288
海	-12289
動	-12290
ほ	-12291
頼	-12292
郎	-12293
げ	-12294
仏	-12295
度	-12296
永	-12297
車	-12298
男	-12299
受	-12300
意	-12301
四	-12302
最	-12303
金	-12304
区	-12305
集	-12306
士	-12307
全	-12308
:	-12309
師	-12310
室	-12311
紀	-12312
鉄	-12313
命	-12314
特	-12315
松	-12316
シ	-12317
族	-12318
領	-12319
号	-12320
津	-12321
兵	-12322
心	-12323
衛	-12324
表	-12325
加	-12326
父	-12327
清	-12328
相	-12329
能	-12330
身	-12331
.	-12332
画	-12333
取	-12334
性	-12335
伊	-12336
々	-12337
際	-12338
直	-12339
面	-12340
存	-12341
数	-12342
タ	-12343
派	-12344
秀	-12345
参	-12346
民	-12347
ク	-12348
別	-12349
河	-12350
久	-12351
蔵	-12352
指	-12353
結	-12354
べ	-12355
勢	-12356
白	-12357
改	-12358
付	-12359
カ	-12360
等	-12361
史	-12362
八	-12363
む	-12364
進	-12365
統	-12366
職	-12367
井	-12368
系	-12369
料	-12370
品	-12371
継	-12372
観	-12373
ッ	-12374
楽	-12375
務	-12376
母	-12377
忠	-12378
様	-12379
無	-12380
園	-12381
足	-12382
広	-12383
阪	-12384
役	-12385
宝	-12386
盛	-12387
考	-12388
昭	-12389
味	-12390
左	-12391
館	-12392
ょ	-12393
ぶ	-12394
向	-12395
応	-12396
続	-12397
慶	-12398
福	-12399
真	-12400
令	-12401
路	-12402
台	-12403
基	-12404
堂	-12405
頭	-12406
風	-12407
右	-12408
仁	-12409
交	-12410
口	-12411
舞	-12412
承	-12413
側	-12414
像	-12415
馬	-12416
マ	-12417
変	-12418
少	-12419
始	-12420
議	-12421
他	-12422
弟	-12423
万	-12424
連	-12425
術	-12426
郡	-12427
護	-12428
運	-12429
常	-12430
由	-12431
六	-12432
活	-12433
ド	-12434
メ	-12435
気	-12436
支	-12437
歳	-12438
美	-12439
ひ	-12440
岡	-12441
ロ	-12442
校	-12443
鎌	-12444
養	-12445
勝	-12446
食	-12447
末	-12448
奈	-12449
乱	-12450
今	-12451
興	-12452
酒	-12453
バ	-12454
与	-12455
コ	-12456
解	-12457
司	-12458
乗	-12459
豊	-12460
賀	-12461
降	-12462
納	-12463
州	-12464
起	-12465
延	-12466
殿	-12467
尊	-12468
巻	-12469
例	-12470
住	-12471
佐	-12472
図	-12473
総	-12474
祭	-12475
両	-12476
葉	-12477
茶	-12478
組	-12479
配	-12480
ぎ	-12481
千	-12482
着	-12483
各	-12484
字	-12485
諸	-12486
残	-12487
キ	-12488
強	-12489
歴	-12490
ジ	-12491
約	-12492
種	-12493
引	-12494
状	-12495
レ	-12496
切	-12497
音	-12498
反	-12499
得	-12500
再	-12501
論	-12502
康	-12503
格	-12504
産	-12505
居	-12506
備	-12507
機	-12508
ね	-12509
先	-12510
転	-12511
色	-12512
ご	-12513
～	-12514
ム	-12515
工	-12516
止	-12517
ノ	-12518
兼	-12519
点	-12520
祖	-12521
去	-12522
花	-12523
営	-12524
思	-12525
落	-12526
フ	-12527
僧	-12528
テ	-12529
九	-12530
織	-12531
財	-12532
仕	-12533
橋	-12534
異	-12535
鳥	-12536
問	-12537
之	-12538
半	-12539
回	-12540
座	-12541
移	-12542
調	-12543
ぐ	-12544
娘	-12545
寛	-12546
比	-12547
共	-12548
達	-12549
修	-12550
列	-12551
波	-12552
円	-12553
華	-12554
及	-12555
坂	-12556
番	-12557
助	-12558
頃	-12559
争	-12560
如	-12561
述	-12562
オ	-12563
録	-12564
般	-12565
団	-12566
兄	-12567
阿	-12568
員	-12569
界	-12570
演	-12571
m	-12572
夫	-12573
陸	-12574
細	-12575
件	-12576
芸	-12577
米	-12578
話	-12579
域	-12580
廃	-12581
製	-12582
プ	-12583
景	-12584
帰	-12585
跡	-12586
谷	-12587
急	-12588
編	-12589
類	-12590
認	-12591
貞	-12592
築	-12593
尾	-12594
係	-12595
判	-12596
根	-12597
収	-12598
願	-12599
電	-12600
サ	-12601
春	-12602
ふ	-12603
果	-12604
百	-12605
崎	-12606
追	-12607
ウ	-12608
決	-12609
若	-12610
確	-12611
チ	-12612
可	-12613
七	-12614
器	-12615
討	-12616
宇	-12617
隊	-12618
奉	-12619
孫	-12620
登	-12621
越	-12622
ニ	-12623
科	-12624
絵	-12625
焼	-12626
構	-12627
為	-12628
没	-12629
ナ	-12630
退	-12631
念	-12632
火	-12633
復	-12634
影	-12635
研	-12636
満	-12637
攻	-12638
渡	-12639
a	-12640
衆	-12641
泉	-12642
辺	-12643
張	-12644
売	-12645
資	-12646
羽	-12647
翌	-12648
施	-12649
好	-12650
周	-12651
遺	-12652
ゆ	-12653
帝	-12654
極	-12655
督	-12656
題	-12657
丸	-12658
示	-12659
管	-12660
究	-12661
弥	-12662
創	-12663
具	-12664
律	-12665
独	-12666
隆	-12667
首	-12668
郷	-12669
選	-12670
ビ	-12671
禄	-12672
老	-12673
失	-12674
規	-12675
功	-12676
属	-12677
弘	-12678
ぼ	-12679
殺	-12680
/	-12681
済	-12682
唐	-12683
照	-12684
典	-12685
商	-12686
房	-12687
薩	-12688
廷	-12689
終	-12690
著	-12691
挙	-12692
紙	-12693
貴	-12694
伏	-12695
寄	-12696
愛	-12697
づ	-12698
計	-12699
然	-12700
込	-12701
銀	-12702
丹	-12703
博	-12704
草	-12705
ミ	-12706
階	-12707
宣	-12708
店	-12709
享	-12710
パ	-12711
霊	-12712
増	-12713
離	-12714
詳	-12715
妻	-12716
曲	-12717
量	-12718
荘	-12719
布	-12720
空	-12721
儀	-12722
奥	-12723
撃	-12724
船	-12725
技	-12726
彼	-12727
省	-12728
供	-12729
必	-12730
姓	-12731
綱	-12732
陽	-12733
竹	-12734
ツ	-12735
態	-12736
ぞ	-12737
容	-12738
エ	-12739
喜	-12740
送	-12741
ざ	-12742
展	-12743
林	-12744
志	-12745
過	-12746
浄	-12747
ヶ	-12748
卿	-12749
育	-12750
羅	-12751
仲	-12752
グ	-12753
筆	-12754
深	-12755
香	-12756
デ	-12757
含	-12758
刀	-12759
伴	-12760
推	-12761
服	-12762
ゅ	-12763
叙	-12764
局	-12765
摂	-12766
富	-12767
鮮	-12768
玉	-12769
許	-12770
病	-12771
ダ	-12772
ャ	-12773
聞	-12774
介	-12775
印	-12776
断	-12777
亡	-12778
就	-12779
放	-12780
違	-12781
客	-12782
雲	-12783
敗	-12784
装	-12785
限	-12786
評	-12787
墳	-12788
岩	-12789
普	-12790
寿	-12791
模	-12792
提	-12793
昇	-12794
黒	-12795
密	-12796
段	-12797
価	-12798
質	-12799
単	-12800
映	-12801
池	-12802
至	-12803
接	-12804
早	-12805
象	-12806
型	-12807
赤	-12808
智	-12809
難	-12810
響	-12811
略	-12812
麻	-12813
友	-12814
農	-12815
想	-12816
聖	-12817
節	-12818
斎	-12819
非	-12820
割	-12821
后	-12822
鶴	-12823
打	-12824
礼	-12825
害	-12826
留	-12827
ハ	-12828
情	-12829
程	-12830
ィ	-12831
遠	-12832
禅	-12833
完	-12834
角	-12835
濃	-12836
遣	-12837
陣	-12838
習	-12839
更	-12840
材	-12841
敷	-12842
ブ	-12843
ネ	-12844
セ	-12845
亀	-12846
釈	-12847
洋	-12848
,	-12849
専	-12850
沢	-12851
視	-12852
即	-12853
求	-12854
策	-12855
導	-12856
除	-12857
ケ	-12858
君	-12859
ホ	-12860
縁	-12861
ュ	-12862
秋	-12863
呂	-12864
範	-12865
覚	-12866
優	-12867
墓	-12868
描	-12869
写	-12870
姫	-12871
夜	-12872
拠	-12873
授	-12874
庭	-12875
禁	-12876
e	-12877
漢	-12878
蓮	-12879
滅	-12880
飛	-12881
モ	-12882
境	-12883
速	-12884
報	-12885
処	-12886
徴	-12887
章	-12888
維	-12889
読	-12890
茂	-12891
返	-12892
弁	-12893
宿	-12894
甲	-12895
夷	-12896
塔	-12897
征	-12898
我	-12899
ギ	-12900
幸	-12901
辞	-12902
隠	-12903
i	-12904
祀	-12905
党	-12906
青	-12907
補	-12908
帯	-12909
絶	-12910
玄	-12911
襲	-12912
衣	-12913
歩	-12914
弓	-12915
侍	-12916
横	-12917
感	-12918
庫	-12919
梅	-12920
憲	-12921
裏	-12922
素	-12923
旅	-12924
差	-12925
奏	-12926
陰	-12927
防	-12928
因	-12929
破	-12930
検	-12931
輪	-12932
ズ	-12933
孝	-12934
悪	-12935
率	-12936
監	-12937
浜	-12938
杉	-12939
消	-12940
囲	-12941
予	-12942
勅	-12943
ガ	-12944
注	-12945
担	-12946
ョ	-12947
幡	-12948
協	-12949
ワ	-12950
並	-12951
ぜ	-12952
善	-12953
級	-12954
鎮	-12955
雑	-12956
賞	-12957
薬	-12958
請	-12959
菩	-12960
執	-12961
易	-12962
講	-12963
整	-12964
閣	-12965
雄	-12966
熊	-12967
摩	-12968
私	-12969
岐	-12970
鹿	-12971
浦	-12972
載	-12973
宅	-12974
R	-12975
街	-12976
J	-12977
姿	-12978
積	-12979
息	-12980
毛	-12981
C	-12982
里	-12983
→	-12984
嘉	-12985
嫡	-12986
案	-12987
背	-12988
ヤ	-12989
央	-12990
庁	-12991
瀬	-12992
札	-12993
貨	-12994
鏡	-12995
顕	-12996
徒	-12997
厳	-12998
望	-12999
申	-13000
彦	-13001
醍	-13002
醐	-13003
俗	-13004
遊	-13005
迎	-13006
何	-13007
児	-13008
譲	-13009
栄	-13010
英	-13011
版	-13012
龍	-13013
余	-13014
温	-13015
則	-13016
ヒ	-13017
板	-13018
陵	-13019
豆	-13020
ゃ	-13021
告	-13022
葬	-13023
仰	-13024
稲	-13025
精	-13026
舎	-13027
堀	-13028
ベ	-13029
停	-13030
季	-13031
端	-13032
ェ	-13033
順	-13034
n	-13035
負	-13036
医	-13037
逃	-13038
婚	-13039
ぬ	-13040
圧	-13041
準	-13042
証	-13043
掛	-13044
革	-13045
r	-13046
採	-13047
折	-13048
識	-13049
献	-13050
矢	-13051
剣	-13052
幼	-13053
銭	-13054
臨	-13055
片	-13056
給	-13057
o	-13058
A	-13059
浅	-13060
雅	-13061
層	-13062
洛	-13063
爵	-13064
税	-13065
ソ	-13066
査	-13067
鬼	-13068
邸	-13069
拝	-13070
躍	-13071
裁	-13072
c	-13073
罪	-13074
黄	-13075
塩	-13076
未	-13077
群	-13078
倭	-13079
散	-13080
激	-13081
待	-13082
森	-13083
飯	-13084
途	-13085
勧	-13086
畿	-13087
抗	-13088
崩	-13089
占	-13090
坊	-13091
豪	-13092
晴	-13093
陀	-13094
混	-13095
伎	-13096
柳	-13097
捕	-13098
俊	-13099
休	-13100
刻	-13101
故	-13102
席	-13103
湯	-13104
扱	-13105
句	-13106
尼	-13107
敵	-13108
訪	-13109
ポ	-13110
輔	-13111
訳	-13112
塚	-13113
ゴ	-13114
押	-13115
複	-13116
謀	-13117
倒	-13118
概	-13119
個	-13120
仮	-13121
港	-13122
験	-13123
免	-13124
紋	-13125
併	-13126
妙	-13127
走	-13128
冷	-13129
紫	-13130
警	-13131
固	-13132
封	-13133
察	-13134
籍	-13135
催	-13136
勤	-13137
仙	-13138
低	-13139
便	-13140
飾	-13141
替	-13142
撰	-13143
談	-13144
刑	-13145
戻	-13146
振	-13147
油	-13148
泰	-13149
脱	-13150
譜	-13151
還	-13152
庵	-13153
磨	-13154
抜	-13155
ピ	-13156
露	-13157
k	-13158
菊	-13159
笠	-13160
逆	-13161
賢	-13162
依	-13163
突	-13164
t	-13165
銅	-13166
壁	-13167
植	-13168
射	-13169
峨	-13170
毎	-13171
I	-13172
肉	-13173
援	-13174
旨	-13175
桜	-13176
桃	-13177
貫	-13178
旗	-13179
贈	-13180
短	-13181
庶	-13182
幹	-13183
詞	-13184
試	-13185
嵯	-13186
丁	-13187
減	-13188
束	-13189
s	-13190
ザ	-13191
寮	-13192
狭	-13193
劇	-13194
尚	-13195
軽	-13196
恵	-13197
換	-13198
岸	-13199
妹	-13200
柄	-13201
幅	-13202
戒	-13203
賜	-13204
伯	-13205
伐	-13206
幣	-13207
叡	-13208
朱	-13209
盟	-13210
遷	-13211
滋	-13212
項	-13213
桂	-13214
算	-13215
訴	-13216
魚	-13217
ボ	-13218
崇	-13219
蘇	-13220
巡	-13221
静	-13222
詩	-13223
嗣	-13224
ヨ	-13225
費	-13226
須	-13227
S	-13228
砂	-13229
荒	-13230
否	-13231
招	-13232
奪	-13233
湖	-13234
候	-13235
況	-13236
唱	-13237
牛	-13238
似	-13239
被	-13240
声	-13241
湾	-13242
威	-13243
績	-13244
勘	-13245
暗	-13246
益	-13247
韓	-13248
快	-13249
h	-13250
額	-13251
冠	-13252
効	-13253
誕	-13254
血	-13255
淀	-13256
祇	-13257
敬	-13258
腹	-13259
尺	-13260
縄	-13261
_	-13262
環	-13263
輸	-13264
干	-13265
弾	-13266
枚	-13267
夏	-13268
浪	-13269
庄	-13270
刊	-13271
T	-13272
?	-13273
疑	-13274
頂	-13275
厚	-13276
雨	-13277
那	-13278
冬	-13279
澄	-13280
穂	-13281
昌	-13282
課	-13283
脚	-13284
販	-13285
投	-13286
熱	-13287
往	-13288
雪	-13289
纂	-13290
沿	-13291
純	-13292
恩	-13293
衰	-13294
壇	-13295
倍	-13296
ペ	-13297
壊	-13298
逸	-13299
=	-13300
宰	-13301
l	-13302
覧	-13303
隣	-13304
抄	-13305
祝	-13306
浮	-13307
烏	-13308
揚	-13309
包	-13310
姉	-13311
墨	-13312
粉	-13313
競	-13314
貢	-13315
働	-13316
測	-13317
柱	-13318
握	-13319
盤	-13320
標	-13321
拡	-13322
慣	-13323
繁	-13324
苦	-13325
鼓	-13326
u	-13327
吹	-13328
髪	-13329
勲	-13330
災	-13331
俳	-13332
飲	-13333
既	-13334
麦	-13335
企	-13336
買	-13337
練	-13338
揮	-13339
締	-13340
畠	-13341
壬	-13342
染	-13343
胤	-13344
輝	-13345
簡	-13346
帳	-13347
怪	-13348
適	-13349
葛	-13350
傾	-13351
副	-13352
秘	-13353
祈	-13354
剛	-13355
垣	-13356
傷	-13357
障	-13358
了	-13359
坐	-13360
鑑	-13361
狩	-13362
値	-13363
吾	-13364
樹	-13365
荷	-13366
妃	-13367
批	-13368
棟	-13369
闘	-13370
避	-13371
侶	-13372
斉	-13373
卒	-13374
籠	-13375
尽	-13376
N	-13377
砲	-13378
閉	-13379
K	-13380
薄	-13381
掌	-13382
狂	-13383
序	-13384
童	-13385
皮	-13386
遇	-13387
危	-13388
迦	-13389
騎	-13390
麗	-13391
才	-13392
詠	-13393
委	-13394
P	-13395
脇	-13396
邦	-13397
儒	-13398
致	-13399
宋	-13400
摘	-13401
播	-13402
洞	-13403
晩	-13404
欠	-13405
渉	-13406
骨	-13407
鴨	-13408
揆	-13409
探	-13410
衡	-13411
較	-13412
航	-13413
祥	-13414
融	-13415
携	-13416
随	-13417
O	-13418
寸	-13419
抱	-13420
袖	-13421
筋	-13422
橘	-13423
牧	-13424
緒	-13425
撮	-13426
菅	-13427
掘	-13428
答	-13429
忍	-13430
峰	-13431
弱	-13432
蘭	-13433
箇	-13434
夕	-13435
扇	-13436
詰	-13437
桐	-13438
侵	-13439
虎	-13440
斐	-13441
欧	-13442
紹	-13443
肥	-13444
救	-13445
蒸	-13446
筑	-13447
互	-13448
斬	-13449
沖	-13450
顔	-13451
丈	-13452
銘	-13453
訓	-13454
忌	-13455
鋳	-13456
舟	-13457
亭	-13458
嵐	-13459
託	-13460
掲	-13461
帖	-13462
騒	-13463
珍	-13464
穴	-13465
刺	-13466
払	-13467
沼	-13468
箱	-13469
又	-13470
辰	-13471
ァ	-13472
犬	-13473
但	-13474
誌	-13475
踏	-13476
珠	-13477
駿	-13478
巨	-13479
%	-13480
M	-13481
乾	-13482
勇	-13483
株	-13484
汁	-13485
双	-13486
餅	-13487
星	-13488
煮	-13489
琵	-13490
労	-13491
琶	-13492
糸	-13493
針	-13494
幽	-13495
酵	-13496
寝	-13497
紅	-13498
床	-13499
球	-13500
貿	-13501
婦	-13502
擁	-13503
租	-13504
B	-13505
到	-13506
鈴	-13507
淡	-13508
讃	-13509
唯	-13510
伸	-13511
乳	-13512
芝	-13513
絹	-13514
g	-13515
魂	-13516
恐	-13517
盆	-13518
丘	-13519
排	-13520
眼	-13521
鷹	-13522
迫	-13523
踊	-13524
錦	-13525
甘	-13526
d	-13527
殊	-13528
枝	-13529
懐	-13530
碑	-13531
柴	-13532
超	-13533
遂	-13534
糖	-13535
澤	-13536
底	-13537
怒	-13538
附	-13539
ゲ	-13540
埋	-13541
謙	-13542
醤	-13543
誤	-13544
醸	-13545
健	-13546
困	-13547
雀	-13548
滝	-13549
ヲ	-13550
伽	-13551
漬	-13552
梁	-13553
沙	-13554
赴	-13555
軒	-13556
匠	-13557
菜	-13558
p	-13559
削	-13560
筒	-13561
夢	-13562
灯	-13563
齢	-13564
奇	-13565
是	-13566
敦	-13567
蝦	-13568
偽	-13569
誉	-13570
審	-13571
慈	-13572
H	-13573
斯	-13574
竜	-13575
嫁	-13576
岳	-13577
拒	-13578
添	-13579
預	-13580
※	-13581
恋	-13582
酸	-13583
僚	-13584
堺	-13585
蒲	-13586
艦	-13587
惟	-13588
却	-13589
恒	-13590
卵	-13591
垂	-13592
涯	-13593
辛	-13594
鳴	-13595
芳	-13596
叔	-13597
衙	-13598
篠	-13599
昔	-13600
曾	-13601
滞	-13602
猿	-13603
菓	-13604
彫	-13605
罰	-13606
衝	-13607
陶	-13608
駒	-13609
鐘	-13610
刃	-13611
ヴ	-13612
笛	-13613
轄	-13614
駆	-13615
E	-13616
旬	-13617
賛	-13618
慮	-13619
薨	-13620
責	-13621
壺	-13622
礎	-13623
袋	-13624
ヘ	-13625
鞍	-13626
撤	-13627
冊	-13628
塗	-13629
祐	-13630
署	-13631
峠	-13632
辻	-13633
獄	-13634
詔	-13635
ユ	-13636
午	-13637
繰	-13638
惣	-13639
尉	-13640
○	-13641
詣	-13642
國	-13643
捨	-13644
曼	-13645
瓦	-13646
秦	-13647
郭	-13648
荼	-13649
遅	-13650
召	-13651
諱	-13652
彩	-13653
閑	-13654
圏	-13655
旦	-13656
符	-13657
銃	-13658
触	-13659
妖	-13660
契	-13661
淳	-13662
借	-13663
悲	-13664
拾	-13665
架	-13666
趣	-13667
雷	-13668
紛	-13669
塾	-13670
箏	-13671
暴	-13672
浴	-13673
峯	-13674
悟	-13675
攘	-13676
洗	-13677
腐	-13678
磐	-13679
敏	-13680
堅	-13681
翻	-13682
隈	-13683
絡	-13684
洲	-13685
網	-13686
桓	-13687
胡	-13688
梨	-13689
琴	-13690
炊	-13691
蕎	-13692
券	-13693
廻	-13694
漁	-13695
拓	-13696
漆	-13697
犯	-13698
楼	-13699
獲	-13700
陥	-13701
曜	-13702
乙	-13703
麺	-13704
努	-13705
柔	-13706
己	-13707
也	-13708
緯	-13709
藍	-13710
篤	-13711
栗	-13712
桑	-13713
D	-13714
嫌	-13715
謡	-13716
翁	-13717
詮	-13718
誓	-13719
於	-13720
盗	-13721
漫	-13722
膳	-13723
駐	-13724
綾	-13725
其	-13726
寒	-13727
緑	-13728
裔	-13729
邪	-13730
■	-13731
禰	-13732
謝	-13733
婿	-13734
鉱	-13735
葺	-13736
充	-13737
槻	-13738
渋	-13739
李	-13740
昼	-13741
甥	-13742
輩	-13743
准	-13744
戚	-13745
氷	-13746
鸞	-13747
毒	-13748
腰	-13749
哲	-13750
曽	-13751
鎖	-13752
鵜	-13753
楠	-13754
縮	-13755
”	-13756
閏	-13757
嘆	-13758
宴	-13759
丞	-13760
奴	-13761
誠	-13762
鍋	-13763
稚	-13764
均	-13765
曹	-13766
秩	-13767
阜	-13768
括	-13769
裂	-13770
抵	-13771
炭	-13772
毘	-13773
傍	-13774
耕	-13775
脈	-13776
笑	-13777
妓	-13778
撲	-13779
泊	-13780
耳	-13781
ォ	-13782
宕	-13783
袴	-13784
吸	-13785
媛	-13786
彰	-13787
軌	-13788
柏	-13789
窓	-13790
緩	-13791
瑞	-13792
損	-13793
賊	-13794
釜	-13795
飼	-13796
嶋	-13797
弦	-13798
畑	-13799
索	-13800
虫	-13801
y	-13802
鯨	-13803
抑	-13804
郵	-13805
微	-13806
帥	-13807
欲	-13808
―	-13809
熟	-13810
潮	-13811
硬	-13812
屏	-13813
険	-13814
棄	-13815
震	-13816
希	-13817
棒	-13818
卑	-13819
寧	-13820
畳	-13821
丼	-13822
扶	-13823
堵	-13824
暮	-13825
璃	-13826
云	-13827
灌	-13828
顧	-13829
魔	-13830
穀	-13831
尋	-13832
腕	-13833
届	-13834
槍	-13835
苑	-13836
噌	-13837
潟	-13838
鉢	-13839
狗	-13840
瑠	-13841
隅	-13842
麹	-13843
磯	-13844
距	-13845
劣	-13846
舗	-13847
徹	-13848
励	-13849
侯	-13850
療	-13851
縦	-13852
ぱ	-13853
戊	-13854
ヌ	-13855
恭	-13856
閥	-13857
懸	-13858
縫	-13859
覆	-13860
吟	-13861
赦	-13862
茨	-13863
煎	-13864
寵	-13865
慎	-13866
鳳	-13867
L	-13868
呪	-13869
綿	-13870
團	-13871
幾	-13872
燈	-13873
隔	-13874
虚	-13875
貝	-13876
誇	-13877
屯	-13878
賃	-13879
〔	-13880
〕	-13881
吏	-13882
紐	-13883
軸	-13884
薫	-13885
"	-13886
睦	-13887
亮	-13888
培	-13889
栖	-13890
駄	-13891
徐	-13892
窮	-13893
透	-13894
栽	-13895
歯	-13896
遭	-13897
“	-13898
萬	-13899
俵	-13900
奨	-13901
履	-13902
募	-13903
枕	-13904
乃	-13905
寂	-13906
棚	-13907
猶	-13908
汲	-13909
F	-13910
促	-13911
輿	-13912
此	-13913
遍	-13914
勃	-13915
皆	-13916
酢	-13917
昧	-13918
繋	-13919
亜	-13920
愚	-13921
盾	-13922
訟	-13923
ぽ	-13924
宜	-13925
灰	-13926
稿	-13927
貸	-13928
刷	-13929
誰	-13930
沈	-13931
浸	-13932
ゼ	-13933
喪	-13934
廟	-13935
條	-13936
煙	-13937
稽	-13938
允	-13939
霧	-13940
挟	-13941
囃	-13942
蓋	-13943
尹	-13944
蹴	-13945
呉	-13946
碗	-13947
b	-13948
庇	-13949
枢	-13950
頻	-13951
肩	-13952
巫	-13953
炉	-13954
貧	-13955
婆	-13956
淵	-13957
G	-13958
獅	-13959
菱	-13960
鶏	-13961
麓	-13962
殖	-13963
溝	-13964
践	-13965
杜	-13966
潜	-13967
庸	-13968
猪	-13969
朽	-13970
匁	-13971
猛	-13972
縛	-13973
琉	-13974
埼	-13975
傘	-13976
櫓	-13977
該	-13978
乏	-13979
驚	-13980
廊	-13981
疎	-13982
燥	-13983
班	-13984
択	-13985
>	-13986
燃	-13987
碁	-13988
唄	-13989
径	-13990
倫	-13991
宸	-13992
戯	-13993
蜂	-13994
裕	-13995
麿	-13996
厨	-13997
粋	-13998
購	-13999
披	-14000
拍	-14001
ぷ	-14002
誘	-14003
堤	-14004
弐	-14005
魏	-14006
梵	-14007
尻	-14008
箸	-14009
孔	-14010
伺	-14011
蒙	-14012
訂	-14013
嘗	-14014
悦	-14015
泥	-14016
看	-14017
聚	-14018
寇	-14019
慧	-14020
稙	-14021
壮	-14022
矩	-14023
隋	-14024
佛	-14025
恨	-14026
昆	-14027
烈	-14028
巧	-14029
忘	-14030
旋	-14031
矛	-14032
粧	-14033
剥	-14034
奔	-14035
屈	-14036
操	-14037
葵	-14038
渓	-14039
鳩	-14040
V	-14041
奮	-14042
糧	-14043
坪	-14044
扉	-14045
宛	-14046
瓶	-14047
〜	-14048
勾	-14049
梶	-14050
縣	-14051
誅	-14052
!	-14053
晋	-14054
涼	-14055
耐	-14056
襖	-14057
億	-14058
諏	-14059
諭	-14060
凡	-14061
捉	-14062
芹	-14063
貼	-14064
弔	-14065
苗	-14066
蛇	-14067
塞	-14068
悩	-14069
挿	-14070
樺	-14071
溶	-14072
菌	-14073
肖	-14074
諡	-14075
需	-14076
噂	-14077
褌	-14078
滑	-14079
粟	-14080
篭	-14081
斗	-14082
苔	-14083
U	-14084
萩	-14085
餡	-14086
黙	-14087
姻	-14088
或	-14089
翼	-14090
措	-14091
棲	-14092
胴	-14093
迷	-14094
勒	-14095
升	-14096
廉	-14097
核	-14098
桶	-14099
獣	-14100
×	-14101
兆	-14102
孤	-14103
弼	-14104
祓	-14105
偏	-14106
祚	-14107
鼻	-14108
倣	-14109
惑	-14110
檀	-14111
v	-14112
髷	-14113
掃	-14114
甚	-14115
疏	-14116
邇	-14117
鍛	-14118
f	-14119
狙	-14120
蕉	-14121
枠	-14122
緊	-14123
繊	-14124
雇	-14125
賦	-14126
穏	-14127
謹	-14128
斜	-14129
炎	-14130
朗	-14131
檜	-14132
揃	-14133
擬	-14134
骸	-14135
蓄	-14136
釣	-14137
粒	-14138
薦	-14139
呈	-14140
杵	-14141
巣	-14142
逝	-14143
巌	-14144
汰	-14145
祷	-14146
w	-14147
棺	-14148
聴	-14149
雁	-14150
啓	-14151
埴	-14152
鬘	-14153
謁	-14154
串	-14155
墾	-14156
怨	-14157
阻	-14158
+	-14159
厩	-14160
液	-14161
豚	-14162
郊	-14163
陳	-14164
帽	-14165
旭	-14166
械	-14167
痛	-14168
x	-14169
欽	-14170
杖	-14171
凶	-14172
患	-14173
稀	-14174
揺	-14175
貌	-14176
凝	-14177
栃	-14178
皿	-14179
穢	-14180
脂	-14181
柿	-14182
橿	-14183
歓	-14184
倶	-14185
磁	-14186
匂	-14187
壱	-14188
償	-14189
曳	-14190
牟	-14191
篆	-14192
耆	-14193
胸	-14194
饅	-14195
朋	-14196
累	-14197
褒	-14198
X	-14199
汚	-14200
熙	-14201
控	-14202
槃	-14203
逮	-14204
蛮	-14205
症	-14206
哀	-14207
蕃	-14208
─	-14209
酎	-14210
鉾	-14211
猫	-14212
綴	-14213
殆	-14214
靖	-14215
飢	-14216
狐	-14217
脳	-14218
芭	-14219
週	-14220
塵	-14221
慕	-14222
胎	-14223
葦	-14224
喫	-14225
窯	-14226
俣	-14227
冶	-14228
叩	-14229
涅	-14230
仇	-14231
慰	-14232
湊	-14233
牌	-14234
猟	-14235
冒	-14236
叛	-14237
諧	-14238
<	-14239
枯	-14240
妾	-14241
濠	-14242
暁	-14243
彌	-14244
湿	-14245
儲	-14246
寅	-14247
柵	-14248
榎	-14249
藻	-14250
賤	-14251
ゥ	-14252
囚	-14253
泣	-14254
箔	-14255
頓	-14256
憂	-14257
潔	-14258
穫	-14259
翰	-14260
鞠	-14261
偶	-14262
巳	-14263
楊	-14264
芋	-14265
鴎	-14266
蔭	-14267
悔	-14268
杯	-14269
櫛	-14270
竣	-14271
饗	-14272
W	-14273
隷	-14274
傑	-14275
洪	-14276
綬	-14277
茅	-14278
克	-14279
枡	-14280
脅	-14281
鎧	-14282
芽	-14283
迹	-14284
鋒	-14285
錬	-14286
按	-14287
漏	-14288
粗	-14289
酷	-14290
閤	-14291
惜	-14292
漉	-14293
債	-14294
剃	-14295
暖	-14296
篇	-14297
耶	-14298
胆	-14299
膨	-14300
咲	-14301
芦	-14302
逐	-14303
逢	-14304
【	-14305
】	-14306
呑	-14307
拳	-14308
樫	-14309
爆	-14310
琳	-14311
粛	-14312
憑	-14313
缶	-14314
邑	-14315
雛	-14316
煕	-14317
粥	-14318
臼	-14319
諾	-14320
泡	-14321
裾	-14322
妥	-14323
拘	-14324
肝	-14325
圀	-14326
妨	-14327
錯	-14328
僅	-14329
刈	-14330
牽	-14331
卓	-14332
涙	-14333
盲	-14334
禎	-14335
慢	-14336
檗	-14337
臭	-14338
凍	-14339
匹	-14340
卜	-14341
畝	-14342
鷲	-14343
亨	-14344
嶽	-14345
棋	-14346
覇	-14347
騨	-14348
祟	-14349
鋭	-14350
闇	-14351
勉	-14352
把	-14353
撫	-14354
析	-14355
蒔	-14356
薙	-14357
巾	-14358
憤	-14359
抹	-14360
粘	-14361
酔	-14362
〈	-14363
曇	-14364
裳	-14365
蹟	-14366
隻	-14367
怖	-14368
挑	-14369
据	-14370
函	-14371
喰	-14372
毅	-14373
註	-14374
飴	-14375
喧	-14376
塁	-14377
峡	-14378
涌	-14379
〉	-14380
甫	-14381
蚕	-14382
蜜	-14383
遡	-14384
摺	-14385
殉	-14386
偈	-14387
嶺	-14388
泳	-14389
潤	-14390
潰	-14391
纏	-14392
茎	-14393
眠	-14394
笹	-14395
肌	-14396
虜	-14397
蝶	-14398
ぢ	-14399
厄	-14400
診	-14401
遁	-14402
捜	-14403
而	-14404
饉	-14405
噺	-14406
某	-14407
牙	-14408
璽	-14409
燕	-14410
疫	-14411
ゾ	-14412
ヂ	-14413
乞	-14414
Y	-14415
夭	-14416
掾	-14417
樋	-14418
軟	-14419
鴻	-14420
朴	-14421
樽	-14422
璋	-14423
簿	-14424
鰹	-14425
帆	-14426
恥	-14427
搬	-14428
癒	-14429
粕	-14430
讒	-14431
闍	-14432
眉	-14433
冥	-14434
殻	-14435
爾	-14436
牡	-14437
票	-14438
俘	-14439
漂	-14440
熾	-14441
餓	-14442
塀	-14443
懇	-14444
祠	-14445
且	-14446
叢	-14447
幻	-14448
絞	-14449
莫	-14450
遵	-14451
吐	-14452
晶	-14453
糾	-14454
膝	-14455
荻	-14456
蘆	-14457
鰻	-14458
傳	-14459
抽	-14460
斥	-14461
瓊	-14462
賓	-14463
圓	-14464
斑	-14465
砦	-14466
舒	-14467
遼	-14468
卯	-14469
哉	-14470
貯	-14471
霞	-14472
刹	-14473
曰	-14474
爪	-14475
袍	-14476
酉	-14477
窟	-14478
麟	-14479
焉	-14480
匿	-14481
舌	-14482
j	-14483
壽	-14484
學	-14485
循	-14486
雰	-14487
ヅ	-14488
襟	-14489
陪	-14490
隼	-14491
妊	-14492
窪	-14493
紗	-14494
馨	-14495
亥	-14496
兜	-14497
撥	-14498
朔	-14499
剤	-14500
庚	-14501
挽	-14502
裸	-14503
徽	-14504
燗	-14505
狼	-14506
鏑	-14507
;	-14508
廓	-14509
盧	-14510
綸	-14511
謂	-14512
遥	-14513
魁	-14514
‐	-14515
娶	-14516
擢	-14517
暫	-14518
采	-14519
騰	-14520
丑	-14521
崖	-14522
幌	-14523
應	-14524
懲	-14525
鋼	-14526
憶	-14527
擾	-14528
牒	-14529
窺	-14530
罷	-14531
茹	-14532
嘩	-14533
壷	-14534
欄	-14535
股	-14536
蟄	-14537
溜	-14538
疲	-14539
秤	-14540
–	-14541
叫	-14542
弊	-14543
榊	-14544
隙	-14545
魅	-14546
鯉	-14547
吊	-14548
惨	-14549
狛	-14550
鈔	-14551
馳	-14552
ぺ	-14553
凰	-14554
娯	-14555
瀧	-14556
牢	-14557
聘	-14558
誦	-14559
鍬	-14560
鞆	-14561
韻	-14562
桟	-14563
禍	-14564
羊	-14565
竪	-14566
迭	-14567
髭	-14568
≒	-14569
ヵ	-14570
晒	-14571
椿	-14572
浩	-14573
漱	-14574
炒	-14575
煩	-14576
譚	-14577
楯	-14578
箕	-14579
賑	-14580
畜	-14581
膠	-14582
鳶	-14583
巴	-14584
截	-14585
椎	-14586
稼	-14587
菟	-14588
謎	-14589
閻	-14590
廿	-14591
捧	-14592
瞬	-14593
臓	-14594
峙	-14595
藁	-14596
叉	-14597
宙	-14598
曖	-14599
竺	-14600
繍	-14601
芥	-14602
馴	-14603
峻	-14604
碧	-14605
臈	-14606
釘	-14607
喬	-14608
槌	-14609
焦	-14610
臂	-14611
賄	-14612
贋	-14613
遮	-14614
鷺	-14615
傀	-14616
儡	-14617
咎	-14618
姪	-14619
婢	-14620
杓	-14621
沸	-14622
甕	-14623
脩	-14624
°	-14625
椀	-14626
渤	-14627
聡	-14628
喩	-14629
湛	-14630
濁	-14631
畏	-14632
痘	-14633
祉	-14634
簾	-14635
辱	-14636
霜	-14637
z	-14638
戴	-14639
畔	-14640
岑	-14641
廣	-14642
瓜	-14643
薪	-14644
鍵	-14645
妬	-14646
杏	-14647
皐	-14648
鞘	-14649
實	-14650
寳	-14651
暇	-14652
洒	-14653
眺	-14654
竈	-14655
漸	-14656
砕	-14657
硯	-14658
嗜	-14659
毀	-14660
煉	-14661
兎	-14662
憐	-14663
簪	-14664
闕	-14665
駕	-14666
鼠	-14667
ゝ	-14668
挫	-14669
晦	-14670
諫	-14671
痕	-14672
糠	-14673
絃	-14674
臥	-14675
藝	-14676
麩	-14677
〒	-14678
ぴ	-14679
匡	-14680
岬	-14681
焚	-14682
當	-14683
叶	-14684
唆	-14685
堪	-14686
惧	-14687
賭	-14688
亘	-14689
拙	-14690
堯	-14691
帛	-14692
悉	-14693
硫	-14694
紺	-14695
舅	-14696
蜘	-14697
諦	-14698
鴈	-14699
咫	-14700
椋	-14701
鐸	-14702
饌	-14703
凌	-14704
堰	-14705
壌	-14706
牲	-14707
犠	-14708
蛛	-14709
諮	-14710
劉	-14711
帷	-14712
廬	-14713
拭	-14714
灘	-14715
畷	-14716
疾	-14717
諌	-14718
謳	-14719
敢	-14720
湧	-14721
舶	-14722
裟	-14723
遽	-14724
鮎	-14725
幟	-14726
揉	-14727
傅	-14728
叱	-14729
斡	-14730
蓬	-14731
虐	-14732
袈	-14733
酛	-14734
閲	-14735
零	-14736
鯛	-14737
劫	-14738
彬	-14739
肯	-14740
肴	-14741
艶	-14742
衷	-14743
賠	-14744
什	-14745
伍	-14746
悼	-14747
淑	-14748
稜	-14749
頑	-14750
冑	-14751
嫉	-14752
桁	-14753
碩	-14754
苛	-14755
ā	-14756
拶	-14757
挨	-14758
眞	-14759
躯	-14760
鏃	-14761
佳	-14762
俸	-14763
卷	-14764
慌	-14765
擦	-14766
斧	-14767
溺	-14768
訶	-14769
噛	-14770
宏	-14771
樂	-14772
樟	-14773
濫	-14774
笙	-14775
籬	-14776
綻	-14777
袱	-14778
悠	-14779
憎	-14780
昨	-14781
沐	-14782
逓	-14783
□	-14784
櫻	-14785
玩	-14786
癖	-14787
舜	-14788
艘	-14789
藉	-14790
坦	-14791
與	-14792
芯	-14793
萱	-14794
謗	-14795
佃	-14796
偵	-14797
嵌	-14798
糊	-14799
蔑	-14800
藪	-14801
蚊	-14802
醜	-14803
鉦	-14804
侘	-14805
勿	-14806
嘱	-14807
羹	-14808
貰	-14809
偉	-14810
槐	-14811
罵	-14812
翫	-14813
跨	-14814
雉	-14815
ゐ	-14816
偲	-14817
厘	-14818
媒	-14819
椒	-14820
櫃	-14821
汽	-14822
滴	-14823
芙	-14824
蕪	-14825
頒	-14826
尖	-14827
暑	-14828
椅	-14829
翠	-14830
腸	-14831
蛍	-14832
醪	-14833
董	-14834
蓑	-14835
蜷	-14836
迄	-14837
釉	-14838
怠	-14839
鄭	-14840
鉛	-14841
銕	-14842
雌	-14843
奢	-14844
杭	-14845
柚	-14846
毬	-14847
猩	-14848
珂	-14849
禊	-14850
紡	-14851
繕	-14852
胃	-14853
蓉	-14854
&	-14855
叟	-14856
孟	-14857
撒	-14858
梓	-14859
溢	-14860
綺	-14861
肺	-14862
賽	-14863
款	-14864
瓢	-14865
蝉	-14866
逼	-14867
侠	-14868
倹	-14869
剰	-14870
堕	-14871
螺	-14872
ゑ	-14873
凱	-14874
厭	-14875
只	-14876
奘	-14877
槽	-14878
漠	-14879
筈	-14880
緻	-14881
舘	-14882
濾	-14883
爲	-14884
筅	-14885
贅	-14886
辿	-14887
醗	-14888
卸	-14889
塑	-14890
寡	-14891
梗	-14892
棹	-14893
禮	-14894
總	-14895
遙	-14896
亦	-14897
墜	-14898
渟	-14899
盂	-14900
萌	-14901
躬	-14902
逍	-14903
飽	-14904
姦	-14905
拷	-14906
籤	-14907
跏	-14908
兌	-14909
汝	-14910
沓	-14911
譽	-14912
乎	-14913
噴	-14914
宵	-14915
掟	-14916
斤	-14917
砥	-14918
秒	-14919
覗	-14920
鈿	-14921
髄	-14922
鯖	-14923
鵄	-14924
弄	-14925
捻	-14926
晃	-14927
焙	-14928
竿	-14929
號	-14930
跋	-14931
靴	-14932
圭	-14933
崋	-14934
托	-14935
梟	-14936
瘡	-14937
篥	-14938
梯	-14939
濡	-14940
稗	-14941
簒	-14942
緋	-14943
腋	-14944
尿	-14945
揖	-14946
柘	-14947
欣	-14948
笥	-14949
篳	-14950
葱	-14951
坑	-14952
寶	-14953
揄	-14954
搾	-14955
茄	-14956
袿	-14957
魯	-14958
剖	-14959
尭	-14960
憧	-14961
掻	-14962
揶	-14963
朕	-14964
盃	-14965
砧	-14966
穣	-14967
蛤	-14968
騙	-14969
奄	-14970
彙	-14971
疋	-14972
袢	-14973
訛	-14974
醒	-14975
陛	-14976
Q	-14977
娼	-14978
宍	-14979
已	-14980
徂	-14981
慨	-14982
猷	-14983
祗	-14984
祢	-14985
笏	-14986
鍔	-14987
]	-14988
僊	-14989
奠	-14990
嬉	-14991
弧	-14992
徠	-14993
搗	-14994
楕	-14995
榜	-14996
碓	-14997
綏	-14998
經	-14999
罹	-15000
耽	-15001
茲	-15002
菖	-15003
豎	-15004
賎	-15005
顛	-15006
丙	-15007
侮	-15008
凉	-15009
堆	-15010
朧	-15011
渦	-15012
熈	-15013
玖	-15014
稔	-15015
蟹	-15016
詛	-15017
迂	-15018
凹	-15019
址	-15020
扁	-15021
扮	-15022
棗	-15023
槇	-15024
歎	-15025
歿	-15026
毫	-15027
燭	-15028
羲	-15029
蜻	-15030
褐	-15031
贄	-15032
鈷	-15033
鞭	-15034
[	-15035
⇒	-15036
喚	-15037
欺	-15038
汗	-15039
熨	-15040
蛉	-15041
蝋	-15042
衿	-15043
覺	-15044
趙	-15045
鶯	-15046
Z	-15047
喝	-15048
宥	-15049
柑	-15050
珎	-15051
疇	-15052
篋	-15053
綜	-15054
葭	-15055
衍	-15056
襄	-15057
讐	-15058
錫	-15059
咋	-15060
會	-15061
桔	-15062
漑	-15063
肪	-15064
蕨	-15065
蛸	-15066
袁	-15067
袂	-15068
韶	-15069
佩	-15070
嗚	-15071
恕	-15072
戌	-15073
禿	-15074
臺	-15075
藏	-15076
鈍	-15077
雖	-15078
靡	-15079
鵺	-15080
*	-15081
俀	-15082
填	-15083
并	-15084
廠	-15085
憩	-15086
机	-15087
殷	-15088
濱	-15089
禧	-15090
箭	-15091
篁	-15092
鐵	-15093
髻	-15094
鯰	-15095
←	-15096
佑	-15097
塊	-15098
姜	-15099
懺	-15100
湘	-15101
濯	-15102
璧	-15103
臚	-15104
葡	-15105
詐	-15106
跳	-15107
迅	-15108
鑁	-15109
鱗	-15110
凸	-15111
咸	-15112
嚆	-15113
翔	-15114
脆	-15115
苧	-15116
蒐	-15117
蔚	-15118
襦	-15119
誹	-15120
酬	-15121
頬	-15122
鮑	-15123
姥	-15124
巷	-15125
撞	-15126
楷	-15127
汎	-15128
睡	-15129
粮	-15130
羂	-15131
莱	-15132
衾	-15133
詫	-15134
頁	-15135
顗	-15136
饒	-15137
壹	-15138
屠	-15139
帚	-15140
廂	-15141
憚	-15142
穿	-15143
籾	-15144
胞	-15145
處	-15146
銚	-15147
《	-15148
》	-15149
紬	-15150
羨	-15151
膜	-15152
邊	-15153
僕	-15154
冨	-15155
喉	-15156
嘘	-15157
嬢	-15158
曙	-15159
癌	-15160
笄	-15161
耀	-15162
郁	-15163
鉤	-15164
雙	-15165
凄	-15166
几	-15167
奸	-15168
妍	-15169
娠	-15170
惹	-15171
戔	-15172
爛	-15173
琢	-15174
眷	-15175
瞭	-15176
礫	-15177
賣	-15178
鐐	-15179
鰭	-15180
鼎	-15181
暢	-15182
枳	-15183
桧	-15184
楓	-15185
羯	-15186
膾	-15187
蔀	-15188
蕩	-15189
阮	-15190
頌	-15191
劾	-15192
忙	-15193
煽	-15194
瑜	-15195
衞	-15196
逗	-15197
酌	-15198
鮨	-15199
鵬	-15200
妄	-15201
屓	-15202
楚	-15203
痩	-15204
痴	-15205
竟	-15206
膚	-15207
誡	-15208
賂	-15209
贔	-15210
軋	-15211
轟	-15212
轢	-15213
釧	-15214
鍾	-15215
陞	-15216
~	-15217
徭	-15218
晁	-15219
榛	-15220
燻	-15221
筥	-15222
耗	-15223
苅	-15224
蛙	-15225
蠣	-15226
這	-15227
錐	-15228
麾	-15229
套	-15230
寓	-15231
惚	-15232
捺	-15233
搭	-15234
熹	-15235
礁	-15236
祁	-15237
糟	-15238
緬	-15239
菴	-15240
裃	-15241
閔	-15242
闢	-15243
雍	-15244
餘	-15245
孚	-15246
尤	-15247
崗	-15248
拵	-15249
搦	-15250
旺	-15251
楢	-15252
氾	-15253
滓	-15254
炮	-15255
焔	-15256
疱	-15257
箪	-15258
絣	-15259
茸	-15260
蔓	-15261
訊	-15262
誄	-15263
諺	-15264
鬱	-15265
齋	-15266
咒	-15267
唇	-15268
塙	-15269
娑	-15270
惺	-15271
掠	-15272
旛	-15273
浙	-15274
瀕	-15275
炙	-15276
癸	-15277
蒼	-15278
訥	-15279
鑰	-15280
鬚	-15281
于	-15282
决	-15283
咄	-15284
嶼	-15285
彭	-15286
掴	-15287
梧	-15288
渇	-15289
狸	-15290
磔	-15291
簀	-15292
纓	-15293
肘	-15294
腫	-15295
蛋	-15296
諜	-15297
韮	-15298
做	-15299
崑	-15300
弛	-15301
杣	-15302
楮	-15303
殯	-15304
汐	-15305
狄	-15306
玲	-15307
瞑	-15308
虹	-15309
證	-15310
鑓	-15311
鵯	-15312
冲	-15313
剋	-15314
嘲	-15315
嵩	-15316
德	-15317
昂	-15318
渾	-15319
溪	-15320
硝	-15321
縞	-15322
諍	-15323
鎬	-15324
韋	-15325
侈	-15326
儺	-15327
愕	-15328
烹	-15329
糞	-15330
綽	-15331
襴	-15332
餌	-15333
俺	-15334
傭	-15335
匙	-15336
哨	-15337
媚	-15338
愁	-15339
擲	-15340
萄	-15341
蔦	-15342
鑽	-15343
頸	-15344
q	-15345
乖	-15346
冤	-15347
刳	-15348
卍	-15349
婁	-15350
惠	-15351
拉	-15352
框	-15353
煌	-15354
爺	-15355
篷	-15356
纒	-15357
蟇	-15358
蟻	-15359
譬	-15360
跪	-15361
辨	-15362
驕	-15363
鮭	-15364
—	-15365
弉	-15366
殴	-15367
灸	-15368
爽	-15369
皺	-15370
舂	-15371
芒	-15372
衽	-15373
貪	-15374
躰	-15375
來	-15376
坡	-15377
忽	-15378
戎	-15379
珪	-15380
窩	-15381
薗	-15382
蜀	-15383
訣	-15384
谿	-15385
鍮	-15386
鮫	-15387
@	-15388
俄	-15389
啄	-15390
嚢	-15391
埵	-15392
奎	-15393
庖	-15394
榮	-15395
淨	-15396
濤	-15397
煤	-15398
畢	-15399
盈	-15400
絢	-15401
脊	-15402
葩	-15403
誼	-15404
貶	-15405
遜	-15406
錠	-15407
鍼	-15408
鬢	-15409
鮪	-15410
麁	-15411
假	-15412
怡	-15413
挺	-15414
掬	-15415
杮	-15416
栂	-15417
殲	-15418
氣	-15419
漕	-15420
漿	-15421
犀	-15422
篝	-15423
糺	-15424
聯	-15425
肆	-15426
蛭	-15427
鋸	-15428
錆	-15429
關	-15430
鞋	-15431
鰯	-15432
鸚	-15433
黎	-15434
仔	-15435
垢	-15436
娍	-15437
怯	-15438
捌	-15439
捏	-15440
榴	-15441
泗	-15442
烙	-15443
痺	-15444
睨	-15445
禽	-15446
穆	-15447
肢	-15448
臆	-15449
醇	-15450
鋤	-15451
鮓	-15452
鼈	-15453
傲	-15454
圃	-15455
埠	-15456
幢	-15457
礒	-15458
站	-15459
紳	-15460
肇	-15461
膏	-15462
蒹	-15463
顎	-15464
駈	-15465
鵞	-15466
〇	-15467
呰	-15468
坤	-15469
屍	-15470
弗	-15471
悌	-15472
槨	-15473
游	-15474
燼	-15475
瑩	-15476
荏	-15477
薮	-15478
讀	-15479
輯	-15480
辟	-15481
餐	-15482
麝	-15483
姑	-15484
屑	-15485
懿	-15486
槙	-15487
歪	-15488
洩	-15489
淫	-15490
滸	-15491
濟	-15492
盞	-15493
砺	-15494
窃	-15495
筵	-15496
舁	-15497
虞	-15498
訌	-15499
諒	-15500
贖	-15501
蹄	-15502
躊	-15503
邁	-15504
鍍	-15505
鐚	-15506
髏	-15507
ぁ	-15508
ぇ	-15509
仍	-15510
剪	-15511
劔	-15512
嚇	-15513
婉	-15514
將	-15515
戈	-15516
桝	-15517
浚	-15518
淆	-15519
炬	-15520
盥	-15521
窒	-15522
箋	-15523
裡	-15524
襷	-15525
躇	-15526
髑	-15527
鰐	-15528
黌	-15529
ゞ	-15530
亟	-15531
凋	-15532
尓	-15533
尸	-15534
拗	-15535
樵	-15536
潅	-15537
瀟	-15538
煬	-15539
猥	-15540
瘍	-15541
竄	-15542
筐	-15543
籐	-15544
縹	-15545
聲	-15546
脛	-15547
艇	-15548
蔽	-15549
魄	-15550
●	-15551
仗	-15552
唾	-15553
戟	-15554
攪	-15555
晟	-15556
柾	-15557
栲	-15558
楳	-15559
櫟	-15560
淤	-15561
渕	-15562
渠	-15563
潭	-15564
珥	-15565
笈	-15566
絲	-15567
翳	-15568
胝	-15569
菘	-15570
諷	-15571
踞	-15572
飫	-15573
鮒	-15574
α	-15575
些	-15576
僭	-15577
冗	-15578
對	-15579
崔	-15580
弖	-15581
弽	-15582
彷	-15583
擂	-15584
杼	-15585
栓	-15586
渚	-15587
獨	-15588
矣	-15589
范	-15590
荃	-15591
迪	-15592
逞	-15593
釋	-15594
閇	-15595
閨	-15596
駁	-15597
佚	-15598
佶	-15599
宦	-15600
掖	-15601
撓	-15602
旱	-15603
曝	-15604
杲	-15605
橙	-15606
櫨	-15607
汀	-15608
沽	-15609
淇	-15610
瀉	-15611
絆	-15612
艮	-15613
蕭	-15614
裴	-15615
豫	-15616
趨	-15617
軾	-15618
鈕	-15619
鐙	-15620
鱈	-15621
鴫	-15622
鹵	-15623
齟	-15624
齬	-15625
俎	-15626
俟	-15627
咩	-15628
堡	-15629
壕	-15630
巽	-15631
恣	-15632
旻	-15633
昏	-15634
櫂	-15635
沌	-15636
淸	-15637
澪	-15638
痢	-15639
筏	-15640
聟	-15641
臀	-15642
茜	-15643
讖	-15644
讚	-15645
邨	-15646
闡	-15647
陋	-15648
△	-15649
偃	-15650
刎	-15651
勺	-15652
卦	-15653
咳	-15654
嬬	-15655
憾	-15656
斃	-15657
无	-15658
杢	-15659
柊	-15660
檮	-15661
權	-15662
泌	-15663
涛	-15664
腎	-15665
舊	-15666
茗	-15667
萎	-15668
蹲	-15669
辣	-15670
錮	-15671
鞄	-15672
麒	-15673
é	-15674
ī	-15675
μ	-15676
儚	-15677
兒	-15678
呵	-15679
喀	-15680
壙	-15681
恰	-15682
悶	-15683
拮	-15684
敲	-15685
楞	-15686
淘	-15687
渥	-15688
澱	-15689
燵	-15690
皓	-15691
碕	-15692
稷	-15693
蔡	-15694
袷	-15695
褄	-15696
蹊	-15697
輌	-15698
輦	-15699
鄙	-15700
鄰	-15701
酥	-15702
醂	-15703
鋲	-15704
闊	-15705
隘	-15706
靫	-15707
頤	-15708
鷦	-15709
鷯	-15710
⇔	-15711
☆	-15712
〘	-15713
〙	-15714
ぃ	-15715
倦	-15716
匣	-15717
呆	-15718
嗟	-15719
從	-15720
扈	-15721
捗	-15722
昉	-15723
棘	-15724
珊	-15725
痔	-15726
矯	-15727
禦	-15728
箒	-15729
粂	-15730
薊	-15731
薯	-15732
薺	-15733
蘊	-15734
襠	-15735
詢	-15736
謨	-15737
謬	-15738
鵠	-15739
齎	-15740
−	-15741
〆	-15742
ヰ	-15743
僑	-15744
冴	-15745
刪	-15746
吃	-15747
哭	-15748
孵	-15749
崙	-15750
巖	-15751
忿	-15752
憫	-15753
拐	-15754
暹	-15755
樓	-15756
檻	-15757
涵	-15758
淋	-15759
淹	-15760
滲	-15761
瀛	-15762
猾	-15763
珀	-15764
瑙	-15765
瑤	-15766
瑪	-15767
疆	-15768
笞	-15769
絁	-15770
蓼	-15771
蘂	-15772
襞	-15773
趾	-15774
閦	-15775
陌	-15776
雞	-15777
靱	-15778
韜	-15779
體	-15780
鶉	-15781
黍	-15782
估	-15783
卉	-15784
厠	-15785
喘	-15786
嚴	-15787
埒	-15788
埿	-15789
弭	-15790
愈	-15791
摸	-15792
晨	-15793
暉	-15794
檄	-15795
淮	-15796
碾	-15797
祺	-15798
禖	-15799
稈	-15800
稱	-15801
筌	-15802
紆	-15803
聰	-15804
胚	-15805
苫	-15806
莬	-15807
誣	-15808
躅	-15809
辯	-15810
鏨	-15811
鑿	-15812
雫	-15813
霰	-15814
鞨	-15815
髙	-15816
龕	-15817
{	-15818
|	-15819
}	-15820
á	-15821
ヱ	-15822
哺	-15823
嘯	-15824
夙	-15825
嫄	-15826
嬪	-15827
徧	-15828
忯	-15829
恬	-15830
惇	-15831
撚	-15832
攬	-15833
楫	-15834
氈	-15835
狽	-15836
瑚	-15837
矜	-15838
礙	-15839
筝	-15840
筮	-15841
箙	-15842
紘	-15843
繭	-15844
繼	-15845
臍	-15846
舐	-15847
藐	-15848
虔	-15849
詁	-15850
躑	-15851
轆	-15852
轤	-15853
鑼	-15854
頗	-15855
颯	-15856
飩	-15857
鬨	-15858
鵡	-15859
鸕	-15860
龗	-15861
吠	-15862
坏	-15863
奕	-15864
婬	-15865
嬌	-15866
孕	-15867
廨	-15868
愉	-15869
戮	-15870
抓	-15871
捐	-15872
杷	-15873
柯	-15874
梢	-15875
棍	-15876
椥	-15877
洽	-15878
瀞	-15879
燎	-15880
燧	-15881
畸	-15882
疵	-15883
瞳	-15884
礬	-15885
禹	-15886
秉	-15887
簗	-15888
籌	-15889
粽	-15890
腿	-15891
蝕	-15892
蟠	-15893
趺	-15894
遐	-15895
鈎	-15896
銖	-15897
鎚	-15898
隨	-15899
靭	-15900
髱	-15901
魃	-15902
鯱	-15903
鴦	-15904
鹽	-15905
÷	-15906
ヽ	-15907
冕	-15908
吽	-15909
咤	-15910
喋	-15911
囁	-15912
埃	-15913
妣	-15914
姬	-15915
廼	-15916
弩	-15917
彗	-15918
愷	-15919
掣	-15920
撹	-15921
斂	-15922
昵	-15923
晏	-15924
枇	-15925
溥	-15926
瀑	-15927
瀾	-15928
牓	-15929
猜	-15930
琥	-15931
瑣	-15932
甑	-15933
甞	-15934
痰	-15935
瞰	-15936
矧	-15937
碍	-15938
磬	-15939
穎	-15940
竝	-15941
筍	-15942
羇	-15943
腺	-15944
莵	-15945
藷	-15946
訃	-15947
豐	-15948
赫	-15949
酪	-15950
醴	-15951
鎔	-15952
鑢	-15953
霾	-15954
頽	-15955
餃	-15956
鱶	-15957
鴛	-15958
à	-15959
倅	-15960
凪	-15961
嗅	-15962
姨	-15963
岱	-15964
幇	-15965
徨	-15966
忻	-15967
捲	-15968
擡	-15969
斟	-15970
柩	-15971
泄	-15972
淺	-15973
獏	-15974
瑛	-15975
盡	-15976
睺	-15977
碇	-15978
窖	-15979
竃	-15980
縒	-15981
繹	-15982
罠	-15983
苡	-15984
荊	-15985
蒿	-15986
蘋	-15987
蝠	-15988
衢	-15989
褥	-15990
觀	-15991
謚	-15992
踪	-15993
逵	-15994
酋	-15995
