<pad>	0
<unk>	0
<bos>	0
<eos>	0
▁t	-0
he	-1
▁a	-2
in	-3
▁the	-4
▁o	-5
er	-6
ed	-7
▁w	-8
▁s	-9
on	-10
re	-11
▁of	-12
an	-13
at	-14
hi	-15
en	-16
or	-17
as	-18
▁b	-19
▁c	-20
▁an	-21
it	-22
▁f	-23
▁in	-24
is	-25
ar	-26
▁p	-27
es	-28
▁and	-29
al	-30
▁(	-31
▁to	-32
ro	-33
▁T	-34
ing	-35
▁S	-36
▁d	-37
am	-38
ho	-39
▁m	-40
ion	-41
un	-42
le	-43
▁K	-44
▁was	-45
▁n	-46
us	-47
ak	-48
ic	-49
ur	-50
ent	-51
▁H	-52
▁I	-53
ec	-54
▁M	-55
mp	-56
▁re	-57
ly	-58
ot	-59
ai	-60
ad	-61
os	-62
ut	-63
▁l	-64
ce	-65
▁as	-66
▁is	-67
om	-68
▁A	-69
his	-70
▁g	-71
▁1	-72
▁th	-73
ok	-74
▁e	-75
▁C	-76
ch	-77
ter	-78
▁he	-79
▁h	-80
▁be	-81
ation	-82
▁on	-83
ri	-84
▁N	-85
od	-86
▁P	-87
ver	-88
▁for	-89
▁st	-90
ag	-91
su	-92
il	-93
▁J	-94
id	-95
ain	-96
ap	-97
▁O	-98
ol	-99
ve	-100
ow	-101
ac	-102
▁that	-103
ay	-104
▁E	-105
▁no	-106
▁by	-107
▁The	-108
eri	-109
et	-110
her	-111
yo	-112
st	-113
em	-114
▁Y	-115
rom	-116
ug	-117
ji	-118
▁wit	-119
ig	-120
ir	-121
ame	-122
▁with	-123
um	-124
im	-125
▁k	-126
▁it	-127
ct	-128
ul	-129
▁his	-130
▁F	-131
▁B	-132
▁con	-133
ud	-134
▁'	-135
▁R	-136
▁D	-137
▁In	-138
est	-139
▁G	-140
▁from	-141
▁at	-142
),	-143
ect	-144
▁co	-145
▁r	-146
▁whi	-147
▁"	-148
).	-149
▁al	-150
se	-151
ami	-152
ere	-153
▁su	-154
hin	-155
ure	-156
and	-157
▁were	-158
▁or	-159
apan	-160
ei	-161
ab	-162
uk	-163
oto	-164
ted	-165
▁are	-166
ince	-167
ld	-168
ated	-169
all	-170
ate	-171
ity	-172
und	-173
▁who	-174
▁which	-175
▁cl	-176
ers	-177
oshi	-178
ment	-179
if	-180
pp	-181
th	-182
ine	-183
aw	-184
emp	-185
▁W	-186
▁Japan	-187
ist	-188
▁de	-189
iv	-190
op	-191
oc	-192
▁bec	-193
▁ex	-194
ear	-195
ori	-196
▁v	-197
jo	-198
eriod	-199
▁pro	-200
end	-201
ore	-202
ord	-203
ther	-204
ary	-205
ugh	-206
eror	-207
so	-208
mperor	-209
res	-210
him	-211
ge	-212
ik	-213
▁He	-214
ard	-215
ast	-216
to	-217
▁period	-218
ess	-219
aku	-220
fter	-221
the	-222
ong	-223
amily	-224
emple	-225
ts	-226
use	-227
ese	-228
▁Ky	-229
ally	-230
erial	-231
el	-232
▁U	-233
▁L	-234
qu	-235
▁family	-236
ition	-237
ob	-238
▁2	-239
▁y	-240
▁tr	-241
▁not	-242
oku	-243
over	-244
▁Emperor	-245
ref	-246
▁had	-247
hr	-248
ank	-249
cho	-250
chi	-251
ki	-252
mperial	-253
▁whe	-254
▁It	-255
rov	-256
▁but	-257
▁clan	-258
▁this	-259
ies	-260
ive	-261
▁se	-262
▁le	-263
▁Kyoto	-264
▁pl	-265
▁ho	-266
▁ar	-267
▁sho	-268
▁also	-269
og	-270
▁ad	-271
ice	-272
▁call	-273
ave	-274
ill	-275
ial	-276
RA	-277
▁us	-278
do	-279
hed	-280
up	-281
cc	-282
▁St	-283
ber	-284
iz	-285
▁19	-286
▁so	-287
ans	-288
WA	-289
ama	-290
▁ch	-291
ang	-292
art	-293
aka	-294
00	-295
ide	-296
overn	-297
▁Temple	-298
ari	-299
HI	-300
▁Prov	-301
hu	-302
ie	-303
ant	-304
ous	-305
ory	-306
unt	-307
ade	-308
▁called	-309
ved	-310
▁Province	-311
ass	-312
atsu	-313
bo	-314
age	-315
our	-316
▁pos	-317
igh	-318
own	-319
▁after	-320
▁became	-321
ome	-322
awa	-323
ater	-324
▁Imperial	-325
▁tim	-326
ied	-327
▁app	-328
ashi	-329
▁off	-330
ever	-331
ry	-332
▁inc	-333
▁name	-334
refect	-335
ort	-336
▁year	-337
▁City	-338
low	-339
▁man	-340
▁one	-341
les	-342
ura	-343
rit	-344
▁18	-345
ace	-346
KA	-347
▁Sho	-348
▁sp	-349
ara	-350
▁govern	-351
ake	-352
shi	-353
▁com	-354
ue	-355
fer	-356
refecture	-357
▁such	-358
uring	-359
▁other	-360
ign	-361
▁been	-362
▁Japanese	-363
▁ro	-364
iy	-365
▁there	-366
▁used	-367
▁dis	-368
orm	-369
▁Shi	-370
udd	-371
rig	-372
ep	-373
aid	-374
▁have	-375
ten	-376
uct	-377
▁Prefecture	-378
achi	-379
ra	-380
▁reg	-381
▁On	-382
▁des	-383
gun	-384
▁when	-385
▁Yoshi	-386
ished	-387
▁wor	-388
▁comp	-389
tain	-390
▁un	-391
▁-	-392
▁pe	-393
der	-394
ance	-395
ell	-396
oin	-397
ren	-398
ack	-399
ha	-400
ub	-401
▁en	-402
▁time	-403
ci	-404
▁Shin	-405
▁i	-406
jin	-407
irst	-408
fu	-409
one	-410
ight	-411
aki	-412
▁Budd	-413
red	-414
ress	-415
chool	-416
aga	-417
ew	-418
▁son	-419
ust	-420
▁they	-421
ical	-422
▁ser	-423
▁Kan	-424
under	-425
ichi	-426
ence	-427
▁me	-428
ko	-429
ff	-430
▁their	-431
hrine	-432
▁fo	-433
ire	-434
av	-435
TO	-436
ais	-437
▁His	-438
une	-439
lud	-440
form	-441
▁res	-442
▁pr	-443
ause	-444
▁part	-445
▁into	-446
▁Pr	-447
AM	-448
ond	-449
▁government	-450
oy	-451
ult	-452
▁during	-453
ople	-454
act	-455
ced	-456
uld	-457
▁Tok	-458
▁mo	-459
▁made	-460
▁head	-461
GA	-462
▁Station	-463
▁comm	-464
▁first	-465
▁pri	-466
wn	-467
▁Edo	-468
▁cont	-469
▁has	-470
▁abo	-471
▁hi	-472
▁him	-473
▁est	-474
▁As	-475
ree	-476
per	-477
▁chi	-478
uni	-479
ters	-480
we	-481
way	-482
ail	-483
JI	-484
▁sy	-485
round	-486
▁loc	-487
SHI	-488
▁said	-489
▁rel	-490
ish	-491
▁tho	-492
▁people	-493
▁under	-494
owever	-495
lect	-496
ather	-497
▁includ	-498
▁However	-499
ushi	-500
abl	-501
▁bet	-502
ener	-503
▁fol	-504
▁form	-505
▁bo	-506
nown	-507
▁rec	-508
▁gr	-509
▁offic	-510
▁its	-511
ower	-512
astle	-513
▁bro	-514
te	-515
▁cons	-516
▁Tak	-517
ven	-518
▁Sh	-519
ions	-520
▁out	-521
▁Buddhis	-522
▁tw	-523
omain	-524
ost	-525
▁ag	-526
cri	-527
ember	-528
ef	-529
az	-530
uil	-531
▁up	-532
ered	-533
ings	-534
rigin	-535
emon	-536
itsu	-537
reat	-538
ach	-539
ata	-540
▁Kam	-541
▁because	-542
ll	-543
ween	-544
▁establ	-545
tern	-546
▁per	-547
ations	-548
DA	-549
ces	-550
▁act	-551
att	-552
ents	-553
stem	-554
▁sec	-555
▁between	-556
▁Prince	-557
.'	-558
▁sh	-559
ister	-560
ict	-561
ku	-562
▁15	-563
▁exp	-564
▁old	-565
▁3	-566
▁Min	-567
▁follow	-568
ors	-569
▁school	-570
▁FU	-571
ase	-572
ood	-573
resent	-574
▁ent	-575
iver	-576
OTO	-577
▁Chin	-578
▁over	-579
pt	-580
str	-581
▁yo	-582
ishi	-583
▁origin	-584
urn	-585
▁te	-586
SU	-587
▁system	-588
ased	-589
WARA	-590
▁This	-591
▁att	-592
ath	-593
▁cour	-594
eng	-595
▁some	-596
▁writ	-597
ada	-598
▁pre	-599
other	-600
▁same	-601
▁them	-602
▁sect	-603
▁rank	-604
ons	-605
▁only	-606
ib	-607
ke	-608
▁j	-609
▁her	-610
▁buil	-611
▁San	-612
asa	-613
able	-614
ited	-615
▁day	-616
ational	-617
▁imp	-618
▁char	-619
NO	-620
▁After	-621
▁main	-622
▁col	-623
▁cent	-624
sel	-625
▁Shrine	-626
ife	-627
its	-628
▁ter	-629
asu	-630
▁po	-631
▁order	-632
▁work	-633
▁many	-634
akura	-635
my	-636
uki	-637
ural	-638
▁two	-639
▁Co	-640
no	-641
▁FUJI	-642
▁stat	-643
uary	-644
▁gener	-645
ung	-646
▁hig	-647
KU	-648
▁acc	-649
▁about	-650
ens	-651
du	-652
▁16	-653
tho	-654
▁rep	-655
▁all	-656
▁dec	-657
▁MI	-658
▁position	-659
uku	-660
augh	-661
▁where	-662
min	-663
▁later	-664
ilit	-665
yu	-666
ma	-667
▁years	-668
▁bel	-669
me	-670
▁died	-671
▁Nob	-672
▁priest	-673
wa	-674
▁FUJIWARA	-675
▁11	-676
▁Yam	-677
ono	-678
hir	-679
▁str	-680
▁ear	-681
ka	-682
▁do	-683
▁court	-684
▁prov	-685
▁can	-686
▁am	-687
▁ret	-688
go	-689
old	-690
yle	-691
▁pers	-692
▁pol	-693
ike	-694
▁mon	-695
,'	-696
▁Castle	-697
ular	-698
yama	-699
gan	-700
akufu	-701
ording	-702
▁add	-703
▁TA	-704
▁No	-705
istr	-706
▁thro	-707
uji	-708
vel	-709
uke	-710
▁Dai	-711
▁Al	-712
0,	-713
Japan	-714
▁appoin	-715
attle	-716
TA	-717
▁ab	-718
▁established	-719
ix	-720
▁war	-721
hen	-722
▁shogun	-723
▁cer	-724
ident	-725
▁7	-726
▁fe	-727
omo	-728
▁well	-729
uth	-730
▁Hei	-731
▁father	-732
ined	-733
ords	-734
▁new	-735
▁Rank	-736
ane	-737
irect	-738
ale	-739
ting	-740
▁she	-741
▁hist	-742
ning	-743
▁sub	-744
ats	-745
▁line	-746
▁Z	-747
▁dif	-748
▁end	-749
ught	-750
ubl	-751
▁Un	-752
oth	-753
▁train	-754
uro	-755
▁death	-756
▁Os	-757
▁temple	-758
▁TO	-759
▁Se	-760
▁child	-761
▁official	-762
ived	-763
▁Cour	-764
The	-765
▁rem	-766
▁ass	-767
med	-768
▁An	-769
ip	-770
ato	-771
▁known	-772
ty	-773
▁again	-774
▁hand	-775
inc	-776
air	-777
ute	-778
▁trans	-779
alace	-780
arch	-781
▁written	-782
ried	-783
▁sc	-784
▁There	-785
ose	-786
▁Mas	-787
ized	-788
▁bakufu	-789
are	-790
▁how	-791
▁daugh	-792
▁then	-793
▁Buddhist	-794
struct	-795
▁than	-796
als	-797
umi	-798
▁area	-799
▁three	-800
iya	-801
vent	-802
though	-803
ines	-804
aru	-805
iter	-806
etsu	-807
ilitary	-808
▁serv	-809
▁consid	-810
duct	-811
amp	-812
ano	-813
▁vari	-814
▁War	-815
yoshi	-816
▁So	-817
▁giv	-818
ite	-819
uchi	-820
▁second	-821
▁supp	-822
ja	-823
▁12	-824
ision	-825
self	-826
▁held	-827
▁being	-828
▁power	-829
▁stud	-830
utsu	-831
▁Ko	-832
ft	-833
▁perform	-834
ind	-835
▁appointed	-836
▁army	-837
▁En	-838
▁6	-839
▁including	-840
▁17	-841
▁gro	-842
▁those	-843
ont	-844
▁descri	-845
▁book	-846
▁ne	-847
▁Kamakura	-848
▁daughter	-849
▁dep	-850
▁8	-851
▁Line	-852
▁brother	-853
KI	-854
tsu	-855
▁ind	-856
▁(1	-857
▁Yor	-858
▁Am	-859
urren	-860
ward	-861
▁around	-862
▁person	-863
eiji	-864
▁while	-865
▁car	-866
▁5	-867
▁Ho	-868
TSU	-869
▁Nag	-870
▁Ch	-871
▁Ar	-872
▁Domain	-873
▁found	-874
▁direct	-875
ants	-876
▁fam	-877
▁br	-878
▁13	-879
ating	-880
▁served	-881
pe	-882
fl	-883
4,	-884
▁fl	-885
▁rice	-886
mi	-887
AMOTO	-888
eb	-889
▁Court	-890
ative	-891
hird	-892
Japanese	-893
orn	-894
▁cap	-895
▁since	-896
▁through	-897
unior	-898
▁play	-899
▁Kin	-900
any	-901
,"	-902
ates	-903
oshin	-904
▁came	-905
cce	-906
pri	-907
CHI	-908
▁style	-909
▁Ten	-910
▁Tai	-911
▁bus	-912
▁200	-913
get	-914
▁nam	-915
▁more	-916
urai	-917
▁Gen	-918
ided	-919
ferred	-920
▁side	-921
▁young	-922
▁publ	-923
▁military	-924
▁To	-925
cient	-926
oki	-927
ually	-928
▁age	-929
▁land	-930
ures	-931
kan	-932
▁lord	-933
myo	-934
▁given	-935
▁located	-936
▁down	-937
sho	-938
▁dr	-939
▁pass	-940
kyo	-941
▁Kore	-942
▁MIN	-943
▁back	-944
ju	-945
▁Chi	-946
fore	-947
▁tit	-948
▁star	-949
mon	-950
▁high	-951
ired	-952
▁Meiji	-953
▁charac	-954
▁however	-955
▁following	-956
▁wo	-957
▁four	-958
▁temp	-959
unc	-960
▁post	-961
▁differ	-962
uri	-963
▁count	-964
very	-965
▁V	-966
sul	-967
▁er	-968
▁took	-969
aro	-970
▁mat	-971
▁region	-972
▁art	-973
▁each	-974
▁MINAMOTO	-975
ivers	-976
▁Osaka	-977
▁like	-978
▁[	-979
▁inv	-980
ept	-981
▁op	-982
ual	-983
▁int	-984
▁At	-985
osed	-986
MA	-987
▁prom	-988
▁before	-989
▁did	-990
▁early	-991
ior	-992
uard	-993
▁SA	-994
ick	-995
day	-996
▁nob	-997
1,	-998
▁When	-999
▁def	-1000
▁these	-1001
▁KA	-1002
ship	-1003
▁even	-1004
▁ceremon	-1005
▁Ju	-1006
ful	-1007
amurai	-1008
▁Nara	-1009
▁jo	-1010
zu	-1011
▁Ni	-1012
▁place	-1013
▁own	-1014
▁due	-1015
▁long	-1016
▁various	-1017
▁appear	-1018
▁dai	-1019
▁Heian	-1020
ailway	-1021
ific	-1022
oro	-1023
ccess	-1024
▁qu	-1025
▁num	-1026
▁considered	-1027
▁9	-1028
uc	-1029
▁based	-1030
GAWA	-1031
▁addition	-1032
AMA	-1033
▁present	-1034
▁Ok	-1035
▁bl	-1036
aking	-1037
hy	-1038
▁Ts	-1039
▁left	-1040
ems	-1041
▁mar	-1042
jinja	-1043
▁Gr	-1044
han	-1045
kai	-1046
ey	-1047
hout	-1048
▁set	-1049
▁Palace	-1050
▁group	-1051
rap	-1052
▁Chinese	-1053
▁wife	-1054
▁emperor	-1055
▁belie	-1056
▁im	-1057
▁spec	-1058
MI	-1059
▁station	-1060
refore	-1061
▁10	-1062
iss	-1063
ury	-1064
velop	-1065
ba	-1066
xt	-1067
oka	-1068
gu	-1069
ia	-1070
emb	-1071
duced	-1072
▁fact	-1073
▁ob	-1074
amoto	-1075
ities	-1076
▁would	-1077
▁retain	-1078
anged	-1079
▁Hide	-1080
IRA	-1081
led	-1082
▁Ward	-1083
ival	-1084
ious	-1085
▁cult	-1086
▁theory	-1087
▁plac	-1088
5,	-1089
hima	-1090
▁adv	-1091
hes	-1092
▁mother	-1093
▁adop	-1094
▁imperial	-1095
▁domain	-1096
cip	-1097
oci	-1098
ochi	-1099
▁success	-1100
▁against	-1101
udal	-1102
▁Tokyo	-1103
▁class	-1104
bed	-1105
pril	-1106
odo	-1107
▁4	-1108
pect	-1109
8,	-1110
▁cre	-1111
▁build	-1112
▁go	-1113
▁lar	-1114
▁sur	-1115
reet	-1116
ortant	-1117
▁occ	-1118
▁conc	-1119
zo	-1120
▁started	-1121
omi	-1122
▁shi	-1123
▁vis	-1124
NA	-1125
Junior	-1126
▁ref	-1127
▁oper	-1128
▁himself	-1129
▁remain	-1130
▁sw	-1131
oted	-1132
yn	-1133
ino	-1134
uncil	-1135
righ	-1136
3,	-1137
▁pain	-1138
▁local	-1139
▁return	-1140
▁Hi	-1141
▁HO	-1142
ric	-1143
▁god	-1144
▁could	-1145
."	-1146
▁fr	-1147
2,	-1148
ital	-1149
ian	-1150
▁we	-1151
▁Although	-1152
adition	-1153
000	-1154
▁ins	-1155
▁title	-1156
▁built	-1157
zen	-1158
▁most	-1159
▁shrine	-1160
anuary	-1161
aj	-1162
▁min	-1163
▁ty	-1164
▁design	-1165
7,	-1166
▁Tsu	-1167
▁say	-1168
▁construct	-1169
▁Shim	-1170
▁era	-1171
▁bir	-1172
▁develop	-1173
inu	-1174
▁ed	-1175
▁NA	-1176
ject	-1177
▁April	-1178
▁rece	-1179
co	-1180
▁among	-1181
▁both	-1182
▁feudal	-1183
ern	-1184
▁School	-1185
▁Tad	-1186
agon	-1187
usa	-1188
▁samurai	-1189
▁inst	-1190
▁mid	-1191
▁Nor	-1192
▁March	-1193
ana	-1194
▁14	-1195
▁leg	-1196
ynast	-1197
shu	-1198
aster	-1199
▁dist	-1200
▁Su	-1201
9,	-1202
ring	-1203
ories	-1204
ya	-1205
read	-1206
▁Shogun	-1207
▁Ro	-1208
6,	-1209
▁MA	-1210
▁Acc	-1211
ended	-1212
iqu	-1213
aving	-1214
untain	-1215
▁went	-1216
▁way	-1217
mpress	-1218
▁use	-1219
app	-1220
URA	-1221
▁number	-1222
▁born	-1223
urrent	-1224
▁comple	-1225
▁sm	-1226
JO	-1227
▁polit	-1228
▁Buddhism	-1229
▁Sak	-1230
▁great	-1231
ason	-1232
▁former	-1233
▁battle	-1234
▁contro	-1235
▁Cho	-1236
land	-1237
iversity	-1238
▁often	-1239
▁kami	-1240
SA	-1241
▁nor	-1242
hon	-1243
ently	-1244
known	-1245
▁times	-1246
obu	-1247
ially	-1248
unaga	-1249
▁resid	-1250
ober	-1251
▁According	-1252
▁term	-1253
dle	-1254
enior	-1255
▁resul	-1256
▁fin	-1257
ume	-1258
ctober	-1259
▁collect	-1260
▁issu	-1261
▁China	-1262
RI	-1263
▁common	-1264
▁inter	-1265
ret	-1266
ax	-1267
ature	-1268
▁Go	-1269
▁January	-1270
▁kill	-1271
▁adopted	-1272
▁become	-1273
KE	-1274
ito	-1275
▁above	-1276
ics	-1277
ugust	-1278
ement	-1279
▁tea	-1280
▁Sad	-1281
▁ceremony	-1282
ism	-1283
ments	-1284
▁lead	-1285
ebr	-1286
hara	-1287
▁righ	-1288
▁territ	-1289
▁ancient	-1290
ebruary	-1291
ange	-1292
osho	-1293
▁different	-1294
▁law	-1295
ks	-1296
▁Mt	-1297
▁Re	-1298
▁tre	-1299
iko	-1300
▁mod	-1301
▁birth	-1302
eded	-1303
estern	-1304
ecember	-1305
ately	-1306
igned	-1307
ield	-1308
▁met	-1309
▁rest	-1310
ins	-1311
oko	-1312
ution	-1313
agi	-1314
▁lo	-1315
▁cal	-1316
uma	-1317
▁exist	-1318
▁third	-1319
rib	-1320
KAWA	-1321
de	-1322
cy	-1323
ifth	-1324
bu	-1325
uryo	-1326
▁unt	-1327
▁July	-1328
ise	-1329
▁large	-1330
▁state	-1331
▁succe	-1332
man	-1333
ynasty	-1334
hrines	-1335
▁Hig	-1336
▁October	-1337
eptember	-1338
ened	-1339
▁Con	-1340
▁Mu	-1341
ible	-1342
▁regard	-1343
▁attack	-1344
▁others	-1345
▁days	-1346
iew	-1347
▁May	-1348
isted	-1349
thern	-1350
anch	-1351
▁TOKU	-1352
▁until	-1353
ified	-1354
dai	-1355
▁Railway	-1356
omm	-1357
▁changed	-1358
▁tro	-1359
odai	-1360
▁Mon	-1361
▁pop	-1362
▁186	-1363
▁vass	-1364
vem	-1365
iterally	-1366
au	-1367
▁century	-1368
par	-1369
vember	-1370
▁August	-1371
▁tradition	-1372
ets	-1373
▁KO	-1374
▁chief	-1375
▁Nobunaga	-1376
▁command	-1377
ros	-1378
otsu	-1379
▁house	-1380
▁without	-1381
▁Yoshin	-1382
▁real	-1383
gawa	-1384
oration	-1385
ored	-1386
▁Kei	-1387
zan	-1388
▁disp	-1389
▁sake	-1390
▁Hideyoshi	-1391
▁infl	-1392
▁February	-1393
▁partic	-1394
▁Hok	-1395
BA	-1396
romachi	-1397
gen	-1398
▁University	-1399
▁es	-1400
omet	-1401
▁div	-1402
▁conf	-1403
estival	-1404
▁famil	-1405
▁put	-1406
▁examp	-1407
▁stand	-1408
▁sent	-1409
iled	-1410
▁history	-1411
aus	-1412
uther	-1413
▁sold	-1414
ively	-1415
ga	-1416
.)	-1417
▁if	-1418
▁means	-1419
ention	-1420
▁Period	-1421
ogy	-1422
uthern	-1423
▁desc	-1424
ility	-1425
ako	-1426
ita	-1427
▁will	-1428
▁should	-1429
▁December	-1430
▁began	-1431
aisho	-1432
embers	-1433
ministr	-1434
▁along	-1435
▁Shinto	-1436
ner	-1437
▁sit	-1438
▁pract	-1439
ked	-1440
▁town	-1441
▁Muromachi	-1442
▁influ	-1443
▁office	-1444
▁September	-1445
ense	-1446
▁Grade	-1447
▁using	-1448
airs	-1449
▁temples	-1450
incess	-1451
▁med	-1452
una	-1453
▁mus	-1454
▁section	-1455
▁TOKUGAWA	-1456
▁make	-1457
▁another	-1458
▁fore	-1459
▁Pro	-1460
ech	-1461
▁character	-1462
row	-1463
▁Hon	-1464
▁pur	-1465
▁Buddha	-1466
▁koku	-1467
▁water	-1468
▁For	-1469
▁prin	-1470
▁ext	-1471
▁show	-1472
▁Yoshim	-1473
YA	-1474
▁lived	-1475
▁histor	-1476
▁members	-1477
▁unknown	-1478
ugo	-1479
▁six	-1480
▁187	-1481
▁hall	-1482
ime	-1483
▁November	-1484
▁Kok	-1485
▁public	-1486
▁good	-1487
hat	-1488
▁requ	-1489
za	-1490
▁National	-1491
mit	-1492
▁fac	-1493
hron	-1494
alf	-1495
▁right	-1496
▁capital	-1497
tect	-1498
mu	-1499
▁younger	-1500
ocum	-1501
▁castle	-1502
gether	-1503
ral	-1504
vers	-1505
▁SHI	-1506
▁Kag	-1507
itomo	-1508
▁Battle	-1509
urther	-1510
▁small	-1511
ingu	-1512
▁House	-1513
▁ac	-1514
ajor	-1515
▁vol	-1516
orted	-1517
ged	-1518
▁together	-1519
▁River	-1520
▁ri	-1521
▁June	-1522
omiya	-1523
ugawa	-1524
▁trains	-1525
▁mountain	-1526
▁ev	-1527
▁families	-1528
▁par	-1529
▁world	-1530
▁general	-1531
▁wom	-1532
▁promoted	-1533
▁Ak	-1534
▁Kaw	-1535
▁statue	-1536
▁away	-1537
▁ASHI	-1538
▁important	-1539
dori	-1540
cl	-1541
ned	-1542
literally	-1543
▁life	-1544
▁opp	-1545
ption	-1546
ves	-1547
illage	-1548
rew	-1549
stit	-1550
gr	-1551
gin	-1552
▁Miy	-1553
uru	-1554
KAGA	-1555
▁Is	-1556
▁let	-1557
▁ens	-1558
▁Tan	-1559
▁grand	-1560
▁somet	-1561
▁service	-1562
da	-1563
▁led	-1564
▁Sai	-1565
endar	-1566
▁Kiy	-1567
▁poet	-1568
▁original	-1569
▁product	-1570
▁intro	-1571
▁Empress	-1572
▁ASHIKAGA	-1573
▁popular	-1574
▁aff	-1575
▁view	-1576
▁believed	-1577
▁Ex	-1578
of	-1579
hito	-1580
▁Nak	-1581
▁cho	-1582
▁any	-1583
▁Tang	-1584
▁express	-1585
▁Mik	-1586
be	-1587
ze	-1588
▁auth	-1589
ado	-1590
echn	-1591
ushu	-1592
ao	-1593
▁continu	-1594
▁having	-1595
▁Sei	-1596
▁Fuji	-1597
▁still	-1598
▁residence	-1599
iness	-1600
▁national	-1601
ead	-1602
aper	-1603
eyasu	-1604
▁according	-1605
▁rev	-1606
ken	-1607
▁late	-1608
▁exce	-1609
▁Sen	-1610
▁received	-1611
▁Yamato	-1612
▁member	-1613
icle	-1614
pper	-1615
▁Wak	-1616
ization	-1617
▁thought	-1618
▁calendar	-1619
▁Since	-1620
ries	-1621
ages	-1622
▁She	-1623
):	-1624
▁half	-1625
▁organ	-1626
▁run	-1627
▁control	-1628
ek	-1629
▁Yas	-1630
▁described	-1631
oji	-1632
▁Gon	-1633
▁establish	-1634
▁front	-1635
▁1,	-1636
hood	-1637
▁belong	-1638
▁tax	-1639
▁docum	-1640
▁political	-1641
aged	-1642
▁rul	-1643
▁children	-1644
ode	-1645
▁Ieyasu	-1646
ani	-1647
▁five	-1648
▁Street	-1649
▁master	-1650
uncilor	-1651
▁mer	-1652
▁sever	-1653
▁troop	-1654
▁poss	-1655
sh	-1656
▁succeeded	-1657
▁daimyo	-1658
ically	-1659
now	-1660
Min	-1661
▁Cl	-1662
▁far	-1663
▁Mitsu	-1664
▁administr	-1665
anc	-1666
ayama	-1667
pec	-1668
▁Fuku	-1669
▁story	-1670
sumed	-1671
▁relation	-1672
▁Ot	-1673
ink	-1674
▁moved	-1675
▁named	-1676
▁country	-1677
▁building	-1678
uga	-1679
ultural	-1680
ached	-1681
imes	-1682
▁shrines	-1683
▁Inc	-1684
abe	-1685
ety	-1686
lar	-1687
▁pres	-1688
ape	-1689
▁eff	-1690
▁within	-1691
oshu	-1692
chu	-1693
▁tak	-1694
ering	-1695
▁They	-1696
onom	-1697
▁KI	-1698
▁priv	-1699
▁descend	-1700
▁Count	-1701
istry	-1702
▁et	-1703
MURA	-1704
▁KU	-1705
ases	-1706
ives	-1707
▁proper	-1708
▁example	-1709
▁poin	-1710
▁record	-1711
▁incre	-1712
aya	-1713
▁killed	-1714
.,	-1715
▁Ken	-1716
▁result	-1717
▁HA	-1718
ms	-1719
▁names	-1720
gi	-1721
▁acco	-1722
▁Zen	-1723
▁During	-1724
▁Yoritomo	-1725
▁Higashi	-1726
mb	-1727
▁special	-1728
ait	-1729
▁disc	-1730
▁Genji	-1731
uted	-1732
▁branch	-1733
▁governor	-1734
▁material	-1735
▁historical	-1736
▁cor	-1737
▁wood	-1738
ody	-1739
▁Taka	-1740
ices	-1741
▁included	-1742
▁allow	-1743
overnor	-1744
izu	-1745
ured	-1746
▁equ	-1747
▁guard	-1748
▁passed	-1749
▁defe	-1750
▁Fus	-1751
▁you	-1752
▁relig	-1753
▁placed	-1754
▁performed	-1755
▁strong	-1756
hold	-1757
ugyo	-1758
anted	-1759
lain	-1760
▁188	-1761
▁gave	-1762
ission	-1763
itsuryo	-1764
hime	-1765
▁Bus	-1766
▁MATSU	-1767
ides	-1768
▁middle	-1769
aped	-1770
▁areas	-1771
▁very	-1772
▁Ki	-1773
▁kind	-1774
▁Sum	-1775
Ky	-1776
▁Tokugawa	-1777
▁Therefore	-1778
▁kan	-1779
▁techn	-1780
▁Tr	-1781
▁every	-1782
▁Ry	-1783
▁199	-1784
▁Also	-1785
▁mean	-1786
▁Minister	-1787
▁eld	-1788
▁close	-1789
GI	-1790
iec	-1791
▁returned	-1792
val	-1793
inces	-1794
▁charge	-1795
▁author	-1796
▁music	-1797
▁produced	-1798
▁case	-1799
ised	-1800
▁Omi	-1801
▁pat	-1802
vement	-1803
asaki	-1804
▁grad	-1805
▁NAKA	-1806
▁TAIRA	-1807
rak	-1808
▁Ad	-1809
▁red	-1810
▁Kai	-1811
mer	-1812
wara	-1813
▁Yoshit	-1814
irc	-1815
▁seen	-1816
▁sl	-1817
▁Mun	-1818
ps	-1819
▁now	-1820
▁situ	-1821
hod	-1822
osuke	-1823
▁word	-1824
hic	-1825
▁just	-1826
▁issued	-1827
▁my	-1828
▁Toshi	-1829
ness	-1830
incial	-1831
quently	-1832
iving	-1833
▁County	-1834
▁originally	-1835
Senior	-1836
▁sil	-1837
▁created	-1838
▁designated	-1839
▁hon	-1840
rown	-1841
▁lost	-1842
hide	-1843
▁type	-1844
emori	-1845
▁referred	-1846
zuk	-1847
pped	-1848
▁next	-1849
▁det	-1850
▁contain	-1851
▁Princess	-1852
▁Uji	-1853
dition	-1854
useum	-1855
▁Southern	-1856
▁Lower	-1857
▁Mor	-1858
▁bas	-1859
▁read	-1860
▁Dynasty	-1861
oya	-1862
YAMA	-1863
▁refers	-1864
▁traditional	-1865
hira	-1866
▁Han	-1867
▁food	-1868
imi	-1869
utes	-1870
▁fire	-1871
▁modern	-1872
tle	-1873
▁works	-1874
ross	-1875
yori	-1876
▁189	-1877
den	-1878
▁Hist	-1879
rid	-1880
▁ru	-1881
▁famous	-1882
▁developed	-1883
▁take	-1884
ark	-1885
▁entered	-1886
▁current	-1887
▁Ise	-1888
uty	-1889
▁books	-1890
▁may	-1891
▁mainly	-1892
▁194	-1893
asure	-1894
▁business	-1895
fuku	-1896
▁Ke	-1897
▁sword	-1898
▁enshr	-1899
▁plan	-1900
▁today	-1901
udo	-1902
▁Sec	-1903
BE	-1904
onin	-1905
▁etc	-1906
istrict	-1907
▁eas	-1908
▁top	-1909
▁relationship	-1910
▁Northern	-1911
▁field	-1912
ier	-1913
azu	-1914
▁rais	-1915
▁Sect	-1916
ique	-1917
▁cust	-1918
▁Korea	-1919
▁Incident	-1920
▁therefore	-1921
iers	-1922
erv	-1923
▁sometimes	-1924
SO	-1925
koku	-1926
▁Noh	-1927
▁poems	-1928
▁Kum	-1929
▁appro	-1930
▁Th	-1931
▁respect	-1932
nect	-1933
▁role	-1934
ending	-1935
ances	-1936
▁forces	-1937
▁Tom	-1938
▁making	-1939
ying	-1940
▁Shing	-1941
▁territory	-1942
▁liter	-1943
atari	-1944
umul	-1945
▁Har	-1946
▁Kyo	-1947
cess	-1948
hile	-1949
kawa	-1950
▁192	-1951
▁ten	-1952
utra	-1953
▁headed	-1954
▁reason	-1955
hib	-1956
▁reb	-1957
▁last	-1958
▁Taira	-1959
▁shogunate	-1960
▁Matsu	-1961
▁Div	-1962
▁Hall	-1963
▁conduct	-1964
▁noble	-1965
▁Nishi	-1966
▁paper	-1967
DO	-1968
▁method	-1969
non	-1970
▁construction	-1971
himi	-1972
hiro	-1973
▁lear	-1974
atter	-1975
▁major	-1976
okan	-1977
▁begin	-1978
▁circ	-1979
icated	-1980
▁sim	-1981
ago	-1982
▁Om	-1983
ize	-1984
eries	-1985
▁once	-1986
ayoshi	-1987
▁city	-1988
abuki	-1989
▁hold	-1990
Ni	-1991
hest	-1992
▁east	-1993
▁Off	-1994
raphy	-1995
sen	-1996
ira	-1997
▁YAMA	-1998
▁visit	-1999
▁nobles	-2000
▁connect	-2001
▁val	-2002
▁port	-2003
▁north	-2004
▁ODA	-2005
ene	-2006
ock	-2007
hing	-2008
▁site	-2009
▁Later	-2010
ZU	-2011
tr	-2012
usho	-2013
▁Dain	-2014
▁Seng	-2015
▁characters	-2016
▁Guard	-2017
Kyoto	-2018
ched	-2019
▁stone	-2020
▁ele	-2021
▁continued	-2022
gest	-2023
ban	-2024
▁troops	-2025
▁near	-2026
▁mention	-2027
ile	-2028
▁Ichi	-2029
aishi	-2030
▁several	-2031
▁Iw	-2032
istered	-2033
aiz	-2034
▁198	-2035
umo	-2036
ilar	-2037
▁discip	-2038
uta	-2039
Gen	-2040
rakawa	-2041
▁custom	-2042
▁fil	-2043
less	-2044
iary	-2045
▁Tam	-2046
▁thr	-2047
▁caus	-2048
▁sk	-2049
lear	-2050
▁Kanto	-2051
0.	-2052
▁assumed	-2053
▁retainer	-2054
▁introduced	-2055
chie	-2056
▁refer	-2057
▁Mot	-2058
▁published	-2059
endai	-2060
roku	-2061
▁represent	-2062
eda	-2063
▁191	-2064
▁enshrined	-2065
▁spir	-2066
▁Ministry	-2067
▁event	-2068
▁Family	-2069
▁Michi	-2070
▁played	-2071
lected	-2072
ving	-2073
ayed	-2074
ots	-2075
▁Bec	-2076
▁whose	-2077
ists	-2078
▁south	-2079
▁polic	-2080
▁stop	-2081
ues	-2082
lection	-2083
▁appeared	-2084
▁acce	-2085
▁Division	-2086
▁Fifth	-2087
▁Comp	-2088
▁status	-2089
▁dem	-2090
▁Hid	-2091
▁abol	-2092
▁Bun	-2093
▁central	-2094
▁Museum	-2095
uch	-2096
ination	-2097
uko	-2098
▁av	-2099
▁achie	-2100
▁Cultural	-2101
oba	-2102
oyama	-2103
▁From	-2104
▁regarded	-2105
sei	-2106
isho	-2107
▁Ass	-2108
▁ord	-2109
▁ren	-2110
▁throne	-2111
▁soldiers	-2112
uss	-2113
cript	-2114
mitted	-2115
imp	-2116
▁piec	-2117
▁fun	-2118
olved	-2119
▁force	-2120
▁ordered	-2121
for	-2122
po	-2123
artment	-2124
present	-2125
▁officials	-2126
▁Art	-2127
▁beginning	-2128
Sho	-2129
ryu	-2130
▁Tsun	-2131
▁Fu	-2132
▁support	-2133
side	-2134
▁wide	-2135
▁occur	-2136
▁Keihan	-2137
ount	-2138
duc	-2139
▁rit	-2140
▁short	-2141
▁190	-2142
▁accomp	-2143
▁sug	-2144
▁room	-2145
alled	-2146
▁west	-2147
▁cases	-2148
▁cultural	-2149
istant	-2150
icho	-2151
▁Some	-2152
▁although	-2153
▁Four	-2154
agawa	-2155
▁bar	-2156
▁becom	-2157
▁ke	-2158
▁Kiyom	-2159
▁Im	-2160
imited	-2161
isional	-2162
▁195	-2163
▁vassal	-2164
▁transferred	-2165
▁z	-2166
▁Iz	-2167
HA	-2168
icles	-2169
▁allowed	-2170
ex	-2171
butsu	-2172
▁body	-2173
▁Kyushu	-2174
▁princip	-2175
zane	-2176
▁retainers	-2177
▁ill	-2178
▁Fuk	-2179
▁New	-2180
▁Sengoku	-2181
▁instead	-2182
▁Kob	-2183
▁process	-2184
▁Fujiwara	-2185
▁Because	-2186
▁month	-2187
▁foreign	-2188
▁similar	-2189
▁center	-2190
▁Kun	-2191
▁gate	-2192
▁Ku	-2193
port	-2194
▁founded	-2195
▁ground	-2196
pecially	-2197
▁retired	-2198
1.	-2199
lectric	-2200
▁Kit	-2201
▁Sa	-2202
▁One	-2203
atsuma	-2204
aizuru	-2205
▁Kom	-2206
tsune	-2207
▁brought	-2208
▁private	-2209
bun	-2210
ith	-2211
ote	-2212
▁197	-2213
▁Hiro	-2214
▁bur	-2215
▁Guards	-2216
ugi	-2217
▁joined	-2218
▁196	-2219
▁eng	-2220
aijin	-2221
▁Western	-2222
▁warri	-2223
ling	-2224
▁schools	-2225
▁193	-2226
▁open	-2227
▁taken	-2228
▁Ik	-2229
▁env	-2230
osa	-2231
enin	-2232
5.	-2233
fic	-2234
8.	-2235
▁places	-2236
▁gu	-2237
atform	-2238
ogatari	-2239
▁Or	-2240
Shin	-2241
▁meters	-2242
▁incident	-2243
▁home	-2244
▁protect	-2245
oss	-2246
▁Hong	-2247
▁Mus	-2248
▁fourth	-2249
rote	-2250
▁Dep	-2251
▁Kaz	-2252
▁resp	-2253
ecess	-2254
oino	-2255
ociation	-2256
YO	-2257
▁20	-2258
▁road	-2259
▁study	-2260
by	-2261
ences	-2262
▁sign	-2263
▁Bo	-2264
▁palace	-2265
▁fight	-2266
▁mentioned	-2267
▁countries	-2268
ties	-2269
▁Col	-2270
▁Main	-2271
ffic	-2272
onsho	-2273
ZA	-2274
▁culture	-2275
▁enter	-2276
▁wrote	-2277
press	-2278
▁emp	-2279
▁dest	-2280
▁situation	-2281
2.	-2282
▁sal	-2283
▁opened	-2284
▁particular	-2285
▁detail	-2286
style	-2287
▁flow	-2288
▁poetry	-2289
▁influence	-2290
yed	-2291
▁NI	-2292
amber	-2293
amed	-2294
orai	-2295
▁related	-2296
ality	-2297
ris	-2298
▁typ	-2299
ained	-2300
yak	-2301
YOTO	-2302
▁bow	-2303
▁separ	-2304
▁fought	-2305
▁Eng	-2306
▁commander	-2307
umulus	-2308
▁Further	-2309
▁Na	-2310
reen	-2311
▁Myo	-2312
▁Shu	-2313
▁image	-2314
▁completed	-2315
bon	-2316
▁words	-2317
▁esc	-2318
▁West	-2319
san	-2320
▁meaning	-2321
▁Echi	-2322
▁men	-2323
9.	-2324
▁Az	-2325
▁educ	-2326
);	-2327
▁religious	-2328
imate	-2329
▁defeated	-2330
▁Third	-2331
4.	-2332
not	-2333
▁remains	-2334
YOTOMI	-2335
ron	-2336
▁spread	-2337
▁decided	-2338
▁confl	-2339
ae	-2340
orts	-2341
▁Nichi	-2342
▁Comm	-2343
▁collection	-2344
▁generation	-2345
venth	-2346
▁eight	-2347
▁company	-2348
kei	-2349
haru	-2350
used	-2351
▁ful	-2352
▁Festival	-2353
▁gold	-2354
jima	-2355
▁Hak	-2356
atic	-2357
▁TOYOTOMI	-2358
more	-2359
▁squ	-2360
▁turn	-2361
▁These	-2362
▁prof	-2363
Genji	-2364
▁Kami	-2365
NI	-2366
▁Og	-2367
▁deity	-2368
arden	-2369
▁Kas	-2370
▁Road	-2371
▁Roku	-2372
▁founder	-2373
▁wear	-2374
▁History	-2375
▁village	-2376
sequently	-2377
▁affairs	-2378
▁Jin	-2379
▁Sek	-2380
▁Ishi	-2381
▁Second	-2382
▁documents	-2383
orp	-2384
▁Satsuma	-2385
UCHI	-2386
▁Wor	-2387
▁kok	-2388
▁("	-2389
enced	-2390
6.	-2391
▁prob	-2392
line	-2393
▁tried	-2394
oryo	-2395
oshis	-2396
▁Kog	-2397
▁aut	-2398
▁Kannon	-2399
▁Q	-2400
eric	-2401
dom	-2402
▁vassals	-2403
7.	-2404
refectural	-2405
3.	-2406
sc	-2407
▁Me	-2408
▁ide	-2409
▁materials	-2410
lled	-2411
▁tsu	-2412
▁pray	-2413
ixed	-2414
▁crit	-2415
▁Te	-2416
▁what	-2417
td	-2418
ORI	-2419
▁Ret	-2420
eft	-2421
▁past	-2422
▁festival	-2423
▁Rec	-2424
▁cut	-2425
ification	-2426
▁ce	-2427
▁unc	-2428
kaku	-2429
▁married	-2430
pl	-2431
ta	-2432
▁Kur	-2433
▁get	-2434
wards	-2435
▁Jo	-2436
inct	-2437
▁Hos	-2438
▁stage	-2439
▁follows	-2440
▁highest	-2441
▁purp	-2442
umes	-2443
▁constructed	-2444
most	-2445
uses	-2446
▁women	-2447
fusa	-2448
▁Nin	-2449
▁older	-2450
imately	-2451
▁lower	-2452
▁Fushimi	-2453
prov	-2454
▁fish	-2455
emy	-2456
ateg	-2457
yuki	-2458
▁particip	-2459
▁Sang	-2460
ida	-2461
▁struct	-2462
▁does	-2463
▁request	-2464
ridge	-2465
▁lords	-2466
▁got	-2467
asures	-2468
olog	-2469
▁Kuro	-2470
▁100	-2471
▁Great	-2472
▁inher	-2473
▁painting	-2474
▁see	-2475
▁visited	-2476
▁tot	-2477
▁exc	-2478
0,000	-2479
▁occurred	-2480
▁carried	-2481
▁manag	-2482
▁Kon	-2483
uge	-2484
▁Ltd	-2485
▁text	-2486
also	-2487
auce	-2488
▁Left	-2489
▁Office	-2490
oda	-2491
aves	-2492
▁treat	-2493
▁operation	-2494
hisa	-2495
▁fall	-2496
asion	-2497
▁ban	-2498
eneral	-2499
head	-2500
▁HOSO	-2501
▁raised	-2502
▁conducted	-2503
enth	-2504
▁Toy	-2505
▁formed	-2506
▁Mo	-2507
▁provinces	-2508
ashin	-2509
ureau	-2510
▁nation	-2511
chief	-2512
ator	-2513
▁big	-2514
▁Mori	-2515
▁Dainagon	-2516
ready	-2517
▁rese	-2518
▁Route	-2519
▁inform	-2520
▁western	-2521
ui	-2522
oney	-2523
▁monk	-2524
▁worked	-2525
▁Suk	-2526
zei	-2527
medi	-2528
▁point	-2529
tings	-2530
honsho	-2531
avor	-2532
▁Kans	-2533
▁establishment	-2534
▁Yuk	-2535
▁deep	-2536
▁latter	-2537
▁few	-2538
cholar	-2539
honshoki	-2540
▁tal	-2541
▁shin	-2542
▁Naga	-2543
▁Proper	-2544
▁pun	-2545
▁certain	-2546
kaido	-2547
ushima	-2548
▁effect	-2549
▁Korean	-2550
▁prince	-2551
▁sea	-2552
▁Shige	-2553
▁already	-2554
")	-2555
rank	-2556
▁HOSOKAWA	-2557
kata	-2558
ession	-2559
▁Set	-2560
▁clear	-2561
▁assigned	-2562
ding	-2563
▁commit	-2564
ukai	-2565
▁SU	-2566
▁look	-2567
▁Ashi	-2568
▁draw	-2569
▁caused	-2570
▁priests	-2571
▁know	-2572
▁poem	-2573
▁cook	-2574
ficult	-2575
▁Then	-2576
▁upon	-2577
▁Cent	-2578
jiro	-2579
▁Rest	-2580
▁Cap	-2581
acy	-2582
▁Mur	-2583
▁Right	-2584
dera	-2585
▁opin	-2586
▁activ	-2587
osatsu	-2588
▁granted	-2589
oma	-2590
▁Nan	-2591
▁mik	-2592
▁difficult	-2593
▁118	-2594
aburo	-2595
▁rule	-2596
▁simp	-2597
▁amount	-2598
▁waka	-2599
ociety	-2600
▁Sutra	-2601
rei	-2602
▁secret	-2603
▁surround	-2604
zai	-2605
tained	-2606
▁generations	-2607
hei	-2608
▁brew	-2609
▁First	-2610
awara	-2611
▁Its	-2612
▁gods	-2613
▁keep	-2614
ocated	-2615
▁party	-2616
emale	-2617
avy	-2618
yoku	-2619
▁ann	-2620
▁low	-2621
arters	-2622
epend	-2623
ger	-2624
▁Fourth	-2625
▁Her	-2626
▁Ritsuryo	-2627
GO	-2628
▁fre	-2629
▁start	-2630
▁street	-2631
▁policy	-2632
▁Tale	-2633
▁While	-2634
▁complete	-2635
▁Jun	-2636
ichin	-2637
▁taking	-2638
ays	-2639
▁Kar	-2640
itary	-2641
▁include	-2642
▁HI	-2643
▁Jodo	-2644
▁letter	-2645
ming	-2646
▁hum	-2647
])	-2648
na	-2649
iga	-2650
iki	-2651
▁lit	-2652
▁HOJO	-2653
RO	-2654
▁authority	-2655
▁arri	-2656
▁teach	-2657
▁mis	-2658
▁existed	-2659
hiko	-2660
arily	-2661
▁though	-2662
br	-2663
▁Pri	-2664
inary	-2665
usan	-2666
▁fifth	-2667
angu	-2668
inet	-2669
ashiro	-2670
▁Yoshitsune	-2671
▁JR	-2672
icip	-2673
▁nat	-2674
▁money	-2675
iron	-2676
▁SAI	-2677
aisha	-2678
▁Yori	-2679
▁envoy	-2680
▁shape	-2681
▁scholar	-2682
▁Reg	-2683
later	-2684
▁saying	-2685
thum	-2686
uno	-2687
▁Hyo	-2688
▁TAKA	-2689
▁records	-2690
amachi	-2691
▁generally	-2692
▁Nar	-2693
▁High	-2694
▁night	-2695
thumous	-2696
▁abolished	-2697
ogn	-2698
▁base	-2699
▁cover	-2700
▁divided	-2701
▁production	-2702
▁Kats	-2703
▁much	-2704
cour	-2705
▁white	-2706
▁Governor	-2707
▁gradually	-2708
▁Katsu	-2709
ugoino	-2710
▁attacked	-2711
▁pict	-2712
▁indic	-2713
▁kept	-2714
▁leading	-2715
apid	-2716
▁Electric	-2717
▁del	-2718
▁woman	-2719
▁Ny	-2720
paku	-2721
▁thus	-2722
uck	-2723
▁Mits	-2724
▁song	-2725
ashu	-2726
▁added	-2727
▁cloth	-2728
▁reign	-2729
▁prev	-2730
lement	-2731
son	-2732
▁lines	-2733
year	-2734
▁Man	-2735
▁hard	-2736
▁regions	-2737
▁operated	-2738
roll	-2739
ximately	-2740
▁performance	-2741
▁further	-2742
▁compiled	-2743
ott	-2744
ryo	-2745
▁YO	-2746
ishin	-2747
ocial	-2748
▁province	-2749
orse	-2750
▁callig	-2751
omin	-2752
▁fig	-2753
▁Year	-2754
men	-2755
ishu	-2756
rance	-2757
▁Moto	-2758
▁serving	-2759
▁subject	-2760
▁administration	-2761
gaku	-2762
ither	-2763
Shi	-2764
▁studied	-2765
▁sum	-2766
usand	-2767
▁practice	-2768
▁ste	-2769
▁come	-2770
▁description	-2771
▁Goshi	-2772
▁wooden	-2773
▁spirit	-2774
▁volume	-2775
▁ec	-2776
▁powerful	-2777
sp	-2778
▁officer	-2779
▁158	-2780
▁change	-2781
▁pattern	-2782
▁directly	-2783
▁dev	-2784
▁II	-2785
▁burn	-2786
▁railway	-2787
▁states	-2788
rop	-2789
▁Tho	-2790
▁Shogunate	-2791
iet	-2792
▁hel	-2793
like	-2794
machi	-2795
▁seven	-2796
▁Pe	-2797
toku	-2798
pted	-2799
tion	-2800
orary	-2801
mei	-2802
▁Crown	-2803
eg	-2804
▁Furthermore	-2805
▁clans	-2806
▁district	-2807
▁Monogatari	-2808
ulation	-2809
▁season	-2810
isha	-2811
unagon	-2812
▁dance	-2813
▁Restoration	-2814
▁meet	-2815
▁recogn	-2816
▁literature	-2817
iku	-2818
MO	-2819
▁legend	-2820
iwa	-2821
imono	-2822
▁prop	-2823
-1	-2824
icts	-2825
ellion	-2826
▁inside	-2827
▁property	-2828
▁hot	-2829
▁sing	-2830
▁independ	-2831
iction	-2832
ls	-2833
eki	-2834
aries	-2835
▁prepar	-2836
ocal	-2837
▁lun	-2838
shin	-2839
▁Tog	-2840
▁living	-2841
af	-2842
iddle	-2843
▁Takeda	-2844
elling	-2845
▁color	-2846
▁MATSUDA	-2847
▁says	-2848
stitution	-2849
▁provincial	-2850
▁Otsu	-2851
▁TAKE	-2852
▁With	-2853
io	-2854
▁followed	-2855
ady	-2856
▁seems	-2857
▁total	-2858
rest	-2859
katsu	-2860
▁King	-2861
▁platform	-2862
ream	-2863
▁higher	-2864
▁Nobu	-2865
▁posts	-2866
ology	-2867
▁involved	-2868
ared	-2869
▁Act	-2870
▁jud	-2871
ected	-2872
▁Kawachi	-2873
▁dispat	-2874
yasu	-2875
▁selected	-2876
▁especially	-2877
)'	-2878
▁3,	-2879
aig	-2880
uto	-2881
logy	-2882
▁Part	-2883
▁Po	-2884
unced	-2885
▁eldest	-2886
▁Hit	-2887
acred	-2888
ument	-2889
achim	-2890
selves	-2891
▁Land	-2892
▁vill	-2893
▁route	-2894
resp	-2895
stand	-2896
fuci	-2897
▁limited	-2898
▁heir	-2899
▁Res	-2900
ole	-2901
▁2,	-2902
ground	-2903
▁descendants	-2904
▁foot	-2905
▁track	-2906
▁supported	-2907
▁development	-2908
▁Pl	-2909
overnment	-2910
▁Many	-2911
▁Company	-2912
▁themselves	-2913
oke	-2914
akes	-2915
bashi	-2916
▁sister	-2917
▁trave	-2918
▁almost	-2919
hama	-2920
MOTO	-2921
ilities	-2922
▁tri	-2923
respond	-2924
▁cur	-2925
ength	-2926
▁Yu	-2927
▁And	-2928
▁State	-2929
▁contr	-2930
▁Bosatsu	-2931
))	-2932
▁Yo	-2933
▁spring	-2934
▁necess	-2935
urrently	-2936
▁fell	-2937
mportant	-2938
▁condition	-2939
▁asked	-2940
▁female	-2941
road	-2942
▁below	-2943
▁itself	-2944
▁Ind	-2945
abinet	-2946
▁usually	-2947
okoro	-2948
▁Hongan	-2949
▁destro	-2950
loy	-2951
▁distingu	-2952
▁don	-2953
▁belonged	-2954
wari	-2955
ributed	-2956
In	-2957
▁bea	-2958
▁remained	-2959
▁Nijo	-2960
har	-2961
▁Maizuru	-2962
▁More	-2963
▁reform	-2964
oistered	-2965
▁san	-2966
",	-2967
KURA	-2968
lebr	-2969
▁too	-2970
hashi	-2971
ughout	-2972
▁level	-2973
▁towns	-2974
emorial	-2975
▁Jugoino	-2976
▁Chu	-2977
▁oldest	-2978
aren	-2979
king	-2980
▁Nik	-2981
▁wall	-2982
itimate	-2983
▁statues	-2984
▁movement	-2985
wor	-2986
..	-2987
nal	-2988
▁light	-2989
reme	-2990
▁Aff	-2991
▁flo	-2992
elf	-2993
▁Hik	-2994
▁suggest	-2995
▁Mino	-2996
▁volumes	-2997
▁Sp	-2998
chin	-2999
▁sauce	-3000
ably	-3001
▁arr	-3002
▁pref	-3003
▁store	-3004
▁Sub	-3005
▁brothers	-3006
▁positions	-3007
▁article	-3008
▁Ji	-3009
▁World	-3010
▁provided	-3011
▁buildings	-3012
▁MATSUDAIRA	-3013
▁Goshirakawa	-3014
▁But	-3015
▁Tada	-3016
mura	-3017
▁except	-3018
rin	-3019
▁eat	-3020
▁Sanjo	-3021
▁forced	-3022
undred	-3023
▁handed	-3024
▁Express	-3025
▁ji	-3026
▁Retired	-3027
▁Rep	-3028
▁har	-3029
▁soy	-3030
▁doct	-3031
ivil	-3032
▁Do	-3033
▁cars	-3034
▁Tendai	-3035
▁mag	-3036
eration	-3037
▁States	-3038
out	-3039
ambo	-3040
▁persons	-3041
▁roof	-3042
▁students	-3043
kin	-3044
let	-3045
ential	-3046
▁Chunagon	-3047
▁succession	-3048
rim	-3049
▁social	-3050
▁gl	-3051
▁Hir	-3052
▁Takam	-3053
▁exec	-3054
▁Kabuki	-3055
▁resigned	-3056
ressed	-3057
▁outside	-3058
aur	-3059
▁cross	-3060
▁garden	-3061
▁Shon	-3062
▁advis	-3063
▁merch	-3064
▁transl	-3065
▁appears	-3066
▁originated	-3067
fact	-3068
▁cast	-3069
change	-3070
▁sei	-3071
▁Town	-3072
▁Army	-3073
hip	-3074
▁Tre	-3075
ament	-3076
▁finally	-3077
▁mor	-3078
▁unit	-3079
▁never	-3080
ieval	-3081
▁Ryo	-3082
▁whole	-3083
cest	-3084
▁throughout	-3085
▁lot	-3086
▁coun	-3087
leg	-3088
alth	-3089
▁help	-3090
▁ICHI	-3091
▁award	-3092
▁Household	-3093
▁happ	-3094
anging	-3095
▁Department	-3096
▁series	-3097
▁full	-3098
▁vers	-3099
▁immedi	-3100
▁paintings	-3101
after	-3102
▁neg	-3103
▁Saga	-3104
▁Shig	-3105
▁Island	-3106
wan	-3107
istic	-3108
osition	-3109
▁Chr	-3110
▁length	-3111
▁Ag	-3112
▁Chik	-3113
icipal	-3114
▁silver	-3115
▁appl	-3116
ishing	-3117
▁Yorim	-3118
▁Village	-3119
▁By	-3120
▁commonly	-3121
▁conflict	-3122
▁capt	-3123
▁posthumous	-3124
▁Asu	-3125
agami	-3126
▁worship	-3127
▁deter	-3128
▁Kat	-3129
shaped	-3130
▁becoming	-3131
fucian	-3132
cher	-3133
▁gun	-3134
▁councilor	-3135
▁comb	-3136
ological	-3137
gyo	-3138
atives	-3139
▁object	-3140
enty	-3141
▁sus	-3142
fun	-3143
amaro	-3144
▁Kiyomori	-3145
▁Ter	-3146
▁econom	-3147
',	-3148
▁pieces	-3149
▁Affairs	-3150
oi	-3151
▁dynasty	-3152
▁repl	-3153
▁Mutsu	-3154
▁serve	-3155
▁ge	-3156
▁join	-3157
▁super	-3158
▁tree	-3159
eshi	-3160
ways	-3161
▁services	-3162
▁priesthood	-3163
father	-3164
mo	-3165
▁el	-3166
▁win	-3167
▁critic	-3168
▁suke	-3169
▁kuni	-3170
▁less	-3171
▁horse	-3172
▁Hojo	-3173
▁ancest	-3174
▁lineage	-3175
umn	-3176
daijin	-3177
ishment	-3178
▁organization	-3179
▁UE	-3180
▁159	-3181
▁minister	-3182
▁Law	-3183
▁wal	-3184
dered	-3185
▁Miya	-3186
▁details	-3187
els	-3188
▁increased	-3189
▁intern	-3190
tetsu	-3191
mary	-3192
▁TSU	-3193
▁successor	-3194
▁events	-3195
▁document	-3196
▁board	-3197
ction	-3198
▁camp	-3199
▁farm	-3200
▁owned	-3201
▁standing	-3202
unin	-3203
▁best	-3204
▁coins	-3205
▁previous	-3206
Kan	-3207
▁cr	-3208
yaku	-3209
omen	-3210
akushi	-3211
▁Inner	-3212
▁accompan	-3213
--	-3214
otomi	-3215
chiyama	-3216
▁Kansai	-3217
ency	-3218
amboo	-3219
▁commun	-3220
▁stations	-3221
▁celebr	-3222
▁proble	-3223
▁sixth	-3224
▁attemp	-3225
ocr	-3226
ighth	-3227
▁Even	-3228
Minister	-3229
▁Educ	-3230
▁enemy	-3231
▁Cont	-3232
▁Kita	-3233
▁Shiki	-3234
▁Musashi	-3235
▁writing	-3236
▁accepted	-3237
▁possible	-3238
▁might	-3239
▁If	-3240
▁Ka	-3241
▁15,	-3242
▁Nichiren	-3243
house	-3244
oleum	-3245
▁thir	-3246
eno	-3247
ffer	-3248
ient	-3249
▁indust	-3250
KO	-3251
inoge	-3252
▁nood	-3253
▁whether	-3254
▁activities	-3255
▁sense	-3256
▁structure	-3257
▁grave	-3258
▁Prefectural	-3259
▁Taisho	-3260
▁widely	-3261
▁northern	-3262
orated	-3263
vements	-3264
▁gather	-3265
inaga	-3266
▁film	-3267
▁parts	-3268
▁peace	-3269
▁recon	-3270
▁Shingon	-3271
▁conferred	-3272
▁Owari	-3273
▁Moreover	-3274
▁East	-3275
▁relative	-3276
▁ant	-3277
▁Takauji	-3278
▁inherited	-3279
▁composed	-3280
▁157	-3281
▁remo	-3282
▁Bureau	-3283
Imperial	-3284
okai	-3285
▁Kame	-3286
▁hair	-3287
▁Tango	-3288
irr	-3289
Chron	-3290
riend	-3291
▁training	-3292
▁che	-3293
▁pot	-3294
▁Among	-3295
aded	-3296
ging	-3297
▁185	-3298
anced	-3299
▁Stud	-3300
▁Nyorai	-3301
▁eastern	-3302
ables	-3303
▁director	-3304
▁prefecture	-3305
▁arts	-3306
called	-3307
amberlain	-3308
▁required	-3309
jingu	-3310
▁groups	-3311
▁Tanba	-3312
▁hered	-3313
7:	-3314
▁u	-3315
▁SAKA	-3316
ography	-3317
pts	-3318
▁fields	-3319
▁ranks	-3320
▁Minamoto	-3321
band	-3322
urope	-3323
▁society	-3324
▁Association	-3325
ango	-3326
isen	-3327
okyo	-3328
zuka	-3329
▁cop	-3330
▁theories	-3331
ily	-3332
▁restaur	-3333
▁pow	-3334
▁Captain	-3335
▁research	-3336
▁ver	-3337
ausoleum	-3338
▁disciple	-3339
ivid	-3340
▁nar	-3341
▁Kamo	-3342
ck	-3343
▁active	-3344
kuni	-3345
▁date	-3346
▁swords	-3347
▁Kamig	-3348
ush	-3349
cept	-3350
▁5,	-3351
tic	-3352
chitect	-3353
▁highly	-3354
▁Shins	-3355
thology	-3356
▁correspond	-3357
ison	-3358
▁Aki	-3359
stitute	-3360
amasa	-3361
▁Mat	-3362
▁Rik	-3363
obe	-3364
goku	-3365
aught	-3366
▁spe	-3367
▁Jushi	-3368
▁Europe	-3369
▁purpose	-3370
councilor	-3371
wo	-3372
HARA	-3373
oriz	-3374
asho	-3375
▁Gok	-3376
▁chap	-3377
▁Uk	-3378
▁going	-3379
aced	-3380
onoe	-3381
▁arrow	-3382
quarters	-3383
▁deities	-3384
isc	-3385
asons	-3386
▁lunar	-3387
uts	-3388
kaga	-3389
uten	-3390
▁course	-3391
▁mikoto	-3392
▁education	-3393
▁Yasu	-3394
▁Nihon	-3395
hig	-3396
ran	-3397
▁Mi	-3398
▁Amida	-3399
ido	-3400
▁Es	-3401
aven	-3402
▁deri	-3403
▁init	-3404
▁Michin	-3405
▁treated	-3406
odern	-3407
▁prec	-3408
▁terms	-3409
▁approximately	-3410
whe	-3411
▁yen	-3412
▁seventh	-3413
▁30	-3414
▁domains	-3415
▁WA	-3416
▁ident	-3417
▁Shoshi	-3418
▁describ	-3419
irt	-3420
ushin	-3421
▁Nori	-3422
ager	-3423
▁Gos	-3424
▁nin	-3425
akira	-3426
okawa	-3427
▁rather	-3428
▁little	-3429
▁square	-3430
ude	-3431
▁must	-3432
mission	-3433
▁estate	-3434
▁ve	-3435
▁dri	-3436
▁cost	-3437
erning	-3438
▁recorded	-3439
▁things	-3440
▁Sangi	-3441
ensho	-3442
▁YA	-3443
▁Choshu	-3444
▁Property	-3445
▁My	-3446
▁fund	-3447
▁respons	-3448
erved	-3449
ience	-3450
▁information	-3451
izen	-3452
▁trees	-3453
▁learned	-3454
ars	-3455
ones	-3456
▁Asuka	-3457
earch	-3458
zaki	-3459
▁Tsuk	-3460
▁enthron	-3461
▁invest	-3462
ibr	-3463
aternal	-3464
▁NAKAMURA	-3465
iding	-3466
▁Godai	-3467
▁actually	-3468
▁properties	-3469
urb	-3470
hist	-3471
▁Bank	-3472
▁Education	-3473
▁instr	-3474
▁Christ	-3475
▁houses	-3476
▁running	-3477
▁reached	-3478
▁Ancient	-3479
▁Ashikaga	-3480
▁ritsuryo	-3481
otion	-3482
▁elder	-3483
▁occup	-3484
▁products	-3485
SE	-3486
▁aim	-3487
▁able	-3488
▁care	-3489
▁prevent	-3490
▁ur	-3491
▁male	-3492
ishiki	-3493
▁actual	-3494
▁toward	-3495
ima	-3496
▁swe	-3497
aguchi	-3498
▁mound	-3499
▁ded	-3500
iting	-3501
▁MORI	-3502
omon	-3503
reng	-3504
▁Oda	-3505
akami	-3506
▁legitimate	-3507
▁ut	-3508
▁tomb	-3509
▁Shiga	-3510
▁opinion	-3511
▁Fukuchiyama	-3512
ufact	-3513
eing	-3514
▁fail	-3515
▁Todai	-3516
▁trade	-3517
etition	-3518
▁presented	-3519
▁pay	-3520
▁code	-3521
▁silk	-3522
▁mark	-3523
▁ranked	-3524
▁technique	-3525
▁dishes	-3526
▁SO	-3527
ously	-3528
▁types	-3529
▁idea	-3530
engumi	-3531
▁administrative	-3532
NOE	-3533
▁newly	-3534
▁scene	-3535
▁awarded	-3536
▁warriors	-3537
▁lay	-3538
▁give	-3539
▁coll	-3540
▁tick	-3541
▁Showa	-3542
ansen	-3543
iation	-3544
isting	-3545
▁Upper	-3546
ailable	-3547
▁Important	-3548
reg	-3549
▁human	-3550
▁coming	-3551
▁minutes	-3552
▁gained	-3553
sha	-3554
▁21,	-3555
ulture	-3556
raf	-3557
asing	-3558
osing	-3559
▁dead	-3560
▁ruling	-3561
ibility	-3562
▁Yamashiro	-3563
▁ing	-3564
▁natural	-3565
▁Other	-3566
▁standard	-3567
endo	-3568
orin	-3569
cience	-3570
▁favor	-3571
▁principal	-3572
▁Dan	-3573
▁here	-3574
▁friend	-3575
▁hereditary	-3576
▁All	-3577
tai	-3578
▁Ob	-3579
▁doub	-3580
▁sound	-3581
▁streng	-3582
▁transport	-3583
8)	-3584
aff	-3585
▁tast	-3586
▁Masam	-3587
▁SE	-3588
▁kn	-3589
▁dam	-3590
▁rapid	-3591
Nihonshoki	-3592
▁bi	-3593
▁manus	-3594
▁monks	-3595
)"	-3596
UE	-3597
whi	-3598
▁('	-3599
erc	-3600
▁den	-3601
▁destroyed	-3602
7)	-3603
oru	-3604
▁hus	-3605
agoda	-3606
▁ended	-3607
▁medieval	-3608
▁Son	-3609
▁YOSHI	-3610
▁Mikoto	-3611
hoku	-3612
othes	-3613
▁Um	-3614
usion	-3615
▁carry	-3616
2)	-3617
icide	-3618
8:	-3619
▁Kik	-3620
nin	-3621
▁actor	-3622
▁occasion	-3623
bari	-3624
▁Council	-3625
▁descendant	-3626
anori	-3627
▁specific	-3628
▁X	-3629
▁Ta	-3630
azai	-3631
echi	-3632
▁won	-3633
▁Take	-3634
atsuri	-3635
▁surren	-3636
uals	-3637
usai	-3638
iques	-3639
▁Mochi	-3640
ivalent	-3641
uka	-3642
▁enjo	-3643
▁Shink	-3644
▁suffer	-3645
▁Shinshu	-3646
▁interest	-3647
▁associ	-3648
▁includes	-3649
▁Mak	-3650
▁Shugo	-3651
▁hak	-3652
▁clai	-3653
▁Courts	-3654
▁assass	-3655
▁noodles	-3656
▁officers	-3657
▁shoen	-3658
OKA	-3659
miss	-3660
▁Tokai	-3661
▁stories	-3662
▁why	-3663
oting	-3664
▁Jusan	-3665
3)	-3666
haku	-3667
▁sun	-3668
▁Daigo	-3669
▁instit	-3670
▁appoint	-3671
▁Gun	-3672
▁Echizen	-3673
▁periods	-3674
com	-3675
ication	-3676
▁Addition	-3677
▁available	-3678
▁ingred	-3679
▁territories	-3680
▁7,	-3681
▁instruct	-3682
law	-3683
5)	-3684
uso	-3685
▁161	-3686
uruga	-3687
oned	-3688
▁batt	-3689
▁di	-3690
ancial	-3691
Emperor	-3692
▁manufact	-3693
▁Confucian	-3694
orial	-3695
▁bre	-3696
▁broke	-3697
▁bamboo	-3698
▁Kanpaku	-3699
▁thousand	-3700
sai	-3701
jutsu	-3702
▁sons	-3703
▁black	-3704
▁Jugoinoge	-3705
▁distinguished	-3706
▁Ren	-3707
▁Grand	-3708
▁husband	-3709
▁childhood	-3710
▁live	-3711
idence	-3712
fe	-3713
ogen	-3714
▁(19	-3715
ulated	-3716
omoyama	-3717
iced	-3718
▁ISHI	-3719
▁recomm	-3720
▁respectively	-3721
▁told	-3722
▁individ	-3723
hibition	-3724
▁De	-3725
▁sol	-3726
emitsu	-3727
▁Nobut	-3728
▁Center	-3729
4)	-3730
anges	-3731
eremon	-3732
▁flour	-3733
▁unique	-3734
▁Kintetsu	-3735
▁General	-3736
▁recognized	-3737
▁Additionally	-3738
▁interp	-3739
▁ran	-3740
▁grow	-3741
▁pros	-3742
▁immediately	-3743
6)	-3744
ublic	-3745
▁Mitsuhide	-3746
▁Government	-3747
▁completely	-3748
achiman	-3749
▁always	-3750
▁recent	-3751
Chi	-3752
▁20,	-3753
icted	-3754
pping	-3755
▁face	-3756
▁soon	-3757
▁stip	-3758
▁escaped	-3759
▁(18	-3760
▁Rei	-3761
▁anno	-3762
▁categ	-3763
▁kar	-3764
▁Three	-3765
▁Tsune	-3766
▁Settsu	-3767
▁Godaigo	-3768
9)	-3769
gency	-3770
▁mess	-3771
war	-3772
▁memorial	-3773
▁direction	-3774
▁via	-3775
▁Hachi	-3776
▁upper	-3777
▁attend	-3778
▁single	-3779
1)	-3780
No	-3781
▁twenty	-3782
aba	-3783
NOUE	-3784
juro	-3785
▁empress	-3786
iated	-3787
oshima	-3788
▁Hokkaido	-3789
▁architect	-3790
▁Cloistered	-3791
don	-3792
zaemon	-3793
gram	-3794
▁avo	-3795
▁across	-3796
▁Tumulus	-3797
▁8,	-3798
ryaku	-3799
▁politics	-3800
▁displ	-3801
urs	-3802
iful	-3803
▁25,	-3804
▁Masa	-3805
▁card	-3806
▁issue	-3807
▁sides	-3808
ery	-3809
▁worn	-3810
▁either	-3811
▁employ	-3812
▁Jusanmi	-3813
▁dispatched	-3814
▁13,	-3815
▁Dazai	-3816
acher	-3817
SUGI	-3818
hind	-3819
ining	-3820
▁Party	-3821
▁sen	-3822
usted	-3823
▁stayed	-3824
▁supposed	-3825
▁financial	-3826
▁Higashiyama	-3827
udai	-3828
▁surv	-3829
▁passeng	-3830
▁existence	-3831
Tai	-3832
▁10,	-3833
▁abs	-3834
ugaku	-3835
overed	-3836
ales	-3837
writ	-3838
itation	-3839
▁disapp	-3840
oso	-3841
▁dish	-3842
▁stri	-3843
▁entire	-3844
▁Ming	-3845
▁meant	-3846
hachi	-3847
ients	-3848
▁true	-3849
▁Origin	-3850
has	-3851
odes	-3852
▁25	-3853
▁southern	-3854
▁Tosa	-3855
mentary	-3856
▁succeed	-3857
▁Shinsengumi	-3858
ayu	-3859
hil	-3860
▁ep	-3861
duction	-3862
bor	-3863
ulations	-3864
RU	-3865
▁Naka	-3866
▁legal	-3867
riage	-3868
▁lawful	-3869
▁independent	-3870
▁mas	-3871
▁formal	-3872
▁reported	-3873
▁11,	-3874
▁Kak	-3875
andai	-3876
estiv	-3877
zukuri	-3878
▁regular	-3879
▁existing	-3880
abi	-3881
▁leader	-3882
iber	-3883
lish	-3884
zumi	-3885
lo	-3886
ware	-3887
roved	-3888
ashina	-3889
TAKE	-3890
▁ones	-3891
▁bound	-3892
▁island	-3893
ujo	-3894
acted	-3895
ising	-3896
▁diary	-3897
NDO	-3898
▁133	-3899
▁deal	-3900
▁cannot	-3901
▁4,	-3902
▁Rok	-3903
▁Vol	-3904
child	-3905
ibrary	-3906
▁sacred	-3907
▁–	-3908
▁Ma	-3909
▁green	-3910
▁Yoshimitsu	-3911
0)	-3912
6:	-3913
▁meat	-3914
▁Izumo	-3915
▁senior	-3916
ervation	-3917
▁rebellion	-3918
abor	-3919
kiyo	-3920
irror	-3921
▁fort	-3922
▁Park	-3923
raphic	-3924
jiki	-3925
ound	-3926
▁160	-3927
▁skill	-3928
▁offices	-3929
provincial	-3930
▁demand	-3931
▁sup	-3932
uties	-3933
eninsul	-3934
▁techniques	-3935
▁KAN	-3936
atake	-3937
chika	-3938
▁Hiros	-3939
▁explain	-3940
lit	-3941
zoku	-3942
ection	-3943
▁honor	-3944
▁Michinaga	-3945
ium	-3946
▁Yodo	-3947
▁wind	-3948
▁shows	-3949
▁shugo	-3950
▁Azuchi	-3951
▁experi	-3952
▁ordinary	-3953
▁facilities	-3954
ee	-3955
essed	-3956
▁leaves	-3957
▁discuss	-3958
▁diss	-3959
▁opposed	-3960
▁fut	-3961
estivals	-3962
ading	-3963
▁novel	-3964
ugu	-3965
▁mov	-3966
▁folk	-3967
iyoshi	-3968
Governor	-3969
▁management	-3970
9:	-3971
▁Awa	-3972
▁attached	-3973
AMI	-3974
eral	-3975
▁Qing	-3976
uments	-3977
3:	-3978
▁6,	-3979
▁arm	-3980
etada	-3981
▁feat	-3982
▁ritual	-3983
▁engaged	-3984
▁renamed	-3985
▁ceremonies	-3986
BO	-3987
ora	-3988
Prov	-3989
▁Toyo	-3990
1:	-3991
uter	-3992
▁12,	-3993
▁soup	-3994
oteric	-3995
▁appearance	-3996
▁sto	-3997
etsugu	-3998
▁river	-3999
aps	-4000
ges	-4001
three	-4002
▁value	-4003
izing	-4004
▁Gate	-4005
▁household	-4006
▁participated	-4007
▁lady	-4008
teenth	-4009
▁round	-4010
izo	-4011
vest	-4012
▁shu	-4013
▁done	-4014
2:	-4015
▁eighth	-4016
▁District	-4017
▁decl	-4018
▁sour	-4019
ranking	-4020
").	-4021
pro	-4022
▁Ne	-4023
adem	-4024
▁Mis	-4025
▁earth	-4026
▁184	-4027
▁warrior	-4028
▁ryo	-4029
▁entrance	-4030
▁Municipal	-4031
▁concerning	-4032
▁calligraphy	-4033
rel	-4034
▁ey	-4035
eninsula	-4036
▁suicide	-4037
agata	-4038
▁Hiei	-4039
▁stay	-4040
utiful	-4041
▁compan	-4042
Budd	-4043
▁27,	-4044
akusa	-4045
▁seem	-4046
ighten	-4047
▁busho	-4048
▁actors	-4049
▁behind	-4050
▁figure	-4051
As	-4052
nel	-4053
▁vice	-4054
▁Inter	-4055
▁project	-4056
▁Rin	-4057
▁feel	-4058
illion	-4059
▁love	-4060
▁size	-4061
▁organized	-4062
▁Junior	-4063
▁transfer	-4064
▁God	-4065
▁your	-4066
Chronicles	-4067
eds	-4068
▁equivalent	-4069
▁police	-4070
▁clothes	-4071
▁advanced	-4072
5:	-4073
mbol	-4074
▁23,	-4075
inking	-4076
▁mountains	-4077
▁28,	-4078
▁fif	-4079
luded	-4080
▁emperors	-4081
San	-4082
▁Nagasaki	-4083
oden	-4084
luding	-4085
▁negot	-4086
▁Yoshis	-4087
▁disciples	-4088
▁surrounding	-4089
Dai	-4090
offic	-4091
▁kinds	-4092
▁hundred	-4093
▁picture	-4094
▁collected	-4095
▁17,	-4096
▁king	-4097
▁depending	-4098
▁16,	-4099
▁letters	-4100
▁location	-4101
▁committed	-4102
ipl	-4103
▁belief	-4104
yam	-4105
▁kimono	-4106
▁OKU	-4107
▁obs	-4108
▁Koku	-4109
▁Shotoku	-4110
▁regarding	-4111
▁Toba	-4112
ashima	-4113
▁buried	-4114
▁managed	-4115
▁foundation	-4116
ustr	-4117
zuke	-4118
otoba	-4119
▁Sog	-4120
▁inf	-4121
▁rare	-4122
▁Konoe	-4123
ief	-4124
▁excav	-4125
▁turned	-4126
Sh	-4127
Hei	-4128
▁Shinano	-4129
ames	-4130
ulty	-4131
▁Kumano	-4132
▁Kane	-4133
▁Suke	-4134
local	-4135
')	-4136
▁ko	-4137
▁18,	-4138
▁aud	-4139
▁comes	-4140
▁princess	-4141
dr	-4142
▁model	-4143
▁yield	-4144
▁9,	-4145
Koji	-4146
▁Kot	-4147
▁Bridge	-4148
▁UESUGI	-4149
▁incorp	-4150
▁Yoshinobu	-4151
barians	-4152
▁representative	-4153
TE	-4154
bi	-4155
▁gen	-4156
which	-4157
▁blood	-4158
▁hands	-4159
▁longer	-4160
▁grandfather	-4161
zon	-4162
ains	-4163
▁seri	-4164
▁companies	-4165
hol	-4166
osei	-4167
hibited	-4168
▁Harima	-4169
▁treasure	-4170
▁Gak	-4171
▁hai	-4172
▁duties	-4173
igi	-4174
kyu	-4175
▁Daijo	-4176
▁bring	-4177
▁conqu	-4178
▁pagoda	-4179
▁necessary	-4180
▁Tame	-4181
'.	-4182
▁Wa	-4183
▁emer	-4184
nyo	-4185
▁Tenmu	-4186
urrency	-4187
astern	-4188
▁Toyotomi	-4189
▁24,	-4190
▁tow	-4191
▁NAGA	-4192
▁list	-4193
▁rele	-4194
▁scroll	-4195
▁ITO	-4196
ashige	-4197
▁Kashi	-4198
▁piece	-4199
▁Yoshino	-4200
udden	-4201
▁describes	-4202
Chin	-4203
istics	-4204
oryu	-4205
▁iron	-4206
bl	-4207
▁grandson	-4208
bers	-4209
▁hat	-4210
atory	-4211
▁cultiv	-4212
▁script	-4213
▁derived	-4214
ne	-4215
aval	-4216
▁Yoshimasa	-4217
▁Shinkansen	-4218
NJO	-4219
vey	-4220
iance	-4221
▁Shis	-4222
▁Americ	-4223
▁sle	-4224
▁Taiwan	-4225
cent	-4226
▁peas	-4227
▁Masak	-4228
▁offered	-4229
▁teachings	-4230
▁Pol	-4231
▁deb	-4232
▁han	-4233
▁dedicated	-4234
▁eventually	-4235
asted	-4236
cribed	-4237
▁quest	-4238
▁nature	-4239
▁officially	-4240
HO	-4241
▁Fore	-4242
▁lands	-4243
▁showed	-4244
amo	-4245
▁sudden	-4246
▁determin	-4247
eign	-4248
▁basis	-4249
▁Middle	-4250
▁agre	-4251
pei	-4252
oday	-4253
▁29,	-4254
enbutsu	-4255
▁United	-4256
▁quality	-4257
4:	-4258
▁air	-4259
▁KAWA	-4260
▁coop	-4261
▁Mikawa	-4262
▁circum	-4263
▁accompanied	-4264
Tak	-4265
▁156	-4266
▁Hot	-4267
▁Med	-4268
▁Mitsun	-4269
▁illness	-4270
pr	-4271
pu	-4272
Yam	-4273
▁183	-4274
▁ple	-4275
▁forest	-4276
▁reasons	-4277
jaku	-4278
ppon	-4279
great	-4280
inated	-4281
▁symbol	-4282
▁precinct	-4283
▁Christian	-4284
andal	-4285
▁mind	-4286
▁Wakashu	-4287
▁Shirakawa	-4288
▁Yoshinaka	-4289
▁bu	-4290
▁tar	-4291
esugi	-4292
▁Pure	-4293
▁dipl	-4294
▁soba	-4295
▁crest	-4296
▁belonging	-4297
▁festivals	-4298
▁Gy	-4299
rafts	-4300
▁acqu	-4301
▁Minami	-4302
▁km	-4303
enshin	-4304
▁Under	-4305
cription	-4306
▁reconstruct	-4307
aled	-4308
▁22,	-4309
erson	-4310
istocr	-4311
igahara	-4312
▁summer	-4313
then	-4314
▁tool	-4315
omatic	-4316
▁Sanet	-4317
▁arrived	-4318
▁examples	-4319
ormal	-4320
▁Kobe	-4321
▁entertain	-4322
▁implement	-4323
ben	-4324
▁Mar	-4325
▁wid	-4326
con	-4327
atch	-4328
▁Sun	-4329
▁non	-4330
enshu	-4331
▁TAKEDA	-4332
▁ASA	-4333
ledge	-4334
▁opening	-4335
)).	-4336
▁70	-4337
hong	-4338
illa	-4339
oyal	-4340
uilt	-4341
isions	-4342
▁Echigo	-4343
overeign	-4344
▁Yoshiaki	-4345
▁Hyogo	-4346
▁morning	-4347
▁Toki	-4348
▁susp	-4349
▁Kugyo	-4350
▁sweet	-4351
anguage	-4352
▁holding	-4353
▁tour	-4354
ayashi	-4355
istrate	-4356
▁barbarians	-4357
umasa	-4358
amatsu	-4359
▁SHIMA	-4360
▁battles	-4361
court	-4362
▁civil	-4363
standing	-4364
▁contains	-4365
▁restored	-4366
▁ship	-4367
▁manor	-4368
▁maintain	-4369
bre	-4370
▁30,	-4371
▁Fac	-4372
▁Corp	-4373
▁regent	-4374
minister	-4375
work	-4376
▁14,	-4377
▁meeting	-4378
▁disappear	-4379
▁bad	-4380
▁SHIBA	-4381
▁gon	-4382
Nihon	-4383
▁drum	-4384
▁influenced	-4385
tegr	-4386
tens	-4387
itude	-4388
▁Book	-4389
▁Order	-4390
▁broad	-4391
▁OTO	-4392
▁gradu	-4393
Minamoto	-4394
▁fighting	-4395
anks	-4396
usen	-4397
while	-4398
▁Trans	-4399
▁excell	-4400
▁Udaijin	-4401
oseki	-4402
▁Kuni	-4403
▁free	-4404
▁surf	-4405
▁prosper	-4406
Ten	-4407
ony	-4408
▁19,	-4409
ankyu	-4410
▁Russ	-4411
▁Kagami	-4412
▁starting	-4413
▁farmers	-4414
gress	-4415
▁Summary	-4416
▁beautiful	-4417
▁cri	-4418
akata	-4419
▁Kong	-4420
▁Around	-4421
ped	-4422
▁ticket	-4423
▁working	-4424
▁classified	-4425
gg	-4426
▁future	-4427
▁followers	-4428
▁Bi	-4429
▁paren	-4430
▁Kofuku	-4431
▁Nagoya	-4432
▁1.	-4433
inued	-4434
shiki	-4435
▁repe	-4436
▁walk	-4437
mae	-4438
acqu	-4439
▁maternal	-4440
oroku	-4441
▁Daij	-4442
▁floor	-4443
▁increase	-4444
▁Constitution	-4445
]).	-4446
aza	-4447
▁anim	-4448
▁scale	-4449
▁becomes	-4450
▁paid	-4451
zuki	-4452
herry	-4453
▁valu	-4454
▁decre	-4455
▁stated	-4456
▁Collection	-4457
▁Sekigahara	-4458
ii	-4459
"),	-4460
hai	-4461
ilg	-4462
oint	-4463
SHIMA	-4464
▁Aizu	-4465
vention	-4466
▁extreme	-4467
▁asc	-4468
▁defeat	-4469
▁expand	-4470
▁frequently	-4471
ON	-4472
ukyo	-4473
▁26,	-4474
elled	-4475
icial	-4476
▁whom	-4477
▁Article	-4478
chim	-4479
▁sha	-4480
▁Sadaijin	-4481
ify	-4482
ortun	-4483
isters	-4484
▁teacher	-4485
▁ingredients	-4486
duce	-4487
▁Kus	-4488
▁connected	-4489
▁ess	-4490
illed	-4491
▁didn	-4492
▁accept	-4493
▁Head	-4494
▁marriage	-4495
uda	-4496
umon	-4497
akuni	-4498
iment	-4499
▁earl	-4500
▁Enryaku	-4501
▁circumst	-4502
▁21	-4503
artial	-4504
▁aristocr	-4505
Os	-4506
▁115	-4507
▁personal	-4508
▁restoration	-4509
▁particularly	-4510
ighbor	-4511
ference	-4512
▁program	-4513
jun	-4514
teen	-4515
▁exam	-4516
▁drama	-4517
va	-4518
ZAWA	-4519
aith	-4520
ends	-4521
gumi	-4522
▁virt	-4523
▁shops	-4524
▁captured	-4525
▁enthronement	-4526
Ch	-4527
▁24	-4528
▁Emp	-4529
▁117	-4530
▁quite	-4531
▁Ichijo	-4532
▁studies	-4533
▁villages	-4534
▁mausoleum	-4535
erior	-4536
▁taste	-4537
▁brewing	-4538
Provisional	-4539
▁difference	-4540
▁reading	-4541
▁submitted	-4542
▁influential	-4543
▁pred	-4544
▁const	-4545
▁domin	-4546
▁consider	-4547
ump	-4548
▁NO	-4549
▁Iyo	-4550
▁Hokke	-4551
▁Bakufu	-4552
ina	-4553
▁50	-4554
▁ABE	-4555
▁tempor	-4556
▁learning	-4557
main	-4558
▁Des	-4559
▁Shun	-4560
▁uncle	-4561
▁applied	-4562
▁principle	-4563
ogyo	-4564
▁(15	-4565
▁key	-4566
▁surn	-4567
▁Hitachi	-4568
Kojiki	-4569
ribution	-4570
aditional	-4571
bei	-4572
organ	-4573
▁Yama	-4574
▁planned	-4575
uls	-4576
hick	-4577
icine	-4578
iling	-4579
ians	-4580
▁assu	-4581
▁OTOMO	-4582
▁Kurodo	-4583
▁heaven	-4584
▁controlled	-4585
orses	-4586
▁coin	-4587
▁Sakai	-4588
▁eaten	-4589
▁shown	-4590
▁Agency	-4591
ayuki	-4592
▁Mean	-4593
▁thin	-4594
▁Otomo	-4595
▁116	-4596
▁gir	-4597
▁Shijo	-4598
▁drawn	-4599
iso	-4600
▁Ur	-4601
etry	-4602
amori	-4603
amura	-4604
atsuko	-4605
▁sushi	-4606
▁version	-4607
▁Shimotsu	-4608
sw	-4609
▁120	-4610
▁gok	-4611
▁Tais	-4612
▁Shingen	-4613
▁deliver	-4614
▁merchants	-4615
▁ni	-4616
ership	-4617
▁dismiss	-4618
▁Due	-4619
▁Thus	-4620
onounced	-4621
▁currency	-4622
▁something	-4623
▁emb	-4624
▁pra	-4625
▁Chief	-4626
▁invited	-4627
▁excellent	-4628
▁tai	-4629
▁depart	-4630
ich	-4631
ches	-4632
▁host	-4633
▁move	-4634
antage	-4635
▁offer	-4636
▁ruled	-4637
▁People	-4638
▁closed	-4639
▁variety	-4640
date	-4641
▁rein	-4642
rising	-4643
▁rules	-4644
▁119	-4645
▁signific	-4646
▁additional	-4647
▁Be	-4648
▁box	-4649
▁chapter	-4650
▁Hachiman	-4651
▁assistant	-4652
".	-4653
ils	-4654
iege	-4655
moto	-4656
owager	-4657
▁items	-4658
▁titles	-4659
time	-4660
oshisha	-4661
▁achievements	-4662
ashim	-4663
atsuk	-4664
▁vict	-4665
▁Sakyo	-4666
▁agric	-4667
▁space	-4668
▁cooking	-4669
ert	-4670
oms	-4671
otan	-4672
tery	-4673
▁stick	-4674
lighten	-4675
▁Hiroshima	-4676
▁80	-4677
aces	-4678
▁egg	-4679
▁Kage	-4680
▁increasing	-4681
dono	-4682
ocho	-4683
sure	-4684
emoto	-4685
▁exchange	-4686
▁job	-4687
▁pen	-4688
▁yet	-4689
anobu	-4690
▁problem	-4691
▁industry	-4692
ront	-4693
force	-4694
aishogun	-4695
▁covered	-4696
▁prepared	-4697
An	-4698
▁bes	-4699
ichii	-4700
▁academ	-4701
▁eating	-4702
▁exists	-4703
▁ki	-4704
▁Ben	-4705
▁That	-4706
▁lect	-4707
▁pick	-4708
eru	-4709
▁cit	-4710
ocation	-4711
▁function	-4712
ded	-4713
0:	-4714
▁Peninsula	-4715
igen	-4716
▁mass	-4717
▁runs	-4718
ancing	-4719
▁arrest	-4720
▁Corporation	-4721
ifu	-4722
who	-4723
▁Mune	-4724
▁syll	-4725
ansion	-4726
▁listed	-4727
aidaijin	-4728
▁religion	-4729
▁president	-4730
ZE	-4731
name	-4732
▁Code	-4733
itsuna	-4734
▁consists	-4735
cha	-4736
asuma	-4737
imoto	-4738
▁Most	-4739
▁dise	-4740
atsune	-4741
▁tumulus	-4742
▁guardian	-4743
▁Yamashina	-4744
▁installed	-4745
00,	-4746
▁Jing	-4747
▁alco	-4748
▁makes	-4749
ression	-4750
▁Port	-4751
ilgrim	-4752
▁surface	-4753
omei	-4754
YOSHI	-4755
▁sett	-4756
▁background	-4757
ansho	-4758
▁Hori	-4759
ptions	-4760
▁subdu	-4761
▁decision	-4762
▁168	-4763
▁Six	-4764
efore	-4765
▁Sess	-4766
▁accord	-4767
▁Kagoshima	-4768
▁profession	-4769
rup	-4770
anka	-4771
▁Tei	-4772
▁kin	-4773
▁KONOE	-4774
▁thirty	-4775
▁articles	-4776
▁declined	-4777
▁wa	-4778
ellow	-4779
ystem	-4780
▁report	-4781
▁English	-4782
JR	-4783
▁Sc	-4784
▁Hai	-4785
▁counter	-4786
▁transportation	-4787
▁Oku	-4788
▁flowers	-4789
▁dom	-4790
▁confir	-4791
ooden	-4792
▁goods	-4793
▁responsible	-4794
ewa	-4795
hyo	-4796
▁ry	-4797
engu	-4798
emasa	-4799
imasa	-4800
▁Mito	-4801
▁TACHI	-4802
▁takes	-4803
▁investig	-4804
▁separated	-4805
▁restaurants	-4806
▁Gyo	-4807
▁IWA	-4808
MATSU	-4809
▁Dais	-4810
▁ninth	-4811
▁mostly	-4812
▁funeral	-4813
▁la	-4814
okami	-4815
▁weak	-4816
▁Yoshik	-4817
▁target	-4818
met	-4819
BANA	-4820
four	-4821
ough	-4822
uden	-4823
▁hol	-4824
ioned	-4825
▁game	-4826
▁Rikyu	-4827
▁Cabinet	-4828
▁painted	-4829
rect	-4830
▁rain	-4831
▁wearing	-4832
▁Research	-4833
▁measures	-4834
▁classical	-4835
▁temporary	-4836
ky	-4837
part	-4838
▁Mim	-4839
▁sty	-4840
▁sects	-4841
ashiyama	-4842
▁Tomo	-4843
▁portra	-4844
▁circumstances	-4845
agura	-4846
aring	-4847
▁Heike	-4848
▁Izumi	-4849
▁deputy	-4850
▁Meanwhile	-4851
▁associated	-4852
▁redu	-4853
ducing	-4854
▁plays	-4855
▁Fukuoka	-4856
▁Mountain	-4857
eie	-4858
gami	-4859
minal	-4860
▁Kiyo	-4861
▁impro	-4862
ailroad	-4863
roup	-4864
quent	-4865
▁songs	-4866
▁temporarily	-4867
here	-4868
▁kai	-4869
order	-4870
▁creat	-4871
▁enough	-4872
▁integr	-4873
▁passengers	-4874
▁Camp	-4875
▁inner	-4876
▁giving	-4877
▁taught	-4878
▁faction	-4879
▁removed	-4880
▁extended	-4881
▁territorial	-4882
▁Em	-4883
ights	-4884
inance	-4885
▁neighbor	-4886
ru	-4887
▁concern	-4888
▁million	-4889
▁Doshisha	-4890
▁Yuki	-4891
pecial	-4892
▁Institute	-4893
▁association	-4894
col	-4895
▁Kaga	-4896
▁veget	-4897
▁height	-4898
▁greatly	-4899
▁successful	-4900
▁seal	-4901
▁someone	-4902
▁surname	-4903
▁indicates	-4904
▁remaining	-4905
▁appointment	-4906
auc	-4907
▁Sug	-4908
▁currently	-4909
▁knowledge	-4910
▁60	-4911
▁Le	-4912
omori	-4913
▁expl	-4914
▁table	-4915
▁permission	-4916
En	-4917
gak	-4918
ogi	-4919
▁anti	-4920
▁Tenno	-4921
▁matter	-4922
▁Ari	-4923
▁Kii	-4924
▁kyo	-4925
▁equal	-4926
▁Daishi	-4927
▁changes	-4928
▁concept	-4929
▁Treasure	-4930
Col	-4931
ecd	-4932
ikan	-4933
▁revol	-4934
▁Empire	-4935
raft	-4936
▁Day	-4937
jitsu	-4938
▁bridge	-4939
▁simply	-4940
▁facility	-4941
▁language	-4942
▁DA	-4943
dess	-4944
▁Hat	-4945
▁Him	-4946
▁rad	-4947
GUCHI	-4948
▁KUJO	-4949
▁Yoko	-4950
▁plot	-4951
▁kanji	-4952
▁shaku	-4953
▁TACHIBANA	-4954
hys	-4955
▁Oe	-4956
iden	-4957
aniwa	-4958
scale	-4959
▁Pres	-4960
▁moon	-4961
▁winter	-4962
▁intention	-4963
▁saw	-4964
▁avoid	-4965
▁Shichi	-4966
▁settle	-4967
▁actively	-4968
▁conditions	-4969
▁Ge	-4970
YASHI	-4971
▁dried	-4972
SAKI	-4973
▁ken	-4974
arted	-4975
▁ben	-4976
lying	-4977
▁peer	-4978
▁autumn	-4979
▁slight	-4980
▁cabinet	-4981
▁castles	-4982
▁Yoshitaka	-4983
▁descriptions	-4984
▁Kukai	-4985
▁Katsura	-4986
▁mission	-4987
▁scholars	-4988
▁consisting	-4989
▁punishment	-4990
NE	-4991
iol	-4992
kok	-4993
▁182	-4994
▁Fol	-4995
andala	-4996
▁cause	-4997
▁compared	-4998
▁patterns	-4999
▁contributed	-5000
eneal	-5001
period	-5002
▁films	-5003
▁shall	-5004
▁orders	-5005
▁Hosokawa	-5006
ando	-5007
▁KATSU	-5008
▁faith	-5009
NAKA	-5010
▁guest	-5011
▁heard	-5012
istance	-5013
▁ranking	-5014
▁bure	-5015
▁nine	-5016
▁sovereign	-5017
from	-5018
▁166	-5019
▁need	-5020
aching	-5021
amisen	-5022
avored	-5023
▁staff	-5024
▁Yoshitomo	-5025
▁manuscript	-5026
ds	-5027
▁22	-5028
osop	-5029
▁grade	-5030
▁failed	-5031
▁gathered	-5032
▁suffered	-5033
▁governors	-5034
▁connection	-5035
▁maintained	-5036
▁cy	-5037
zuma	-5038
using	-5039
▁bell	-5040
▁bowl	-5041
▁ware	-5042
pite	-5043
hilosop	-5044
▁nobility	-5045
▁determined	-5046
aucr	-5047
essor	-5048
▁scen	-5049
aining	-5050
▁basic	-5051
urbance	-5052
▁exiled	-5053
▁rights	-5054
▁Kingdom	-5055
▁Tokaido	-5056
▁Shug	-5057
▁coup	-5058
▁Hankyu	-5059
],	-5060
Kok	-5061
osen	-5062
▁180	-5063
▁leaving	-5064
▁accordance	-5065
▁(2	-5066
book	-5067
akugo	-5068
ander	-5069
▁distr	-5070
▁spirits	-5071
kami	-5072
▁fan	-5073
odate	-5074
▁match	-5075
▁strongly	-5076
bar	-5077
ises	-5078
koji	-5079
▁Today	-5080
▁fixed	-5081
▁refused	-5082
▁163	-5083
▁Pass	-5084
▁sugar	-5085
▁cherry	-5086
▁distance	-5087
▁Dewa	-5088
▁Shiget	-5089
▁manner	-5090
▁peasants	-5091
▁subsequently	-5092
kon	-5093
▁ink	-5094
▁leave	-5095
▁Shigen	-5096
▁Kumamoto	-5097
ash	-5098
maru	-5099
▁162	-5100
▁find	-5101
hand	-5102
▁Hyak	-5103
▁thick	-5104
▁burial	-5105
▁narrow	-5106
▁happened	-5107
▁individual	-5108
rd	-5109
▁concub	-5110
▁contin	-5111
▁rituals	-5112
▁headquarters	-5113
▁Jins	-5114
lowing	-5115
▁App	-5116
▁IKE	-5117
asaka	-5118
▁Arts	-5119
▁Uesugi	-5120
▁repeated	-5121
amon	-5122
▁abd	-5123
angible	-5124
irector	-5125
▁wanted	-5126
▁Shikibu	-5127
▁Karasuma	-5128
▁department	-5129
aek	-5130
dan	-5131
okuni	-5132
▁HIRA	-5133
▁sutra	-5134
▁efforts	-5135
▁attention	-5136
Kin	-5137
▁Nyo	-5138
▁dol	-5139
antly	-5140
▁Gion	-5141
▁self	-5142
▁council	-5143
Osaka	-5144
retary	-5145
▁final	-5146
▁Volume	-5147
Buddhist	-5148
▁martial	-5149
▁towards	-5150
acc	-5151
▁170	-5152
▁SOGA	-5153
ointed	-5154
▁Tachi	-5155
▁Before	-5156
▁advance	-5157
▁audience	-5158
▁boy	-5159
▁bank	-5160
▁demon	-5161
▁easily	-5162
▁ancestor	-5163
▁incorporated	-5164
Gr	-5165
▁Yok	-5166
azaki	-5167
iversary	-5168
official	-5169
▁Daijokan	-5170
sec	-5171
▁Cons	-5172
▁South	-5173
▁emphas	-5174
▁Faculty	-5175
▁Naidaijin	-5176
▁enlighten	-5177
▁discovered	-5178
Se	-5179
east	-5180
▁Nihonshoki	-5181
▁performing	-5182
▁dram	-5183
▁inspect	-5184
▁contents	-5185
▁regulations	-5186
inate	-5187
kofun	-5188
▁Shog	-5189
anshin	-5190
▁Moton	-5191
▁Seiwa	-5192
▁Miyazu	-5193
▁months	-5194
▁stopped	-5195
otes	-5196
ayasu	-5197
▁Sada	-5198
▁Ukyo	-5199
▁aband	-5200
▁kabuki	-5201
▁executed	-5202
▁extremely	-5203
omasa	-5204
▁Koya	-5205
▁suit	-5206
▁simple	-5207
▁MIYOSHI	-5208
▁alcohol	-5209
ONJI	-5210
ires	-5211
▁trib	-5212
▁ships	-5213
▁urban	-5214
▁Assistant	-5215
▁concurrently	-5216
osan	-5217
▁Kim	-5218
lling	-5219
▁laws	-5220
▁market	-5221
▁gokenin	-5222
▁prohibited	-5223
▁pronounced	-5224
Ko	-5225
New	-5226
▁Nai	-5227
▁Five	-5228
▁crop	-5229
▁heads	-5230
▁Warring	-5231
▁defined	-5232
▁receive	-5233
▁ICHIKAWA	-5234
▁advantage	-5235
▁requested	-5236
▁relatively	-5237
odhis	-5238
▁KATA	-5239
▁Suruga	-5240
▁Records	-5241
ams	-5242
ler	-5243
isei	-5244
zawa	-5245
cetic	-5246
taisha	-5247
▁lives	-5248
▁kokushi	-5249
▁successive	-5250
west	-5251
michi	-5252
▁Temp	-5253
▁miya	-5254
▁cities	-5255
▁adviser	-5256
▁ha	-5257
▁Clan	-5258
▁crown	-5259
▁Ceremon	-5260
▁playing	-5261
▁relocated	-5262
It	-5263
▁cm	-5264
▁IMA	-5265
▁Jok	-5266
ented	-5267
igata	-5268
odhisatt	-5269
▁75	-5270
▁Den	-5271
▁salt	-5272
▁cooked	-5273
▁powers	-5274
▁Kokushi	-5275
▁decline	-5276
▁student	-5277
▁bureaucr	-5278
▁suddenly	-5279
▁permitted	-5280
nd	-5281
▁Miko	-5282
▁shop	-5283
▁prior	-5284
▁geneal	-5285
▁reorgan	-5286
▁settled	-5287
▁literary	-5288
wide	-5289
estic	-5290
▁Atsu	-5291
▁fled	-5292
▁rose	-5293
▁superv	-5294
▁expression	-5295
ME	-5296
bro	-5297
▁Sat	-5298
urity	-5299
▁arms	-5300
▁pursu	-5301
▁archer	-5302
▁arranged	-5303
gar	-5304
▁(11	-5305
▁Juni	-5306
ensive	-5307
▁Kinai	-5308
▁Kasuga	-5309
▁flower	-5310
▁SAIONJI	-5311
▁Jushiinoge	-5312
tered	-5313
ras	-5314
▁taxes	-5315
▁Daimyo	-5316
▁Histor	-5317
▁Yakushi	-5318
▁division	-5319
▁pictures	-5320
▁expressed	-5321
▁hit	-5322
▁viol	-5323
▁matters	-5324
▁resident	-5325
▁retained	-5326
Ar	-5327
▁155	-5328
▁Sag	-5329
▁Sus	-5330
▁attr	-5331
orized	-5332
▁Kinki	-5333
▁Saigo	-5334
▁lacqu	-5335
▁strict	-5336
▁Okayama	-5337
▁theater	-5338
ni	-5339
back	-5340
▁Sea	-5341
▁edition	-5342
▁academic	-5343
▁26	-5344
▁Nari	-5345
▁obtained	-5346
▁protection	-5347
▁Izu	-5348
ercial	-5349
▁Kanmu	-5350
▁anecd	-5351
▁mixed	-5352
▁price	-5353
▁aspect	-5354
▁peerage	-5355
▁announced	-5356
▁operations	-5357
Tsu	-5358
ners	-5359
▁Iga	-5360
itada	-5361
amichi	-5362
▁Okimi	-5363
▁Treat	-5364
Maizuru	-5365
▁Masamune	-5366
eal	-5367
six	-5368
uis	-5369
▁fle	-5370
▁Gojo	-5371
▁step	-5372
▁doctr	-5373
▁forms	-5374
▁pointed	-5375
▁strateg	-5376
▁economic	-5377
Ju	-5378
hongi	-5379
Co	-5380
bound	-5381
▁tell	-5382
▁restr	-5383
▁achieved	-5384
▁disappeared	-5385
juku	-5386
▁tale	-5387
▁weap	-5388
▁buses	-5389
▁Wakasa	-5390
▁treasures	-5391
ento	-5392
lean	-5393
▁Asa	-5394
▁survey	-5395
▁Shrines	-5396
emi	-5397
lower	-5398
▁bott	-5399
▁lack	-5400
▁Subway	-5401
▁Foreign	-5402
▁`	-5403
▁Jizo	-5404
▁Shak	-5405
▁mult	-5406
▁Modern	-5407
▁Poetry	-5408
▁Science	-5409
elt	-5410
vol	-5411
asan	-5412
▁gri	-5413
enger	-5414
umoto	-5415
▁evil	-5416
▁action	-5417
ebi	-5418
hew	-5419
igo	-5420
tly	-5421
▁poor	-5422
▁edict	-5423
itai	-5424
▁adj	-5425
count	-5426
ening	-5427
grand	-5428
former	-5429
▁chron	-5430
▁roles	-5431
▁screen	-5432
ilgrimage	-5433
▁Tadayoshi	-5434
▁provisional	-5435
Cho	-5436
lege	-5437
▁raw	-5438
▁entry	-5439
Chinese	-5440
▁university	-5441
iar	-5442
▁23	-5443
▁Od	-5444
▁fer	-5445
▁gar	-5446
itaka	-5447
▁cand	-5448
▁Shizu	-5449
▁regional	-5450
gy	-5451
cast	-5452
jing	-5453
engyo	-5454
▁Sane	-5455
▁Stat	-5456
▁excl	-5457
▁mist	-5458
written	-5459
▁Shonii	-5460
akin	-5461
▁lif	-5462
▁cold	-5463
▁tower	-5464
▁walls	-5465
▁Sakone	-5466
▁Masakado	-5467
▁clothing	-5468
▁resulted	-5469
▁descended	-5470
▁criticized	-5471
▁architecture	-5472
▁ok	-5473
▁wak	-5474
▁replaced	-5475
▁treatment	-5476
▁international	-5477
He	-5478
▁Ear	-5479
▁Miz	-5480
▁Kaget	-5481
▁overth	-5482
▁discont	-5483
▁earlier	-5484
▁community	-5485
▁Br	-5486
ZAKI	-5487
▁ascetic	-5488
provisional	-5489
▁identified	-5490
ayo	-5491
inojo	-5492
point	-5493
▁Intern	-5494
▁treaty	-5495
▁prefectures	-5496
▁Ger	-5497
▁Ien	-5498
Grand	-5499
▁Diet	-5500
▁dress	-5501
▁paste	-5502
▁designed	-5503
▁teaching	-5504
traditional	-5505
usei	-5506
▁Jim	-5507
▁sak	-5508
▁Oshu	-5509
▁pill	-5510
▁wait	-5511
abashi	-5512
▁Yasut	-5513
▁beauty	-5514
▁practiced	-5515
▁Originally	-5516
▁characteristics	-5517
bara	-5518
▁Mei	-5519
ators	-5520
▁proposed	-5521
▁districts	-5522
hav	-5523
reci	-5524
▁Nao	-5525
▁phr	-5526
▁Koto	-5527
▁Lake	-5528
utions	-5529
▁codes	-5530
▁kil	-5531
▁copper	-5532
▁stones	-5533
▁travel	-5534
▁stipend	-5535
▁consisted	-5536
▁Confucianism	-5537
IN	-5538
uris	-5539
ephew	-5540
▁Asia	-5541
▁reve	-5542
▁bloss	-5543
▁Tohoku	-5544
▁serious	-5545
int	-5546
aign	-5547
osai	-5548
rial	-5549
▁171	-5550
▁Kais	-5551
▁prot	-5552
anting	-5553
itsune	-5554
zaburo	-5555
▁double	-5556
▁Dowager	-5557
▁revision	-5558
▁anniversary	-5559
=>	-5560
)),	-5561
yal	-5562
▁OI	-5563
▁ju	-5564
oten	-5565
▁Class	-5566
▁Honno	-5567
▁numbers	-5568
▁grandchild	-5569
▁28	-5570
utch	-5571
▁sumo	-5572
▁poets	-5573
▁petition	-5574
▁instrument	-5575
▁introduction	-5576
host	-5577
▁150	-5578
erous	-5579
cripts	-5580
▁branc	-5581
▁compet	-5582
▁seemed	-5583
▁organiz	-5584
▁distinct	-5585
▁recommended	-5586
▁Sar	-5587
class	-5588
▁KURO	-5589
atsugu	-5590
▁Library	-5591
▁grounds	-5592
▁approved	-5593
▁opinions	-5594
▁promotion	-5595
▁performances	-5596
ogo	-5597
▁67	-5598
erce	-5599
▁chujo	-5600
amation	-5601
▁daughters	-5602
▁MAE	-5603
Yoshi	-5604
▁disease	-5605
▁relatives	-5606
▁Ec	-5607
▁Two	-5608
▁nephew	-5609
▁Miyoshi	-5610
▁Mitsunari	-5611
▁contained	-5612
▁Shimotsuke	-5613
ards	-5614
ukan	-5615
inomiya	-5616
▁proced	-5617
ys	-5618
car	-5619
ugg	-5620
▁TV	-5621
ulpt	-5622
▁Hime	-5623
▁Shik	-5624
unomiya	-5625
▁merged	-5626
▁tracks	-5627
▁Shinran	-5628
▁Properties	-5629
era	-5630
olit	-5631
▁169	-5632
▁foc	-5633
anshi	-5634
▁Onin	-5635
▁burned	-5636
▁worshi	-5637
▁subdues	-5638
▁surrendered	-5639
awn	-5640
mai	-5641
imei	-5642
▁(16	-5643
▁Ito	-5644
▁Major	-5645
▁quick	-5646
▁temper	-5647
▁exception	-5648
▁biological	-5649
pir	-5650
▁Tor	-5651
▁Yan	-5652
place	-5653
▁ball	-5654
▁ment	-5655
▁nick	-5656
▁wrap	-5657
▁Kojiki	-5658
▁boiled	-5659
▁compar	-5660
▁entering	-5661
▁taishogun	-5662
Kam	-5663
▁165	-5664
Azuma	-5665
▁Dist	-5666
▁koto	-5667
▁typical	-5668
▁slightly	-5669
▁attempted	-5670
▁fief	-5671
▁North	-5672
▁range	-5673
▁split	-5674
▁compil	-5675
▁dispute	-5676
▁sections	-5677
).'	-5678
▁clo	-5679
▁Okin	-5680
▁Chiba	-5681
▁decor	-5682
▁heavy	-5683
▁styles	-5684
▁account	-5685
▁slee	-5686
▁coast	-5687
▁labor	-5688
▁Jinshin	-5689
NR	-5690
▁76	-5691
▁164	-5692
▁Ako	-5693
▁Reb	-5694
ughly	-5695
▁KITA	-5696
▁sand	-5697
▁sell	-5698
▁SHIMAZU	-5699
▁revised	-5700
▁merchant	-5701
Hon	-5702
onse	-5703
▁Tsur	-5704
▁epis	-5705
▁acted	-5706
▁betto	-5707
▁Series	-5708
▁System	-5709
▁wealth	-5710
▁Uj	-5711
otus	-5712
abric	-5713
▁Navy	-5714
▁Toku	-5715
▁uses	-5716
temple	-5717
▁source	-5718
▁stores	-5719
li	-5720
jug	-5721
high	-5722
▁Oshi	-5723
▁Sung	-5724
▁SANJO	-5725
▁encour	-5726
aved	-5727
▁deg	-5728
▁spr	-5729
▁daibu	-5730
▁stock	-5731
▁think	-5732
▁OKA	-5733
shogun	-5734
▁crafts	-5735
▁contrast	-5736
▁shooting	-5737
▁instruments	-5738
hak	-5739
▁rid	-5740
▁SUGA	-5741
▁duty	-5742
▁tend	-5743
▁Ichin	-5744
▁sites	-5745
▁conver	-5746
▁hakase	-5747
Collection	-5748
asen	-5749
oses	-5750
light	-5751
▁corn	-5752
▁Takat	-5753
▁depicted	-5754
▁platforms	-5755
ojo	-5756
Momoyama	-5757
▁nothing	-5758
▁Nakamaro	-5759
▁excavated	-5760
▁registered	-5761
owa	-5762
▁Of	-5763
▁Per	-5764
▁Oama	-5765
▁grew	-5766
▁Koshi	-5767
anomiya	-5768
▁Kozuke	-5769
▁retire	-5770
▁weight	-5771
▁largest	-5772
▁showing	-5773
▁released	-5774
▁interpret	-5775
rice	-5776
▁181	-5777
▁dry	-5778
cepts	-5779
iyama	-5780
▁ages	-5781
▁health	-5782
▁stands	-5783
▁Another	-5784
▁Provinces	-5785
▁Uda	-5786
▁movie	-5787
▁Sanuki	-5788
anji	-5789
▁phys	-5790
▁Ouchi	-5791
▁Sendai	-5792
▁declar	-5793
▁painter	-5794
▁Kameyama	-5795
▁internal	-5796
▁surrounded	-5797
mat	-5798
▁Ie	-5799
ades	-5800
agaku	-5801
▁Kanze	-5802
▁Those	-5803
▁break	-5804
▁escape	-5805
▁YOSHIDA	-5806
▁measure	-5807
▁produce	-5808
▁professional	-5809
BU	-5810
tar	-5811
daira	-5812
ashira	-5813
▁Sagami	-5814
▁annual	-5815
▁arrang	-5816
▁medical	-5817
Tok	-5818
▁Us	-5819
five	-5820
▁ONO	-5821
▁bath	-5822
▁rites	-5823
▁severe	-5824
▁hatamoto	-5825
▁medicine	-5826
▁Hin	-5827
▁KYO	-5828
▁pan	-5829
▁saf	-5830
▁Bung	-5831
▁goes	-5832
ashiki	-5833
aterasu	-5834
▁Wooden	-5835
▁Michizane	-5836
▁relations	-5837
aie	-5838
GOKU	-5839
elve	-5840
suke	-5841
ugen	-5842
usha	-5843
▁imm	-5844
▁points	-5845
▁Matters	-5846
▁domestic	-5847
▁response	-5848
▁enlightenment	-5849
▁Bu	-5850
isuke	-5851
omaru	-5852
▁Date	-5853
▁deeply	-5854
▁fabric	-5855
▁parties	-5856
▁alliance	-5857
resh	-5858
▁Gom	-5859
▁Kiz	-5860
▁pul	-5861
▁rever	-5862
odhisattva	-5863
▁foreigners	-5864
esada	-5865
▁INOUE	-5866
mentioned	-5867
fied	-5868
ablished	-5869
▁directed	-5870
▁opportun	-5871
▁Yoshimune	-5872
bone	-5873
▁hunt	-5874
▁India	-5875
▁haiku	-5876
▁Central	-5877
▁Wakayama	-5878
▁attended	-5879
▁intended	-5880
▁possessed	-5881
▁residents	-5882
▁Ac	-5883
bana	-5884
▁178	-5885
▁mach	-5886
▁consort	-5887
mar	-5888
▁74	-5889
▁Ay	-5890
mall	-5891
▁gif	-5892
▁Fudo	-5893
▁Dutch	-5894
▁Kurama	-5895
▁resear	-5896
▁Samurai	-5897
▁translated	-5898
▁wr	-5899
chiku	-5900
▁procl	-5901
▁Theater	-5902
▁reduced	-5903
▁Hidetada	-5904
Pr	-5905
abu	-5906
hoto	-5907
▁Com	-5908
▁Jik	-5909
▁tra	-5910
▁entr	-5911
modern	-5912
▁putting	-5913
▁historic	-5914
▁supporting	-5915
fall	-5916
masa	-5917
▁122	-5918
▁Met	-5919
▁MURA	-5920
▁coff	-5921
▁tsuk	-5922
▁figures	-5923
▁illustr	-5924
▁Esoteric	-5925
DE	-5926
asagi	-5927
▁cous	-5928
▁reven	-5929
▁spear	-5930
▁Bizen	-5931
▁altern	-5932
▁import	-5933
iyatsuko	-5934
▁correct	-5935
including	-5936
zed	-5937
▁mil	-5938
▁mot	-5939
ierce	-5940
thing	-5941
umber	-5942
▁exch	-5943
▁holid	-5944
▁colors	-5945
▁warring	-5946
▁evidence	-5947
▁prefectural	-5948
II	-5949
▁thereafter	-5950
Sen	-5951
▁Bas	-5952
▁mun	-5953
ataka	-5954
sanmi	-5955
▁Seii	-5956
atsuki	-5957
▁Atago	-5958
▁Ishiyama	-5959
▁philosop	-5960
▁successively	-5961
agaz	-5962
anda	-5963
▁Senior	-5964
▁doctor	-5965
▁Juichii	-5966
▁Yoshiie	-5967
▁Takakura	-5968
▁occupied	-5969
30	-5970
lig	-5971
▁3.	-5972
ruct	-5973
▁defense	-5974
▁Rokuhara	-5975
▁Shizuoka	-5976
▁receiving	-5977
▁establishing	-5978
▁wh	-5979
▁(17	-5980
▁Kir	-5981
usuke	-5982
▁liqu	-5983
▁exped	-5984
▁believe	-5985
▁problems	-5986
▁practical	-5987
▁Thereafter	-5988
▁40	-5989
▁ir	-5990
▁pu	-5991
▁Ham	-5992
▁lic	-5993
forced	-5994
▁Hokur	-5995
▁reject	-5996
▁Arashiyama	-5997
▁exhibition	-5998
iten	-5999
▁Biwa	-6000
ability	-6001
▁subord	-6002
▁Amaterasu	-6003
sui	-6004
Nara	-6005
▁Fun	-6006
▁rum	-6007
HASHI	-6008
hered	-6009
▁Gotoba	-6010
▁negoti	-6011
▁Eastern	-6012
▁methods	-6013
according	-6014
▁magistrate	-6015
▁population	-6016
KAI	-6017
▁IC	-6018
entr	-6019
type	-6020
▁Soga	-6021
asions	-6022
reated	-6023
▁NISHI	-6024
▁conven	-6025
▁getting	-6026
▁rebuilt	-6027
▁precincts	-6028
aze	-6029
▁ca	-6030
acho	-6031
▁154	-6032
▁300	-6033
▁Old	-6034
▁fear	-6035
▁roads	-6036
▁prayer	-6037
▁Nagamasa	-6038
▁invasion	-6039
▁concubine	-6040
▁implemented	-6041
een	-6042
▁27	-6043
▁bugyo	-6044
▁learn	-6045
]),	-6046
appro	-6047
erted	-6048
▁Mine	-6049
▁sight	-6050
▁Treaty	-6051
▁employed	-6052
▁policies	-6053
▁explained	-6054
▁returning	-6055
anko	-6056
▁MIYA	-6057
▁Such	-6058
▁Ukone	-6059
▁ICHIJO	-6060
▁Record	-6061
▁chosen	-6062
▁needed	-6063
▁probably	-6064
▁practices	-6065
▁diplomatic	-6066
Tan	-6067
ley	-6068
aiko	-6069
▁Sans	-6070
▁alive	-6071
▁privile	-6072
▁72	-6073
zaku	-6074
▁mur	-6075
▁sat	-6076
stood	-6077
▁FUKU	-6078
▁Seki	-6079
▁miko	-6080
▁Nobuk	-6081
▁daily	-6082
▁Though	-6083
▁routes	-6084
▁dismissed	-6085
pon	-6086
mono	-6087
wing	-6088
▁Mer	-6089
▁ang	-6090
▁mix	-6091
itive	-6092
▁Song	-6093
▁path	-6094
▁Junii	-6095
▁Silla	-6096
▁royal	-6097
▁Reizei	-6098
▁features	-6099
▁monument	-6100
▁Yamaguchi	-6101
▁confirmed	-6102
obo	-6103
kane	-6104
▁AKE	-6105
▁dro	-6106
▁por	-6107
ademy	-6108
eased	-6109
▁Kofun	-6110
▁loyal	-6111
▁divine	-6112
▁likely	-6113
▁appreci	-6114
▁customs	-6115
▁donated	-6116
▁Ishikawa	-6117
▁Yoshinori	-6118
omot	-6119
▁Now	-6120
scape	-6121
▁Gifu	-6122
▁bean	-6123
▁Yamat	-6124
▁obtain	-6125
imperial	-6126
des	-6127
idai	-6128
akatsu	-6129
ushige	-6130
▁Based	-6131
▁width	-6132
▁Kamigyo	-6133
▁content	-6134
▁question	-6135
▁shamisen	-6136
50	-6137
alu	-6138
ibu	-6139
comp	-6140
▁Akita	-6141
▁Spring	-6142
▁Iemitsu	-6143
▁chamber	-6144
▁reality	-6145
On	-6146
NOMI	-6147
fish	-6148
Major	-6149
abane	-6150
guchi	-6151
▁AKECHI	-6152
▁Masako	-6153
▁exclus	-6154
▁provide	-6155
▁institution	-6156
GE	-6157
nen	-6158
erve	-6159
▁OTA	-6160
tsugu	-6161
ottori	-6162
▁superior	-6163
▁Rebellion	-6164
▁fare	-6165
▁bushi	-6166
▁Mirror	-6167
▁horses	-6168
ographic	-6169
▁evening	-6170
').	-6171
vice	-6172
▁kam	-6173
unted	-6174
▁bill	-6175
▁Group	-6176
▁purch	-6177
▁decree	-6178
▁guards	-6179
▁68	-6180
▁Hy	-6181
▁31,	-6182
▁Rus	-6183
▁Sok	-6184
▁lad	-6185
vation	-6186
▁harvest	-6187
▁imposed	-6188
▁:	-6189
lin	-6190
▁em	-6191
puku	-6192
raph	-6193
them	-6194
zeki	-6195
▁179	-6196
▁Ats	-6197
astic	-6198
▁Kira	-6199
▁Yuan	-6200
▁fine	-6201
amitsu	-6202
▁Shaka	-6203
▁views	-6204
▁concerned	-6205
je	-6206
▁damage	-6207
▁portion	-6208
▁constitution	-6209
▁Ze	-6210
ayori	-6211
▁Liter	-6212
▁Tenchi	-6213
▁geisha	-6214
▁player	-6215
▁herself	-6216
▁musical	-6217
▁Military	-6218
▁Following	-6219
▁JNR	-6220
uraji	-6221
zushi	-6222
▁Mats	-6223
▁answ	-6224
▁Jingu	-6225
▁exper	-6226
▁string	-6227
▁portrait	-6228
▁surrender	-6229
▁popularity	-6230
▁Gi	-6231
long	-6232
ifying	-6233
▁seated	-6234
▁Tsushima	-6235
▁restaurant	-6236
che	-6237
busho	-6238
ishes	-6239
right	-6240
▁Kizu	-6241
▁Chron	-6242
▁metal	-6243
▁chance	-6244
▁fierce	-6245
▁flavor	-6246
▁doctrine	-6247
▁literally	-6248
▁MO	-6249
▁Udon	-6250
▁strength	-6251
iven	-6252
▁bri	-6253
etaka	-6254
ieuten	-6255
▁stood	-6256
▁tools	-6257
▁overse	-6258
▁Shosanmi	-6259
Ok	-6260
▁Izan	-6261
people	-6262
▁Agric	-6263
▁Okura	-6264
ersonal	-6265
▁allied	-6266
▁extens	-6267
▁resign	-6268
▁uprising	-6269
▁scriptures	-6270
Rec	-6271
ope	-6272
▁Sot	-6273
▁clearly	-6274
▁earthen	-6275
▁victory	-6276
▁Platform	-6277
▁advocated	-6278
▁distributed	-6279
utai	-6280
▁(12	-6281
▁ARA	-6282
▁jin	-6283
bugyo	-6284
inity	-6285
ushed	-6286
▁cert	-6287
▁Kichi	-6288
▁SAIGO	-6289
ieutenant	-6290
▁Yamagata	-6291
▁changing	-6292
tee	-6293
JIMA	-6294
NAGA	-6295
▁Bet	-6296
oruri	-6297
▁felt	-6298
▁mere	-6299
▁Hirom	-6300
▁Honen	-6301
utation	-6302
▁envoys	-6303
▁Kamigata	-6304
▁expedition	-6305
10	-6306
▁door	-6307
▁huge	-6308
▁rich	-6309
▁outer	-6310
currently	-6311
▁ascended	-6312
▁basically	-6313
▁Ir	-6314
▁Ya	-6315
▁ku	-6316
GATA	-6317
▁inj	-6318
utras	-6319
achika	-6320
▁Aichi	-6321
▁bottom	-6322
NU	-6323
▁hy	-6324
▁167	-6325
▁Kos	-6326
▁Ton	-6327
enaga	-6328
▁copy	-6329
▁pond	-6330
▁wish	-6331
▁Outer	-6332
▁Siege	-6333
▁magaz	-6334
▁create	-6335
▁Shimazu	-6336
▁parents	-6337
▁traffic	-6338
UJI	-6339
igr	-6340
char	-6341
▁153	-6342
▁Gener	-6343
▁adding	-6344
▁deceased	-6345
▁insisted	-6346
▁concluded	-6347
gon	-6348
osal	-6349
yaki	-6350
enori	-6351
▁Just	-6352
▁Kang	-6353
second	-6354
▁Kishu	-6355
▁Murakami	-6356
▁commercial	-6357
▁agricultural	-6358
CA	-6359
▁Myoo	-6360
▁KYOGOKU	-6361
▁vegetables	-6362
hou	-6363
cell	-6364
▁Ryuk	-6365
▁tren	-6366
▁Inari	-6367
▁Tosho	-6368
▁despite	-6369
▁Hokuriku	-6370
▁suggests	-6371
▁reference	-6372
▁resulting	-6373
osha	-6374
▁500	-6375
▁bon	-6376
▁Uchi	-6377
▁rise	-6378
▁forth	-6379
▁separate	-6380
eed	-6381
sum	-6382
▁177	-6383
▁Ban	-6384
▁oil	-6385
inari	-6386
▁Togu	-6387
▁prem	-6388
▁snow	-6389
▁hours	-6390
▁wrest	-6391
▁Kazusa	-6392
▁ability	-6393
▁passing	-6394
▁dispatch	-6395
▁achievement	-6396
▁Dr	-6397
oman	-6398
yoin	-6399
ppuku	-6400
master	-6401
▁invol	-6402
▁steam	-6403
▁enjoyed	-6404
▁Transport	-6405
▁understand	-6406
▁possibility	-6407
ikki	-6408
▁124	-6409
esuke	-6410
hrone	-6411
▁Brit	-6412
▁Rokujo	-6413
▁Sessho	-6414
▁cousin	-6415
▁finished	-6416
▁studying	-6417
▁integrated	-6418
So	-6419
To	-6420
▁SEN	-6421
▁boat	-6422
▁ways	-6423
▁aimed	-6424
▁behav	-6425
▁interpre	-6426
▁characteristic	-6427
Ass	-6428
ule	-6429
ayoi	-6430
aiden	-6431
uraku	-6432
▁rock	-6433
▁newsp	-6434
▁Yoshida	-6435
▁professor	-6436
▁Ab	-6437
▁Rel	-6438
▁Ryu	-6439
▁tas	-6440
rical	-6441
▁sick	-6442
etsuna	-6443
▁sculpt	-6444
▁College	-6445
▁Okinawa	-6446
▁expanded	-6447
▁abandoned	-6448
▁Gu	-6449
▁146	-6450
▁arg	-6451
▁tun	-6452
▁Waka	-6453
▁OUCHI	-6454
▁Kanrei	-6455
▁subjug	-6456
▁archery	-6457
▁carrying	-6458
▁governed	-6459
▁centralized	-6460
ubi	-6461
irin	-6462
▁CHI	-6463
▁pup	-6464
▁eyes	-6465
▁navy	-6466
▁stew	-6467
family	-6468
▁mouth	-6469
anosuke	-6470
▁secular	-6471
▁displayed	-6472
▁corresponding	-6473
dep	-6474
emor	-6475
▁101	-6476
▁tok	-6477
ilized	-6478
▁Kotsu	-6479
▁Sanin	-6480
▁evalu	-6481
▁fifty	-6482
ebiishi	-6483
▁better	-6484
▁border	-6485
▁effort	-6486
▁campaign	-6487
▁constable	-6488
▁containing	-6489
▁translation	-6490
akko	-6491
ogan	-6492
▁our	-6493
▁miss	-6494
▁Fukui	-6495
▁compl	-6496
▁extra	-6497
▁10,000	-6498
▁devoted	-6499
▁Represent	-6500
▁Bes	-6501
▁mom	-6502
▁Mong	-6503
▁shot	-6504
▁Omiya	-6505
▁Otani	-6506
▁Yasum	-6507
January	-6508
▁crossing	-6509
▁ceremonial	-6510
temp	-6511
unce	-6512
based	-6513
▁easy	-6514
▁flat	-6515
▁rate	-6516
ranked	-6517
▁Diary	-6518
▁mochi	-6519
▁celebrated	-6520
▁121	-6521
isdom	-6522
▁Serv	-6523
▁miso	-6524
▁armed	-6525
▁Russia	-6526
▁SUGAWARA	-6527
ZUKI	-6528
teru	-6529
uble	-6530
▁130	-6531
anaga	-6532
eight	-6533
selor	-6534
ichika	-6535
▁Chugu	-6536
▁HATAKE	-6537
▁Limited	-6538
▁praised	-6539
eo	-6540
osite	-6541
iberal	-6542
▁estim	-6543
sequent	-6544
▁strugg	-6545
▁drawing	-6546
▁concentr	-6547
▁indicated	-6548
▁HATAKEYAMA	-6549
▁reorganized	-6550
ppo	-6551
aked	-6552
▁Dem	-6553
▁lim	-6554
about	-6555
field	-6556
harma	-6557
isher	-6558
▁Moro	-6559
▁OKUBO	-6560
▁utens	-6561
lementary	-6562
▁elements	-6563
akai	-6564
▁Gan	-6565
▁Kod	-6566
▁dancing	-6567
▁Horikawa	-6568
▁representing	-6569
▁36	-6570
▁73	-6571
▁ped	-6572
enses	-6573
▁alle	-6574
▁depri	-6575
▁tenth	-6576
▁yeast	-6577
ossible	-6578
▁caught	-6579
▁explan	-6580
▁comment	-6581
houses	-6582
▁Shikoku	-6583
▁anthology	-6584
▁Tsunayoshi	-6585
▁opposition	-6586
▁99	-6587
akan	-6588
ingo	-6589
otai	-6590
▁Uta	-6591
▁fal	-6592
▁rat	-6593
emichi	-6594
▁Gosho	-6595
▁SAITO	-6596
▁dates	-6597
▁images	-6598
▁Tottori	-6599
hereditary	-6600
▁Nagayoshi	-6601
▁arrangement	-6602
▁residential	-6603
ica	-6604
▁Par	-6605
▁bun	-6606
▁Jito	-6607
▁Kaoru	-6608
▁exemp	-6609
▁proce	-6610
▁prefer	-6611
▁Daigaku	-6612
▁Society	-6613
▁costume	-6614
▁science	-6615
▁thereby	-6616
▁punished	-6617
cm	-6618
▁2.	-6619
▁lik	-6620
anari	-6621
▁pine	-6622
▁Shiro	-6623
▁Priest	-6624
▁stored	-6625
▁captain	-6626
▁understood	-6627
▁organizations	-6628
TTA	-6629
izan	-6630
▁174	-6631
▁Dait	-6632
▁HORI	-6633
ancient	-6634
▁Kenshin	-6635
▁economy	-6636
▁Yoshihiro	-6637
▁protected	-6638
▁entertainment	-6639
SAWA	-6640
aigh	-6641
▁oblig	-6642
▁theat	-6643
▁thanks	-6644
▁Matsuri	-6645
▁percent	-6646
▁offering	-6647
▁sovereignty	-6648
ux	-6649
▁Bl	-6650
such	-6651
▁173	-6652
▁176	-6653
action	-6654
▁alone	-6655
▁Reform	-6656
▁reward	-6657
▁America	-6658
▁expected	-6659
▁impossible	-6660
Kei	-6661
two	-6662
taka	-6663
▁park	-6664
lusion	-6665
▁Chiku	-6666
▁branches	-6667
▁imported	-6668
▁Yoshisada	-6669
▁initially	-6670
aby	-6671
ichim	-6672
▁bron	-6673
▁HASHI	-6674
▁Kawar	-6675
▁drink	-6676
▁rakugo	-6677
ironment	-6678
▁Kameoka	-6679
▁fishing	-6680
▁setting	-6681
▁shogunal	-6682
▁differences	-6683
aryo	-6684
onym	-6685
▁148	-6686
azono	-6687
icate	-6688
▁journ	-6689
▁Branch	-6690
▁Nagano	-6691
▁Police	-6692
▁Region	-6693
▁phrase	-6694
▁Imagawa	-6695
▁Emperors	-6696
▁Railways	-6697
▁combined	-6698
▁prefixed	-6699
▁visiting	-6700
▁worshipped	-6701
▁Subsequently	-6702
Kyo	-6703
tei	-6704
▁ka	-6705
vate	-6706
▁Mag	-6707
▁tat	-6708
aekje	-6709
illeg	-6710
▁DATE	-6711
▁heart	-6712
uilding	-6713
▁Garden	-6714
▁Yoshihisa	-6715
▁*	-6716
Hist	-6717
comm	-6718
▁tor	-6719
odies	-6720
▁Onmy	-6721
▁Civil	-6722
▁defin	-6723
▁write	-6724
▁Katsur	-6725
arp	-6726
▁(3	-6727
owed	-6728
▁Both	-6729
▁send	-6730
direct	-6731
▁acting	-6732
December	-6733
▁Besides	-6734
▁arrested	-6735
▁drinking	-6736
▁Administr	-6737
▁Disturbance	-6738
▁inscription	-6739
▁Lo	-6740
▁YU	-6741
oban	-6742
unci	-6743
▁AKA	-6744
isada	-6745
oshiki	-6746
▁gates	-6747
▁Keicho	-6748
▁Sekkan	-6749
▁preced	-6750
▁attempt	-6751
▁ferment	-6752
▁Murasaki	-6753
▁Republic	-6754
iles	-6755
▁amb	-6756
▁lin	-6757
▁frame	-6758
▁claimed	-6759
▁rapidly	-6760
YU	-6761
ige	-6762
▁ky	-6763
▁gra	-6764
orrow	-6765
priate	-6766
▁bronze	-6767
ineering	-6768
▁confront	-6769
▁Yoshimoto	-6770
▁conflicts	-6771
▁messenger	-6772
enc	-6773
▁135	-6774
▁Abo	-6775
imori	-6776
oring	-6777
aneous	-6778
▁Heijo	-6779
▁ghost	-6780
imeters	-6781
military	-6782
▁Special	-6783
▁Fukushima	-6784
uff	-6785
vis	-6786
▁fu	-6787
piec	-6788
▁Kib	-6789
iture	-6790
mochi	-6791
onent	-6792
▁Okubo	-6793
▁Shomu	-6794
▁Makino	-6795
ynasties	-6796
▁Momoyama	-6797
▁departed	-6798
▁recently	-6799
▁criticism	-6800
▁operating	-6801
▁cooperation	-6802
▁educational	-6803
isu	-6804
isai	-6805
izes	-6806
yogo	-6807
▁HON	-6808
▁fir	-6809
itama	-6810
where	-6811
▁subst	-6812
▁daisho	-6813
▁reputation	-6814
fr	-6815
aug	-6816
▁29	-6817
▁sn	-6818
▁Wat	-6819
▁Form	-6820
▁MIZU	-6821
▁blue	-6822
icious	-6823
ushing	-6824
▁Nikko	-6825
▁Ryoma	-6826
▁Yaman	-6827
▁benef	-6828
▁engra	-6829
▁Kyogen	-6830
▁Rinzai	-6831
▁genealogy	-6832
▁secretary	-6833
add	-6834
▁78	-6835
seki	-6836
▁cat	-6837
▁kon	-6838
wheat	-6839
▁Shir	-6840
▁Ritsu	-6841
brother	-6842
diction	-6843
),'	-6844
▁We	-6845
▁mob	-6846
rench	-6847
▁edge	-6848
▁hill	-6849
▁leaf	-6850
▁pour	-6851
▁fresh	-6852
▁Taisha	-6853
▁facing	-6854
issioner	-6855
▁lacquer	-6856
▁players	-6857
▁Expressway	-6858
▁competition	-6859
▁distribution	-6860
unk	-6861
▁impl	-6862
▁Hogen	-6863
▁Shiba	-6864
▁flute	-6865
▁noted	-6866
▁spent	-6867
▁confisc	-6868
▁unclear	-6869
▁accompany	-6870
▁International	-6871
▁114	-6872
▁Ino	-6873
Chief	-6874
awase	-6875
oking	-6876
▁NIJO	-6877
mption	-6878
▁MAEDA	-6879
▁Capital	-6880
▁preserved	-6881
St	-6882
ites	-6883
jime	-6884
agaki	-6885
inent	-6886
utoku	-6887
▁Each	-6888
▁Koga	-6889
▁laid	-6890
ichiro	-6891
▁Taiho	-6892
▁doing	-6893
amental	-6894
▁completion	-6895
▁90	-6896
akyo	-6897
▁hid	-6898
Tokyo	-6899
ailed	-6900
▁Shib	-6901
▁acts	-6902
▁loved	-6903
▁owner	-6904
▁Nishin	-6905
▁skills	-6906
▁display	-6907
▁inherit	-6908
▁killing	-6909
▁trading	-6910
▁opposite	-6911
▁secretly	-6912
▁assassinated	-6913
fuk	-6914
KAMI	-6915
▁175	-6916
onden	-6917
▁Hisa	-6918
▁seek	-6919
▁Prime	-6920
▁plate	-6921
▁Kitano	-6922
▁shaped	-6923
▁Nihongi	-6924
▁predecess	-6925
▁Christianity	-6926
hun	-6927
▁71	-6928
KADO	-6929
▁172	-6930
▁Ume	-6931
▁Yak	-6932
▁inn	-6933
acter	-6934
▁Chok	-6935
airman	-6936
▁advoc	-6937
▁illeg	-6938
▁filled	-6939
▁Academy	-6940
▁Niigata	-6941
▁suppress	-6942
▁flourished	-6943
▁governmental	-6944
pass	-6945
taro	-6946
▁Koy	-6947
▁Oki	-6948
uting	-6949
▁kuge	-6950
▁sched	-6951
▁Indust	-6952
▁Susano	-6953
▁income	-6954
▁prayers	-6955
▁princes	-6956
▁agreement	-6957
▁overthrow	-6958
AMO	-6959
log	-6960
▁rob	-6961
aight	-6962
ogawa	-6963
there	-6964
utive	-6965
Middle	-6966
▁elect	-6967
▁Nippon	-6968
▁attain	-6969
▁Rokkaku	-6970
▁demonstr	-6971
▁ancestors	-6972
▁Chamberlain	-6973
▁consideration	-6974
nam	-6975
▁Abe	-6976
▁Ono	-6977
▁tur	-6978
third	-6979
vated	-6980
▁narr	-6981
stream	-6982
▁Their	-6983
▁Throne	-6984
National	-6985
▁Studies	-6986
▁contemp	-6987
▁Sanetomo	-6988
▁overseas	-6989
osu	-6990
ball	-6991
uild	-6992
▁Nit	-6993
bushi	-6994
onomy	-6995
▁plum	-6996
▁trip	-6997
orters	-6998
uisine	-6999
▁Sanyo	-7000
▁cooper	-7001
▁looked	-7002
▁namely	-7003
▁nationwide	-7004
unts	-7005
▁Mie	-7006
▁ign	-7007
▁France	-7008
▁sevent	-7009
▁Mausoleum	-7010
▁Literature	-7011
▁researcher	-7012
▁temperature	-7013
apes	-7014
boku	-7015
▁clos	-7016
▁shosho	-7017
▁colored	-7018
▁servant	-7019
▁Thousand	-7020
▁Yokohama	-7021
▁manuscripts	-7022
▁opportunity	-7023
▁152	-7024
▁Daj	-7025
▁Chug	-7026
▁KONDO	-7027
▁Poems	-7028
▁stops	-7029
▁register	-7030
▁visitors	-7031
▁retirement	-7032
▁neighboring	-7033
▁hom	-7034
▁wel	-7035
▁cred	-7036
▁enjoy	-7037
andokoro	-7038
▁folding	-7039
▁systems	-7040
▁Hakodate	-7041
▁subjects	-7042
▁occasions	-7043
▁Incidentally	-7044
ny	-7045
Han	-7046
play	-7047
▁pal	-7048
inobu	-7049
izens	-7050
▁Kujo	-7051
▁dang	-7052
▁helped	-7053
uckwheat	-7054
▁histori	-7055
▁quickly	-7056
▁situated	-7057
urisdiction	-7058
▁represented	-7059
alt	-7060
rec	-7061
▁33	-7062
Head	-7063
SAKA	-7064
fted	-7065
seud	-7066
▁Hino	-7067
pected	-7068
seeing	-7069
▁inaug	-7070
▁looks	-7071
▁Baekje	-7072
▁consul	-7073
▁discontinued	-7074
▁Ibar	-7075
efense	-7076
themum	-7077
▁Hashi	-7078
▁Jomon	-7079
▁Techn	-7080
▁truth	-7081
▁episode	-7082
▁invaded	-7083
▁judicial	-7084
▁Especially	-7085
▁convention	-7086
▁134	-7087
tenno	-7088
▁KATO	-7089
▁cake	-7090
idents	-7091
▁absor	-7092
▁adopt	-7093
▁Mongol	-7094
▁plants	-7095
▁recommend	-7096
Con	-7097
▁ga	-7098
hata	-7099
akage	-7100
▁titled	-7101
▁Temples	-7102
santhemum	-7103
KINO	-7104
urch	-7105
▁147	-7106
▁cup	-7107
Shoku	-7108
aches	-7109
Master	-7110
Shinto	-7111
atsuna	-7112
▁Tozai	-7113
▁dated	-7114
▁least	-7115
▁ruler	-7116
▁Master	-7117
▁Saicho	-7118
▁edited	-7119
▁attitude	-7120
▁progress	-7121
ette	-7122
▁Char	-7123
▁clim	-7124
▁Bungo	-7125
▁Lotus	-7126
▁Rapid	-7127
▁broken	-7128
▁decorated	-7129
▁compilation	-7130
hab	-7131
▁96	-7132
▁Ed	-7133
▁Ei	-7134
▁Qu	-7135
ague	-7136
Matsu	-7137
itory	-7138
▁dial	-7139
atoshi	-7140
formed	-7141
▁Yayoi	-7142
▁plant	-7143
▁seats	-7144
▁museum	-7145
▁closely	-7146
▁goddess	-7147
▁printed	-7148
▁electric	-7149
▁founding	-7150
▁personnel	-7151
▁producing	-7152
▁specified	-7153
18	-7154
▁dog	-7155
NISHI	-7156
▁1868,	-7157
▁Sixth	-7158
general	-7159
▁valued	-7160
▁revived	-7161
▁Masanori	-7162
▁survived	-7163
Ak	-7164
EI	-7165
▁(7	-7166
▁66	-7167
▁123	-7168
▁unf	-7169
TSUKA	-7170
ikado	-7171
▁Sait	-7172
▁Local	-7173
▁Ogura	-7174
▁reach	-7175
▁access	-7176
▁resemb	-7177
▁strengthe	-7178
▁monogatari	-7179
Shim	-7180
▁Are	-7181
▁Bon	-7182
▁Ord	-7183
first	-7184
guard	-7185
iform	-7186
▁KUSU	-7187
▁Oaza	-7188
▁perf	-7189
▁squad	-7190
▁watch	-7191
▁YAMANA	-7192
▁prosperity	-7193
"(	-7194
aul	-7195
mos	-7196
anao	-7197
bumi	-7198
▁Est	-7199
▁sek	-7200
amune	-7201
emiko	-7202
onshu	-7203
▁Prom	-7204
▁Tori	-7205
▁soul	-7206
▁Inaba	-7207
▁Kazan	-7208
▁foods	-7209
▁Boshin	-7210
▁Tajima	-7211
▁moment	-7212
▁elementary	-7213
▁previously	-7214
▁significant	-7215
May	-7216
til	-7217
▁82	-7218
▁ap	-7219
▁125	-7220
▁128	-7221
▁bed	-7222
ankai	-7223
▁shell	-7224
▁invent	-7225
▁search	-7226
▁unlike	-7227
▁Iwakura	-7228
▁consist	-7229
▁results	-7230
▁connecting	-7231
Nag	-7232
▁Ha	-7233
▁um	-7234
uman	-7235
▁Aut	-7236
▁Kad	-7237
adays	-7238
apsed	-7239
ipped	-7240
▁Lord	-7241
▁Kondo	-7242
▁sutras	-7243
▁Mandala	-7244
forcement	-7245
▁security	-7246
▁centimeters	-7247
▁bit	-7248
▁fos	-7249
acing	-7250
▁Raku	-7251
▁Yang	-7252
▁baby	-7253
▁rear	-7254
▁marry	-7255
▁Yoriie	-7256
▁supply	-7257
▁cutting	-7258
▁whereas	-7259
▁European	-7260
▁Hideyori	-7261
▁Headquarters	-7262
▁interpretation	-7263
...	-7264
equ	-7265
ows	-7266
ails	-7267
sour	-7268
this	-7269
▁Yaw	-7270
▁die	-7271
March	-7272
▁TANAKA	-7273
▁approv	-7274
▁Nenbutsu	-7275
▁chapters	-7276
▁proposal	-7277
▁Engishiki	-7278
▁Secretary	-7279
▁Shigemori	-7280
▁importance	-7281
▁subsequent	-7282
bai	-7283
mik	-7284
▁81	-7285
▁Da	-7286
NABE	-7287
draw	-7288
uthe	-7289
zaka	-7290
▁Sui	-7291
▁bul	-7292
▁ever	-7293
▁Moron	-7294
▁raise	-7295
▁Culture	-7296
▁KATSURA	-7297
▁animals	-7298
▁SAKANOUE	-7299
▁suitable	-7300
▁Hidetsugu	-7301
how	-7302
KATA	-7303
NOKI	-7304
yard	-7305
▁Suo	-7306
▁nun	-7307
anshu	-7308
▁argu	-7309
agement	-7310
adu	-7311
omyo	-7312
ifusa	-7313
▁Engi	-7314
▁luck	-7315
rapher	-7316
▁Horyu	-7317
▁IKEDA	-7318
▁sales	-7319
▁villa	-7320
▁Kaneie	-7321
▁Sukune	-7322
▁unified	-7323
unciation	-7324
velopment	-7325
▁Shimogyo	-7326
▁behavior	-7327
Noh	-7328
ble	-7329
uit	-7330
hana	-7331
many	-7332
▁yam	-7333
azane	-7334
▁Haru	-7335
▁dark	-7336
▁powder	-7337
▁continue	-7338
▁rejected	-7339
▁BA	-7340
brev	-7341
▁Not	-7342
eties	-7343
▁pair	-7344
arding	-7345
emochi	-7346
verage	-7347
▁Jinmu	-7348
▁exerc	-7349
▁Emishi	-7350
▁assemb	-7351
▁revolt	-7352
February	-7353
▁HAYASHI	-7354
▁staying	-7355
▁streets	-7356
▁Councilor	-7357
▁formation	-7358
▁movements	-7359
▁vic	-7360
ician	-7361
▁Ikko	-7362
▁frag	-7363
acific	-7364
▁Award	-7365
▁girls	-7366
▁Hakata	-7367
▁KURODA	-7368
▁ladies	-7369
▁whereby	-7370
▁citizens	-7371
▁believers	-7372
▁indicating	-7373
Su	-7374
ema	-7375
▁77	-7376
NAGI	-7377
▁139	-7378
▁Shit	-7379
▁Ueno	-7380
▁wore	-7381
▁depict	-7382
▁nearly	-7383
▁partly	-7384
▁trying	-7385
▁calling	-7386
▁contrib	-7387
▁anecdote	-7388
ysanthemum	-7389
▁Generally	-7390
▁composition	-7391
▁considering	-7392
▁collectively	-7393
pre	-7394
▁98	-7395
miya	-7396
rent	-7397
room	-7398
▁Sam	-7399
▁Sank	-7400
▁Onmyo	-7401
▁burnt	-7402
▁speed	-7403
▁circle	-7404
▁cuisine	-7405
▁fundoshi	-7406
▁nickname	-7407
▁revealed	-7408
▁estimated	-7409
▁Matsudaira	-7410
sy	-7411
ses	-7412
▁Rak	-7413
▁calc	-7414
▁elim	-7415
atsume	-7416
▁Asian	-7417
▁agreed	-7418
▁Genroku	-7419
▁centered	-7420
▁Yoshitoki	-7421
▁effective	-7422
▁philosophy	-7423
▁pilgrimage	-7424
▁corresponds	-7425
▁consequently	-7426
obi	-7427
▁IS	-7428
abha	-7429
mori	-7430
▁Bic	-7431
▁Ezo	-7432
tsuna	-7433
▁Died	-7434
▁corp	-7435
▁week	-7436
endent	-7437
ceremon	-7438
▁Saemon	-7439
▁stream	-7440
▁Shogoino	-7441
▁declared	-7442
▁straight	-7443
▁Yoshiteru	-7444
tea	-7445
▁86	-7446
cken	-7447
hole	-7448
made	-7449
▁ONOE	-7450
ardens	-7451
▁Kochi	-7452
▁Oyama	-7453
▁tanka	-7454
▁Daitoku	-7455
▁selling	-7456
▁residences	-7457
),"	-7458
agyo	-7459
lord	-7460
▁Eki	-7461
▁INA	-7462
▁Kis	-7463
▁mak	-7464
▁Asahi	-7465
▁tales	-7466
▁Yamada	-7467
▁larger	-7468
▁resided	-7469
▁Masamoto	-7470
▁customers	-7471
▁decreased	-7472
▁suggested	-7473
▁repeatedly	-7474
▁Kyu	-7475
aimed	-7476
small	-7477
▁Maru	-7478
▁pron	-7479
▁Saion	-7480
▁Tanabe	-7481
▁writer	-7482
▁Railroad	-7483
▁Yorinaga	-7484
▁classics	-7485
▁Historical	-7486
ika	-7487
amik	-7488
▁Leg	-7489
▁lan	-7490
▁Lady	-7491
▁mirror	-7492
▁fortune	-7493
▁Kanagawa	-7494
▁Takakuni	-7495
▁OE	-7496
born	-7497
inal	-7498
olid	-7499
▁132	-7500
▁YAM	-7501
acent	-7502
cious	-7503
▁Haku	-7504
onomiya	-7505
▁passage	-7506
▁smaller	-7507
▁realized	-7508
▁Interchange	-7509
ota	-7510
ulg	-7511
▁Sw	-7512
▁dw	-7513
▁vo	-7514
raku	-7515
inger	-7516
oraku	-7517
▁Sanj	-7518
▁Komyo	-7519
▁clean	-7520
resents	-7521
▁Normal	-7522
▁Studio	-7523
▁unable	-7524
▁category	-7525
▁referring	-7526
▁Consequently	-7527
alle	-7528
anga	-7529
udon	-7530
▁126	-7531
▁zen	-7532
▁Maki	-7533
▁Shonin	-7534
▁Nagaoka	-7535
▁Toshiie	-7536
▁indicate	-7537
Hig	-7538
Hok	-7539
Wak	-7540
aken	-7541
with	-7542
apers	-7543
azawa	-7544
▁Moku	-7545
▁Kongo	-7546
▁holds	-7547
▁twice	-7548
▁storyt	-7549
▁Odawara	-7550
▁feature	-7551
▁governing	-7552
▁represents	-7553
▁85	-7554
hyoe	-7555
▁jun	-7556
essel	-7557
opular	-7558
unched	-7559
▁nomin	-7560
▁Kyogoku	-7561
▁erected	-7562
▁univers	-7563
▁chamberlain	-7564
▁preparation	-7565
▁accompaniment	-7566
▁reconstructed	-7567
▁(8	-7568
aint	-7569
amen	-7570
oked	-7571
▁adm	-7572
▁skin	-7573
▁soft	-7574
▁spot	-7575
▁tofu	-7576
otsune	-7577
▁merit	-7578
asawara	-7579
▁Ryukyu	-7580
▁hakama	-7581
▁inaugur	-7582
▁waiting	-7583
Ts	-7584
cle	-7585
eme	-7586
▁ago	-7587
eding	-7588
overy	-7589
▁Togoku	-7590
▁Tsuruga	-7591
▁enacted	-7592
▁vicinity	-7593
▁mythology	-7594
▁settlement	-7595
yond	-7596
▁Gin	-7597
▁Hay	-7598
archy	-7599
▁ichi	-7600
▁trig	-7601
icture	-7602
ternal	-7603
▁forty	-7604
▁gives	-7605
▁thing	-7606
▁trend	-7607
▁French	-7608
▁career	-7609
▁junior	-7610
▁moving	-7611
▁hanging	-7612
▁library	-7613
▁numerous	-7614
▁discussed	-7615
Kai	-7616
▁Ty	-7617
▁149	-7618
aging	-7619
quake	-7620
▁Gold	-7621
▁test	-7622
piracy	-7623
urally	-7624
▁flood	-7625
related	-7626
▁arrows	-7627
▁corner	-7628
▁twelve	-7629
▁blossoms	-7630
▁Yoshitada	-7631
▁collapsed	-7632
▁combination	-7633
▁jurisdiction	-7634
▁88	-7635
▁113	-7636
▁mai	-7637
abara	-7638
▁reno	-7639
▁KANZE	-7640
▁doesn	-7641
▁Pacific	-7642
▁locations	-7643
▁cloistered	-7644
▁manufacturing	-7645
▁RO	-7646
▁Let	-7647
Heian	-7648
ongen	-7649
▁beat	-7650
▁note	-7651
arious	-7652
▁cards	-7653
▁persu	-7654
▁units	-7655
▁issues	-7656
▁prison	-7657
▁Daikaku	-7658
▁Saionji	-7659
▁scrolls	-7660
▁detailed	-7661
▁Jugoinojo	-7662
▁predecessor	-7663
▁assassination	-7664
ild	-7665
set	-7666
▁Zu	-7667
oken	-7668
▁(10	-7669
▁Fur	-7670
hitsu	-7671
umiya	-7672
▁Arit	-7673
NOMIYA	-7674
▁Women	-7675
matsuri	-7676
▁Campus	-7677
▁vessel	-7678
▁favored	-7679
▁roughly	-7680
▁Kanezane	-7681
government	-7682
▁(9	-7683
▁31	-7684
▁87	-7685
▁(14	-7686
▁Fuj	-7687
▁Kud	-7688
▁aro	-7689
▁tan	-7690
▁Kishi	-7691
▁altar	-7692
▁doubt	-7693
▁notes	-7694
▁SASAKI	-7695
▁sought	-7696
▁constit	-7697
▁utensils	-7698
▁valuable	-7699
▁confusion	-7700
▁reconstruction	-7701
gai	-7702
▁109	-7703
▁Fud	-7704
etomo	-7705
▁Hoki	-7706
▁hung	-7707
▁moat	-7708
▁mour	-7709
▁wine	-7710
▁Shoso	-7711
▁Takas	-7712
▁abroad	-7713
▁wealthy	-7714
▁presence	-7715
▁underground	-7716
▁fit	-7717
aidai	-7718
apter	-7719
night	-7720
▁kosa	-7721
▁sole	-7722
▁MIZUNO	-7723
▁actions	-7724
▁apparen	-7725
▁confined	-7726
▁municipal	-7727
Kon	-7728
umin	-7729
▁bag	-7730
▁mel	-7731
emune	-7732
August	-7733
▁curry	-7734
▁patri	-7735
▁artist	-7736
▁supreme	-7737
▁creation	-7738
▁describe	-7739
▁quarters	-7740
▁Bodhisattva	-7741
▁(13	-7742
▁131	-7743
▁Sas	-7744
▁Tea	-7745
akawa	-7746
▁Sein	-7747
▁tact	-7748
▁keeping	-7749
▁manager	-7750
▁observed	-7751
▁writings	-7752
cellaneous	-7753
▁Construct	-7754
▁entrusted	-7755
▁resistance	-7756
▁appropriate	-7757
▁investigation	-7758
▁&	-7759
July	-7760
bing	-7761
▁net	-7762
▁ton	-7763
Heike	-7764
▁Taro	-7765
▁acid	-7766
▁tall	-7767
▁katsu	-7768
▁rooms	-7769
▁normal	-7770
▁scenes	-7771
▁incense	-7772
▁objects	-7773
▁sitting	-7774
▁Director	-7775
▁ISHIKAWA	-7776
▁possession	-7777
OCA	-7778
oom	-7779
▁MU	-7780
imon	-7781
orig	-7782
phere	-7783
▁forg	-7784
▁Kenmu	-7785
▁Kokin	-7786
▁Tandai	-7787
▁multip	-7788
▁Asakura	-7789
hay	-7790
iant	-7791
irth	-7792
vana	-7793
bukyo	-7794
fully	-7795
sauce	-7796
▁Higo	-7797
▁prep	-7798
▁vine	-7799
azuchi	-7800
▁Board	-7801
▁Kosho	-7802
▁Stand	-7803
current	-7804
▁beyond	-7805
▁contest	-7806
▁Commerce	-7807
▁KUSUNOKI	-7808
▁Sumiyoshi	-7809
▁Taishogun	-7810
▁Uz	-7811
▁127	-7812
▁gin	-7813
▁wet	-7814
acked	-7815
asury	-7816
▁Shoin	-7817
▁entit	-7818
▁dramas	-7819
▁masters	-7820
▁launched	-7821
▁Continued	-7822
▁calligraphic	-7823
Am	-7824
lete	-7825
April	-7826
hishi	-7827
▁Tane	-7828
▁brig	-7829
Period	-7830
olitan	-7831
▁block	-7832
▁mounds	-7833
▁emerged	-7834
▁growing	-7835
▁guarded	-7836
▁negotiations	-7837
▁posthumously	-7838
▁Sue	-7839
aling	-7840
elfth	-7841
▁girl	-7842
▁kata	-7843
▁raid	-7844
▁exile	-7845
▁Nobutada	-7846
▁YAMAMOTO	-7847
▁procedures	-7848
▁relationships	-7849
Jin	-7850
acts	-7851
chen	-7852
icks	-7853
ping	-7854
enobu	-7855
story	-7856
▁Kaku	-7857
▁Ushi	-7858
▁cris	-7859
▁flag	-7860
▁pure	-7861
▁roll	-7862
▁approval	-7863
▁expelled	-7864
▁pressure	-7865
▁ownership	-7866
ads	-7867
apt	-7868
uba	-7869
usu	-7870
xts	-7871
amic	-7872
ects	-7873
fort	-7874
▁bud	-7875
▁dan	-7876
▁jito	-7877
Prince	-7878
ctions	-7879
ertain	-7880
feudal	-7881
▁Heiji	-7882
atively	-7883
▁Akashi	-7884
▁Suzaku	-7885
▁IWAKURA	-7886
▁Ibaraki	-7887
▁KATAOKA	-7888
▁American	-7889
▁Yamazaki	-7890
▁categorized	-7891
bs	-7892
pen	-7893
rog	-7894
supp	-7895
▁Ran	-7896
mitsu	-7897
aptain	-7898
reater	-7899
▁Jokyu	-7900
▁Tochi	-7901
▁vehic	-7902
▁bodies	-7903
▁nearby	-7904
governor	-7905
▁Saitama	-7906
Assistant	-7907
▁affected	-7908
▁formerly	-7909
▁responsibility	-7910
bot	-7911
eto	-7912
see	-7913
okoji	-7914
rough	-7915
▁roju	-7916
uncill	-7917
yamuni	-7918
▁bills	-7919
aughter	-7920
henomen	-7921
▁degree	-7922
▁remark	-7923
▁talent	-7924
mountain	-7925
▁advisor	-7926
▁demoted	-7927
▁weapons	-7928
▁railways	-7929
▁129	-7930
▁Oji	-7931
▁Iked	-7932
▁hero	-7933
▁onto	-7934
▁Awaji	-7935
▁OISHI	-7936
▁adult	-7937
▁regents	-7938
▁scatter	-7939
▁Development	-7940
▁Kawaramachi	-7941
Th	-7942
▁->	-7943
▁Toji	-7944
▁shel	-7945
▁dream	-7946
▁exact	-7947
▁usage	-7948
▁Yawata	-7949
▁Russian	-7950
▁belongs	-7951
▁Misasagi	-7952
▁banished	-7953
▁presumed	-7954
▁inscribed	-7955
▁provisions	-7956
▁successfully	-7957
amb	-7958
▁144	-7959
▁kana	-7960
▁Found	-7961
▁doors	-7962
▁texts	-7963
utheast	-7964
▁Having	-7965
▁forward	-7966
▁trusted	-7967
September	-7968
▁commenced	-7969
▁cultivation	-7970
Edo	-7971
wak	-7972
yan	-7973
▁84	-7974
▁TE	-7975
Kore	-7976
▁Uts	-7977
▁ask	-7978
▁ult	-7979
abata	-7980
akiyo	-7981
otton	-7982
▁Only	-7983
▁pard	-7984
amochi	-7985
ension	-7986
▁Nikki	-7987
▁Tatsu	-7988
▁Zeami	-7989
▁kugyo	-7990
▁ruins	-7991
▁Hundred	-7992
chimikado	-7993
▁improved	-7994
himinomiya	-7995
ographical	-7996
▁Yoshiharu	-7997
▁converted	-7998
▁expansion	-7999
▁examination	-8000
▁pronunciation	-8001
▁Mit	-8002
▁nur	-8003
Great	-8004
ukuro	-8005
▁HINO	-8006
▁KOBA	-8007
ushimi	-8008
▁Shoki	-8009
▁plain	-8010
▁suppl	-8011
October	-8012
▁Kengyo	-8013
▁Service	-8014
▁manners	-8015
▁Munemori	-8016
▁familiar	-8017
▁Masashige	-8018
▁dissolved	-8019
▁enthroned	-8020
▁Shoshiinoge	-8021
▁improvement	-8022
HK	-8023
new	-8024
oni	-8025
▁69	-8026
KOJI	-8027
prin	-8028
▁hen	-8029
Gyoku	-8030
gment	-8031
▁peak	-8032
▁blade	-8033
▁comic	-8034
▁draft	-8035
▁false	-8036
▁photo	-8037
▁YANAGI	-8038
▁perman	-8039
▁regime	-8040
▁threat	-8041
November	-8042
▁farming	-8043
▁fiction	-8044
▁landscape	-8045
TOMI	-8046
urin	-8047
▁136	-8048
▁Fam	-8049
▁Pre	-8050
sized	-8051
▁Sado	-8052
▁news	-8053
▁stab	-8054
itsugu	-8055
▁Until	-8056
▁faced	-8057
▁horiz	-8058
▁candid	-8059
▁uniform	-8060
▁providing	-8061
▁experience	-8062
▁Fut	-8063
heiki	-8064
anship	-8065
▁Gradu	-8066
▁beans	-8067
▁stall	-8068
General	-8069
▁losing	-8070
▁classes	-8071
▁counted	-8072
▁commemor	-8073
▁magazine	-8074
▁phenomen	-8075
▁technology	-8076
off	-8077
▁beg	-8078
cloth	-8079
omoto	-8080
▁Kara	-8081
▁cler	-8082
▁halls	-8083
▁simpl	-8084
▁Dazaifu	-8085
▁strings	-8086
▁covering	-8087
▁enforced	-8088
▁invented	-8089
▁necessarily	-8090
Ta	-8091
▁Oy	-8092
Many	-8093
▁eye	-8094
emies	-8095
▁knew	-8096
▁Asano	-8097
▁ICOCA	-8098
▁Imade	-8099
▁atmos	-8100
▁blind	-8101
▁chest	-8102
▁wrong	-8103
▁Bicchu	-8104
▁Muraji	-8105
▁Tenjin	-8106
▁hunting	-8107
▁neither	-8108
▁reforms	-8109
▁delivered	-8110
▁characterized	-8111
20	-8112
▁97	-8113
engo	-8114
itor	-8115
jiri	-8116
gered	-8117
ogami	-8118
igious	-8119
▁Tetsu	-8120
▁fully	-8121
▁machi	-8122
▁surpr	-8123
▁Naishi	-8124
▁kabane	-8125
▁resour	-8126
Ministry	-8127
seudonym	-8128
▁daytime	-8129
ropolitan	-8130
▁servants	-8131
▁suspended	-8132
god	-8133
nai	-8134
ray	-8135
ton	-8136
▁64	-8137
isan	-8138
▁kaz	-8139
SHINA	-8140
angan	-8141
refer	-8142
▁Juro	-8143
▁loss	-8144
▁armor	-8145
▁check	-8146
▁carved	-8147
▁foster	-8148
▁kokuga	-8149
▁patron	-8150
▁chicken	-8151
▁feeling	-8152
▁locomot	-8153
▁nenbutsu	-8154
▁conference	-8155
Nan	-8156
▁Oi	-8157
acle	-8158
apse	-8159
ears	-8160
ikami	-8161
lings	-8162
▁Gaku	-8163
▁shug	-8164
▁taxi	-8165
▁Peers	-8166
▁Chinju	-8167
▁Dajokan	-8168
▁license	-8169
▁entitled	-8170
▁retreated	-8171
▁performers	-8172
Yo	-8173
▁(6	-8174
lers	-8175
▁110	-8176
imune	-8177
reful	-8178
▁Chuo	-8179
▁KANO	-8180
▁SUGI	-8181
▁core	-8182
▁eleg	-8183
▁ends	-8184
▁gain	-8185
eshige	-8186
making	-8187
▁choja	-8188
▁ratio	-8189
ormally	-8190
▁repair	-8191
fficient	-8192
▁restore	-8193
▁Yorimichi	-8194
▁confrontation	-8195
awar	-8196
esel	-8197
▁151	-8198
level	-8199
▁Init	-8200
▁Jisho	-8201
▁cance	-8202
▁Tensho	-8203
▁extent	-8204
▁yellow	-8205
▁enemies	-8206
▁promulg	-8207
Important	-8208
▁favorite	-8209
▁purposes	-8210
▁Preservation	-8211
Sei	-8212
kes	-8213
drew	-8214
▁Aris	-8215
▁Kazu	-8216
ushiki	-8217
▁About	-8218
▁Ayabe	-8219
▁Nobum	-8220
▁dolls	-8221
▁recru	-8222
▁abbrev	-8223
▁England	-8224
▁IMAGAWA	-8225
▁deprived	-8226
▁traveled	-8227
▁distinguish	-8228
abo	-8229
amu	-8230
cal	-8231
pos	-8232
▁Oto	-8233
▁sex	-8234
motsu	-8235
▁Kimi	-8236
▁SAWA	-8237
▁guns	-8238
▁Ikoma	-8239
▁Sakur	-8240
▁Totomi	-8241
▁withdrew	-8242
▁regardless	-8243
▁classification	-8244
rip	-8245
▁ARI	-8246
arant	-8247
▁root	-8248
▁seii	-8249
▁subs	-8250
akinki	-8251
atural	-8252
▁Eizan	-8253
▁Refer	-8254
▁careful	-8255
▁complex	-8256
▁seppuku	-8257
assistant	-8258
▁Yorimasa	-8259
▁Imadegawa	-8260
▁graduated	-8261
nan	-8262
▁Koji	-8263
▁WATA	-8264
▁cond	-8265
▁pupp	-8266
▁tied	-8267
nomiya	-8268
▁ASANO	-8269
▁MIURA	-8270
▁Miyake	-8271
▁Taishi	-8272
▁raising	-8273
▁Tachibana	-8274
hie	-8275
pan	-8276
▁83	-8277
angi	-8278
bean	-8279
ifune	-8280
iscal	-8281
rehen	-8282
▁Tsug	-8283
▁Ecchu	-8284
▁Toyama	-8285
▁Shogoinoge	-8286
▁situations	-8287
ev	-8288
ocks	-8289
▁Bay	-8290
▁Fil	-8291
inter	-8292
▁GOTO	-8293
▁heav	-8294
▁swit	-8295
▁unus	-8296
▁verse	-8297
▁worth	-8298
unosuke	-8299
▁Hisahide	-8300
▁acquired	-8301
▁dominant	-8302
▁precepts	-8303
▁Elementary	-8304
▁atmosphere	-8305
▁participate	-8306
Hi	-8307
icy	-8308
gata	-8309
▁107	-8310
▁Era	-8311
▁ice	-8312
▁Sojo	-8313
▁firm	-8314
▁recl	-8315
illing	-8316
▁Manch	-8317
▁equip	-8318
▁twelfth	-8319
Sak	-8320
▁Hen	-8321
▁Out	-8322
▁wed	-8323
atoki	-8324
chome	-8325
igaku	-8326
unobu	-8327
▁HARA	-8328
▁Kori	-8329
▁team	-8330
roller	-8331
▁spots	-8332
Gyokuyo	-8333
▁rivers	-8334
▁damaged	-8335
▁creating	-8336
▁opponent	-8337
▁printing	-8338
▁strategy	-8339
▁structures	-8340
▁confiscated	-8341
▁Representatives	-8342
▁103	-8343
▁True	-8344
▁myth	-8345
▁Monjo	-8346
▁Tokiy	-8347
▁Naniwa	-8348
▁Seimei	-8349
▁Sutoku	-8350
▁movies	-8351
▁Germany	-8352
▁steamed	-8353
▁wakashu	-8354
▁Shochiku	-8355
▁announce	-8356
▁majority	-8357
▁spiritual	-8358
established	-8359
▁Afterwards	-8360
▁separately	-8361
▁sightseeing	-8362
Ke	-8363
isl	-8364
mas	-8365
▁(5	-8366
▁mut	-8367
Taira	-8368
ankyo	-8369
fried	-8370
▁Koho	-8371
▁Mibu	-8372
▁qual	-8373
ankoku	-8374
omatsu	-8375
▁broth	-8376
▁sango	-8377
casting	-8378
▁guests	-8379
Manyoshu	-8380
▁Naomasa	-8381
▁brigade	-8382
▁criminal	-8383
▁decoration	-8384
▁environment	-8385
Art	-8386
half	-8387
ster	-8388
▁Bar	-8389
▁Dec	-8390
Minor	-8391
▁Ason	-8392
▁Home	-8393
▁KIYO	-8394
▁cool	-8395
omichi	-8396
▁NITTA	-8397
▁Senju	-8398
▁rumor	-8399
iliated	-8400
▁Kyotan	-8401
▁covers	-8402
▁Keishin	-8403
▁message	-8404
▁shifted	-8405
▁stating	-8406
▁paternal	-8407
▁strictly	-8408
▁Kagekatsu	-8409
▁suppressed	-8410
▁preservation	-8411
tax	-8412
fumi	-8413
▁Sup	-8414
▁Sino	-8415
▁koji	-8416
Yamato	-8417
omachi	-8418
▁Russo	-8419
▁faces	-8420
▁grown	-8421
▁joint	-8422
▁monme	-8423
History	-8424
▁Public	-8425
▁karate	-8426
▁syllab	-8427
▁thread	-8428
uncillor	-8429
▁promote	-8430
▁sleeves	-8431
▁eleventh	-8432
▁equipped	-8433
▁Takamatsu	-8434
Go	-8435
iryo	-8436
krit	-8437
▁Mid	-8438
ching	-8439
itoki	-8440
▁Shok	-8441
▁Soto	-8442
▁page	-8443
▁2006,	-8444
▁Color	-8445
▁sharp	-8446
▁NOMURA	-8447
▁burning	-8448
▁causing	-8449
▁sources	-8450
▁Chikuzen	-8451
▁railroad	-8452
▁Biography	-8453
▁explanation	-8454
▁recognition	-8455
▁additionally	-8456
Ken	-8457
▁Ann	-8458
▁Sur	-8459
▁log	-8460
boshi	-8461
otaka	-8462
rayed	-8463
▁Coun	-8464
▁item	-8465
▁poll	-8466
▁ring	-8467
▁want	-8468
▁1,000	-8469
▁brush	-8470
▁golden	-8471
▁wrapped	-8472
▁President	-8473
▁functions	-8474
▁commanders	-8475
▁32	-8476
Fuku	-8477
▁smo	-8478
▁und	-8479
hatsu	-8480
orter	-8481
▁Tats	-8482
▁heat	-8483
▁meas	-8484
▁remn	-8485
imitsu	-8486
▁repro	-8487
▁rarely	-8488
▁Shinbun	-8489
▁respected	-8490
▁Accordingly	-8491
12	-8492
ees	-8493
▁93	-8494
serv	-8495
okoku	-8496
▁2006	-8497
▁Ameno	-8498
▁Kanei	-8499
▁consu	-8500
▁grass	-8501
▁ISHIDA	-8502
▁potato	-8503
▁underw	-8504
▁prepare	-8505
▁protest	-8506
▁retreat	-8507
ictionary	-8508
▁esoteric	-8509
▁tendency	-8510
▁Katsumoto	-8511
▁Ogasawara	-8512
▁buckwheat	-8513
via	-8514
KAKU	-8515
rete	-8516
amono	-8517
onsen	-8518
common	-8519
ulsion	-8520
▁Goryo	-8521
▁SAKAI	-8522
▁finance	-8523
▁Kebiishi	-8524
▁Sumitomo	-8525
▁battlefield	-8526
▁interpreted	-8527
▁recommendation	-8528
orge	-8529
toge	-8530
▁Neg	-8531
▁cos	-8532
acity	-8533
joshu	-8534
▁hour	-8535
amples	-8536
▁Basho	-8537
▁manors	-8538
▁gardens	-8539
▁generated	-8540
▁Fushiminomiya	-8541
▁gy	-8542
ares	-8543
come	-8544
oson	-8545
▁TANI	-8546
▁isol	-8547
▁seat	-8548
▁Train	-8549
▁cloud	-8550
▁judge	-8551
▁solid	-8552
▁seized	-8553
uninushi	-8554
▁attract	-8555
▁Yorimori	-8556
▁Mandokoro	-8557
▁industrial	-8558
▁publication	-8559
▁0.	-8560
emed	-8561
town	-8562
▁108	-8563
▁UME	-8564
▁kat	-8565
ender	-8566
▁astr	-8567
shrine	-8568
▁Hikaru	-8569
▁county	-8570
▁handle	-8571
▁poison	-8572
▁horizont	-8573
▁abdicated	-8574
▁birthplace	-8575
▁governance	-8576
?'	-8577
▁Air	-8578
▁Rem	-8579
aning	-8580
eenth	-8581
matsu	-8582
rying	-8583
▁tori	-8584
Bureau	-8585
▁Shoen	-8586
▁trust	-8587
▁Former	-8588
▁diplom	-8589
▁Honnoji	-8590
▁Keifuku	-8591
▁attacks	-8592
▁Hanazono	-8593
▁collapse	-8594
▁honorific	-8595
▁immediate	-8596
▁viewpoint	-8597
▁separation	-8598
▁researchers	-8599
▁conventional	-8600
▁yu	-8601
ibly	-8602
▁bal	-8603
▁obi	-8604
itoku	-8605
vious	-8606
▁drew	-8607
▁meal	-8608
metown	-8609
▁Being	-8610
▁growth	-8611
▁starts	-8612
▁yields	-8613
atsukasa	-8614
▁Hachijo	-8615
▁critical	-8616
▁holidays	-8617
mark	-8618
SHITA	-8619
▁Tate	-8620
▁Tenm	-8621
▁2007,	-8622
▁Amago	-8623
▁Ninna	-8624
▁banqu	-8625
▁crime	-8626
samurai	-8627
▁MAKINO	-8628
▁beings	-8629
▁cotton	-8630
▁tatami	-8631
▁Noriyori	-8632
▁formally	-8633
▁Treasures	-8634
▁newspaper	-8635
▁prominent	-8636
▁Yoshitsugu	-8637
SAI	-8638
rol	-8639
▁=>	-8640
ZUMI	-8641
▁You	-8642
▁syn	-8643
olute	-8644
▁Yoro	-8645
▁bear	-8646
▁renga	-8647
▁sixty	-8648
▁Saburo	-8649
▁Statue	-8650
▁Unlike	-8651
▁Sakurai	-8652
▁Shinsen	-8653
▁payment	-8654
▁Yasutoki	-8655
▁admitted	-8656
▁thinking	-8657
▁earthenware	-8658
'),	-8659
unoo	-8660
uous	-8661
▁142	-8662
▁Int	-8663
aishu	-8664
anden	-8665
inori	-8666
▁Conc	-8667
chiken	-8668
▁Ohara	-8669
▁fashi	-8670
▁stamp	-8671
▁tells	-8672
agasaki	-8673
▁Nagato	-8674
▁SUZUKI	-8675
▁really	-8676
ometimes	-8677
▁Justice	-8678
▁Nobutaka	-8679
▁withdraw	-8680
omp	-8681
wood	-8682
AMURA	-8683
enery	-8684
utaro	-8685
▁Kano	-8686
▁ward	-8687
▁Chujo	-8688
▁arose	-8689
▁brand	-8690
angular	-8691
pective	-8692
▁Rennyo	-8693
▁Sagano	-8694
▁signed	-8695
▁guarant	-8696
▁replace	-8697
▁Kagetoki	-8698
▁activity	-8699
▁Currently	-8700
▁afterwards	-8701
▁Agriculture	-8702
▁understanding	-8703
ph	-8704
oga	-8705
iate	-8706
llor	-8707
▁145	-8708
▁sad	-8709
▁tip	-8710
lands	-8711
▁beef	-8712
aishin	-8713
▁Umako	-8714
▁Toshin	-8715
▁copied	-8716
▁respond	-8717
▁springs	-8718
▁Interior	-8719
▁deterior	-8720
▁multiple	-8721
▁container	-8722
iza	-8723
GAMI	-8724
▁Ori	-8725
iable	-8726
usubi	-8727
▁Vice	-8728
▁kimi	-8729
oyoshi	-8730
urious	-8731
▁Hosho	-8732
▁Soshi	-8733
▁prime	-8734
▁looking	-8735
▁machine	-8736
Chronicle	-8737
▁syllables	-8738
▁encouraged	-8739
▁experienced	-8740
▁outstanding	-8741
zui	-8742
know	-8743
▁Cor	-8744
TSUKI	-8745
▁HIRO	-8746
▁1871,	-8747
▁claim	-8748
▁TSUCHI	-8749
▁select	-8750
▁effects	-8751
▁failure	-8752
▁keyhole	-8753
▁Shitenno	-8754
▁circular	-8755
▁hometown	-8756
▁breweries	-8757
▁passenger	-8758
▁94	-8759
obun	-8760
▁112	-8761
ental	-8762
▁1868	-8763
▁Itsu	-8764
▁Ochi	-8765
▁Sake	-8766
▁hear	-8767
▁uchi	-8768
ements	-8769
itated	-8770
▁timet	-8771
ignated	-8772
▁secure	-8773
inations	-8774
▁Danjuro	-8775
▁Omikami	-8776
▁Uzumasa	-8777
▁leaders	-8778
▁lecture	-8779
▁Commander	-8780
▁architectural	-8781
)/	-8782
tan	-8783
gaki	-8784
▁ROK	-8785
▁Wei	-8786
books	-8787
eroku	-8788
▁wild	-8789
ailing	-8790
utsuna	-8791
▁Gunma	-8792
▁wives	-8793
▁YAMADA	-8794
▁smooth	-8795
▁Princes	-8796
▁describing	-8797
iff	-8798
pes	-8799
urp	-8800
Ichi	-8801
KITA	-8802
edom	-8803
rier	-8804
zume	-8805
hemat	-8806
▁tone	-8807
ameter	-8808
orious	-8809
ainting	-8810
▁Commun	-8811
▁Higher	-8812
▁expert	-8813
▁kilome	-8814
▁ROKKAKU	-8815
▁accompl	-8816
▁injured	-8817
▁aristocrats	-8818
▁specifically	-8819
Sum	-8820
▁79	-8821
▁ma	-8822
June	-8823
stud	-8824
▁Tao	-8825
▁cha	-8826
aruma	-8827
ships	-8828
ulder	-8829
▁Kuji	-8830
BATAKE	-8831
▁youth	-8832
hanshin	-8833
▁Takara	-8834
▁Tenshu	-8835
▁linked	-8836
▁puppet	-8837
oshiyori	-8838
▁Memorial	-8839
▁costumes	-8840
▁performer	-8841
▁stationed	-8842
▁triggered	-8843
▁masterpiec	-8844
Ik	-8845
Chu	-8846
eck	-8847
▁89	-8848
hige	-8849
ichu	-8850
▁Dis	-8851
▁lod	-8852
umuli	-8853
▁vert	-8854
irvana	-8855
▁Koken	-8856
▁apart	-8857
ordinary	-8858
▁Chugoku	-8859
▁Hiroshi	-8860
▁forming	-8861
▁sending	-8862
▁Hatamoto	-8863
▁Kiyomizu	-8864
▁conquest	-8865
▁leadership	-8866
approximately	-8867
Miy	-8868
arn	-8869
bid	-8870
kim	-8871
eled	-8872
ture	-8873
▁sky	-8874
▁Amen	-8875
▁Jiro	-8876
▁Once	-8877
▁SATO	-8878
▁symp	-8879
atures	-8880
▁Hizen	-8881
▁Poets	-8882
▁Water	-8883
▁penal	-8884
▁Ienari	-8885
istration	-8886
▁Takamori	-8887
▁virtually	-8888
ITO	-8889
mag	-8890
▁(4	-8891
arai	-8892
▁102	-8893
allel	-8894
▁Area	-8895
▁conv	-8896
▁pork	-8897
etsuke	-8898
headed	-8899
▁Kobun	-8900
▁facts	-8901
▁fried	-8902
▁games	-8903
▁grain	-8904
TSUKASA	-8905
▁advice	-8906
▁denied	-8907
▁kingdom	-8908
▁soldier	-8909
▁Takakage	-8910
▁YAMAGATA	-8911
▁sentence	-8912
▁execution	-8913
▁scattered	-8914
▁negotiation	-8915
▁institutions	-8916
abb	-8917
ousa	-8918
uren	-8919
▁143	-8920
▁Tax	-8921
aidan	-8922
kyoku	-8923
onobe	-8924
owned	-8925
▁shis	-8926
▁wars	-8927
hayana	-8928
tholog	-8929
▁Gosan	-8930
▁Tsuki	-8931
▁Years	-8932
tenance	-8933
▁inters	-8934
▁Liberal	-8935
▁Takechi	-8936
▁workers	-8937
▁AKAMATSU	-8938
▁Graduate	-8939
▁Motonari	-8940
▁attacking	-8941
▁timetable	-8942
▁Controller	-8943
▁complicated	-8944
▁Transportation	-8945
iri	-8946
sur	-8947
▁quar	-8948
▁soil	-8949
▁toji	-8950
▁brave	-8951
▁trial	-8952
manship	-8953
▁chigyo	-8954
▁volunt	-8955
▁Product	-8956
▁address	-8957
▁friends	-8958
▁tickets	-8959
▁extension	-8960
▁attendants	-8961
▁convenience	-8962
▁accompanying	-8963
▁calligrapher	-8964
arm	-8965
▁Fre	-8966
▁See	-8967
seven	-8968
▁Kata	-8969
icular	-8970
▁Komei	-8971
▁Nitta	-8972
▁compr	-8973
▁falls	-8974
▁serves	-8975
▁arrival	-8976
▁freight	-8977
▁reflect	-8978
▁Sanskrit	-8979
▁Tokimasa	-8980
▁bringing	-8981
▁premises	-8982
▁Mochihito	-8983
▁celebrate	-8984
▁missionary	-8985
▁regulation	-8986
▁exclusively	-8987
rief	-8988
useki	-8989
▁Goro	-8990
▁warm	-8991
angaku	-8992
ushiro	-8993
▁SHIMO	-8994
▁angry	-8995
▁monop	-8996
▁shite	-8997
▁wound	-8998
western	-8999
▁lasted	-9000
▁manage	-9001
▁medium	-9002
▁placing	-9003
▁require	-9004
▁SAKAMOTO	-9005
▁OGI	-9006
▁SHO	-9007
▁cub	-9008
▁kit	-9009
gener	-9010
lease	-9011
▁Hiko	-9012
▁save	-9013
▁shir	-9014
MIKADO	-9015
yanagi	-9016
▁Bingo	-9017
▁Inoue	-9018
▁Kosei	-9019
▁Tengu	-9020
▁straw	-9021
▁approx	-9022
▁Islands	-9023
▁Saigoku	-9024
▁Yoriyuki	-9025
▁equipment	-9026
▁Engineering	-9027
▁TAKATSUKASA	-9028
▁proclamation	-9029
▁400	-9030
▁Mok	-9031
aired	-9032
▁Doji	-9033
▁Site	-9034
▁holy	-9035
▁lots	-9036
▁Shimo	-9037
▁admin	-9038
▁sanct	-9039
▁share	-9040
▁stret	-9041
▁Tokuso	-9042
▁banned	-9043
▁British	-9044
▁Hirobumi	-9045
▁WATANABE	-9046
▁demanded	-9047
▁Kitakinki	-9048
▁Nobushige	-9049
▁individuals	-9050
▁instruction	-9051
0'	-9052
▁Li	-9053
▁hal	-9054
▁Life	-9055
▁biwa	-9056
ishima	-9057
▁Konin	-9058
▁guide	-9059
▁fiscal	-9060
▁liters	-9061
▁seeing	-9062
Tokugawa	-9063
▁courtes	-9064
▁Norinaga	-9065
▁diameter	-9066
▁elevated	-9067
▁greatest	-9068
▁cultivated	-9069
Shu	-9070
bet	-9071
cer	-9072
atis	-9073
▁106	-9074
▁Usu	-9075
okaku	-9076
▁diff	-9077
▁dorm	-9078
▁hier	-9079
▁imag	-9080
rehens	-9081
▁saved	-9082
Article	-9083
▁Leaves	-9084
▁agency	-9085
▁copies	-9086
▁photog	-9087
▁Various	-9088
▁initial	-9089
▁lantern	-9090
ederation	-9091
▁Nagahama	-9092
▁Tadamasa	-9093
▁Tokitada	-9094
▁engraved	-9095
▁Regarding	-9096
▁appearing	-9097
▁attendant	-9098
▁continues	-9099
▁exchanged	-9100
▁Exhibition	-9101
▁KITABATAKE	-9102
▁supporters	-9103
▁celebration	-9104
Fu	-9105
nya	-9106
uel	-9107
coun	-9108
▁map	-9109
iyaki	-9110
▁Care	-9111
▁carp	-9112
▁legs	-9113
avalry	-9114
▁Machi	-9115
▁lunch	-9116
▁wheat	-9117
▁Joruri	-9118
▁Shoten	-9119
▁assume	-9120
▁layout	-9121
▁capture	-9122
▁trouble	-9123
▁viewing	-9124
▁contract	-9125
▁moreover	-9126
▁Okuninushi	-9127
▁administrator	-9128
elp	-9129
days	-9130
hojo	-9131
zama	-9132
▁Joi	-9133
ansai	-9134
▁Coup	-9135
▁Goyo	-9136
▁adul	-9137
nosuke	-9138
▁taifu	-9139
▁touch	-9140
Records	-9141
▁Hachim	-9142
▁Kashiw	-9143
▁accomm	-9144
▁consec	-9145
▁unusual	-9146
▁walking	-9147
▁election	-9148
▁seriously	-9149
Nob	-9150
▁95	-9151
▁og	-9152
oron	-9153
urak	-9154
▁Exp	-9155
▁eel	-9156
itals	-9157
pired	-9158
verse	-9159
▁Chis	-9160
▁Amano	-9161
▁Betto	-9162
▁Myoho	-9163
▁remin	-9164
bayashi	-9165
▁Hikone	-9166
▁Miyagi	-9167
▁Shimane	-9168
▁estates	-9169
▁modeled	-9170
atakeyama	-9171
▁Shimousa	-9172
▁Tadazane	-9173
▁independence	-9174
▁manufactured	-9175
Ry	-9176
▁4.	-9177
goto	-9178
ogue	-9179
reki	-9180
uled	-9181
▁Can	-9182
store	-9183
ukata	-9184
▁Publ	-9185
▁YASU	-9186
▁shut	-9187
▁Early	-9188
▁HONDA	-9189
▁Jitsu	-9190
▁Saiin	-9191
▁Seishi	-9192
▁reconc	-9193
▁Moronao	-9194
▁Protect	-9195
▁mansion	-9196
▁tourist	-9197
▁adjacent	-9198
▁Counselor	-9199
▁Katsuyori	-9200
Chamberlain	-9201
▁subordinate	-9202
▁contemporary	-9203
GU	-9204
DAI	-9205
sub	-9206
▁zo	-9207
wise	-9208
ateru	-9209
ishim	-9210
unori	-9211
▁2007	-9212
▁Pond	-9213
▁club	-9214
▁maid	-9215
▁stor	-9216
▁whale	-9217
Captain	-9218
▁Soseki	-9219
▁couldn	-9220
▁murder	-9221
▁purple	-9222
▁ASAKURA	-9223
▁average	-9224
▁housing	-9225
▁weather	-9226
▁speaking	-9227
▁Appointed	-9228
▁suffering	-9229
▁Keihanshin	-9230
▁Yoshiakira	-9231
pol	-9232
pyo	-9233
Fuji	-9234
coal	-9235
view	-9236
batsu	-9237
block	-9238
kichi	-9239
ugoro	-9240
▁1000	-9241
▁Gory	-9242
▁fast	-9243
▁rect	-9244
territ	-9245
▁basin	-9246
▁thoro	-9247
▁merely	-9248
▁notice	-9249
▁extinct	-9250
▁legends	-9251
▁Manchuri	-9252
▁Treasury	-9253
▁disputes	-9254
▁enshrine	-9255
▁conquered	-9256
▁enshrines	-9257
▁seasoning	-9258
cars	-9259
cean	-9260
inin	-9261
tada	-9262
yomi	-9263
shima	-9264
▁Onjo	-9265
▁Toei	-9266
▁1869,	-9267
▁Naval	-9268
▁Suiko	-9269
▁fudai	-9270
▁minor	-9271
▁safety	-9272
▁Konoefu	-9273
▁aspects	-9274
▁biggest	-9275
▁fashion	-9276
▁sliding	-9277
▁informed	-9278
▁MATSUNAGA	-9279
▁gathering	-9280
▁controlling	-9281
Ho	-9282
bal	-9283
vert	-9284
▁138	-9285
▁Kuw	-9286
▁Rai	-9287
abled	-9288
usoku	-9289
water	-9290
▁Tama	-9291
▁Hondo	-9292
▁appeal	-9293
▁parent	-9294
▁termin	-9295
▁visits	-9296
atically	-9297
▁Izanagi	-9298
▁perfect	-9299
formation	-9300
▁parallel	-9301
19	-9302
Sai	-9303
▁92	-9304
cont	-9305
▁cro	-9306
Kokin	-9307
atama	-9308
iring	-9309
south	-9310
uries	-9311
▁kais	-9312
▁Dokyo	-9313
▁Earth	-9314
▁riding	-9315
▁Katsuie	-9316
▁achieve	-9317
▁origins	-9318
▁detached	-9319
▁feelings	-9320
▁resignation	-9321
sake	-9322
▁Jud	-9323
amiya	-9324
asuke	-9325
ukawa	-9326
▁Kann	-9327
▁yori	-9328
ashino	-9329
▁Books	-9330
▁Eight	-9331
▁explo	-9332
▁shiki	-9333
▁spite	-9334
writing	-9335
▁gagaku	-9336
▁accumul	-9337
▁install	-9338
appointed	-9339
▁Kanazawa	-9340
▁Shichijo	-9341
▁chairman	-9342
▁managing	-9343
▁miyatsuko	-9344
▁excavation	-9345
▁stipulated	-9346
▁administered	-9347
gn	-9348
Mas	-9349
umb	-9350
▁Fo	-9351
amai	-9352
▁Nen	-9353
eping	-9354
otada	-9355
▁Enyu	-9356
▁Upon	-9357
▁safe	-9358
▁ties	-9359
Keihan	-9360
▁3,000	-9361
▁Setsu	-9362
▁catch	-9363
▁funds	-9364
▁Tofuku	-9365
▁minted	-9366
▁propag	-9367
▁weapon	-9368
Kamakura	-9369
▁Chapter	-9370
▁Popular	-9371
▁Ceremony	-9372
▁Kiyomasa	-9373
▁Sakamoto	-9374
▁bestowed	-9375
▁essential	-9376
▁Hatakeyama	-9377
▁fourteenth	-9378
▁households	-9379
▁manufactur	-9380
▁agriculture	-9381
▁universities	-9382
Yodo	-9383
geki	-9384
idan	-9385
quis	-9386
inner	-9387
▁anal	-9388
▁fair	-9389
▁hosp	-9390
▁race	-9391
▁seaw	-9392
itsubo	-9393
▁Chika	-9394
▁Child	-9395
express	-9396
olution	-9397
▁Reigen	-9398
▁armies	-9399
▁speech	-9400
▁convers	-9401
▁scenery	-9402
▁Takayoshi	-9403
▁surviving	-9404
▁difficulty	-9405
▁everything	-9406
▁authorities	-9407
▁collections	-9408
▁Yos	-9409
rison	-9410
yosho	-9411
▁Fire	-9412
▁eggs	-9413
senior	-9414
uction	-9415
▁Tomon	-9416
▁dough	-9417
inement	-9418
▁German	-9419
▁aiming	-9420
▁budget	-9421
▁welcom	-9422
▁Onmyodo	-9423
▁Seventh	-9424
▁accident	-9425
▁planning	-9426
▁preached	-9427
▁remnants	-9428
▁Ordinance	-9429
▁ministers	-9430
▁reinforce	-9431
▁ingredient	-9432
-19	-9433
Sec	-9434
ube	-9435
▁Yi	-9436
anke	-9437
chae	-9438
waka	-9439
weet	-9440
▁Sim	-9441
▁Tar	-9442
Nishi	-9443
atomo	-9444
oried	-9445
▁Mont	-9446
▁bird	-9447
▁ikki	-9448
▁sure	-9449
meikan	-9450
▁ideas	-9451
▁Kizoku	-9452
▁Sacred	-9453
▁Teishi	-9454
▁borrow	-9455
▁Okazaki	-9456
▁islands	-9457
▁pottery	-9458
Confucian	-9459
▁capacity	-9460
▁complain	-9461
▁physical	-9462
▁instructor	-9463
fo	-9464
lev	-9465
▁35	-9466
ikai	-9467
lets	-9468
▁sar	-9469
▁aged	-9470
▁Azuma	-9471
▁Gakko	-9472
▁limit	-9473
▁nengu	-9474
▁Benkei	-9475
▁artists	-9476
▁cavalry	-9477
▁seasons	-9478
▁Manyoshu	-9479
▁Masayuki	-9480
▁abolition	-9481
▁expulsion	-9482
▁Yoshichika	-9483
▁appreciated	-9484
▁specialized	-9485
▁strengthened	-9486
ilk	-9487
▁Ut	-9488
▁Zo	-9489
body	-9490
odan	-9491
▁pit	-9492
▁row	-9493
▁wat	-9494
antan	-9495
trans	-9496
ugiri	-9497
▁gift	-9498
▁magn	-9499
akusho	-9500
iguchi	-9501
▁backed	-9502
▁causes	-9503
▁coffee	-9504
▁crisis	-9505
ceremony	-9506
▁Tadaoki	-9507
▁designs	-9508
▁praying	-9509
▁totally	-9510
▁Harumoto	-9511
▁compound	-9512
▁everyday	-9513
▁struggle	-9514
▁Katsuragi	-9515
▁specialty	-9516
▁uncertain	-9517
▁Ceremonial	-9518
▁mainstream	-9519
▁supposedly	-9520
ZAI	-9521
ogu	-9522
lock	-9523
▁Osu	-9524
▁uta	-9525
GASHI	-9526
Three	-9527
▁semi	-9528
itions	-9529
▁Gomiz	-9530
▁INABA	-9531
▁Tenpo	-9532
▁Yomei	-9533
▁birds	-9534
colored	-9535
▁Career	-9536
▁deploy	-9537
▁Iemochi	-9538
▁confron	-9539
▁Mahayana	-9540
▁contrary	-9541
▁downfall	-9542
▁Kyotanabe	-9543
▁pseudonym	-9544
▁selection	-9545
▁syllabary	-9546
▁varieties	-9547
▁Construction	-9548
1-	-9549
Mt	-9550
▁=	-9551
cks	-9552
GASA	-9553
akur	-9554
imin	-9555
some	-9556
▁137	-9557
▁Tos	-9558
akabe	-9559
ashed	-9560
▁Goto	-9561
▁scre	-9562
▁NAITO	-9563
▁conce	-9564
▁theme	-9565
▁Sonobe	-9566
▁shoryo	-9567
▁Susanoo	-9568
▁journey	-9569
▁revenge	-9570
▁naturally	-9571
▁traditions	-9572
▁bureaucrats	-9573
ull	-9574
▁48	-9575
FUJI	-9576
▁hyo	-9577
manor	-9578
satsu	-9579
▁2000	-9580
▁Film	-9581
▁KIKU	-9582
▁Like	-9583
▁Onna	-9584
▁TOKI	-9585
▁resc	-9586
mother	-9587
▁Dance	-9588
▁bloom	-9589
▁remove	-9590
ocuments	-9591
▁Shinsho	-9592
▁possess	-9593
▁Mimasaka	-9594
▁shoulder	-9595
▁enforcement	-9596
▁governments	-9597
▁transformed	-9598
ijo	-9599
▁dy	-9600
door	-9601
▁fat	-9602
essho	-9603
icing	-9604
▁Fine	-9605
▁Jiju	-9606
▁KIRA	-9607
▁crow	-9608
▁Hoshi	-9609
▁Hyuga	-9610
▁accur	-9611
▁nyogo	-9612
▁sided	-9613
▁Miyako	-9614
▁Oshima	-9615
▁confer	-9616
▁desire	-9617
▁Nakagyo	-9618
▁kokujin	-9619
▁charcoal	-9620
▁substant	-9621
▁traveling	-9622
▁Tsuchimikado	-9623
▁fermentation	-9624
▁increasingly	-9625
eta	-9626
nor	-9627
▁Tw	-9628
▁od	-9629
▁ph	-9630
cons	-9631
▁140	-9632
▁Hib	-9633
▁dig	-9634
odori	-9635
stone	-9636
ukiyo	-9637
▁Jugo	-9638
▁Roju	-9639
▁Saku	-9640
▁appe	-9641
Heishi	-9642
▁Brief	-9643
▁Shojo	-9644
▁meter	-9645
▁pupil	-9646
▁Heaven	-9647
▁Himeji	-9648
oincloth	-9649
▁contact	-9650
▁handled	-9651
▁pillars	-9652
▁steward	-9653
▁telling	-9654
▁NAKAYAMA	-9655
▁Recently	-9656
▁expensive	-9657
▁Shakyamuni	-9658
▁distinction	-9659
▁Administration	-9660
15	-9661
mn	-9662
Kit	-9663
kun	-9664
▁Ame	-9665
▁Muk	-9666
ingyo	-9667
▁none	-9668
▁sank	-9669
▁Kanin	-9670
▁Sonno	-9671
▁Teika	-9672
▁Ukiyo	-9673
▁leads	-9674
▁salary	-9675
▁viewed	-9676
▁Demachi	-9677
▁Reforms	-9678
▁circles	-9679
▁improve	-9680
▁expenses	-9681
▁terminal	-9682
▁Dynasties	-9683
▁featuring	-9684
▁incidents	-9685
▁promulgated	-9686
Ot	-9687
▁ly	-9688
anqu	-9689
fuji	-9690
nest	-9691
ether	-9692
ownia	-9693
usuma	-9694
utane	-9695
▁What	-9696
▁band	-9697
▁kake	-9698
▁sets	-9699
▁1582,	-9700
▁Peace	-9701
▁Seven	-9702
▁brown	-9703
▁ideal	-9704
▁lotus	-9705
▁media	-9706
▁rival	-9707
▁Wakoku	-9708
▁deemed	-9709
▁ruined	-9710
aulownia	-9711
national	-9712
▁Bunroku	-9713
▁Highway	-9714
▁dressed	-9715
▁missing	-9716
▁Dainichi	-9717
▁Sanesuke	-9718
▁handling	-9719
▁occasionally	-9720
13	-9721
Kaw	-9722
Mik	-9723
Zen	-9724
ias	-9725
imum	-9726
otei	-9727
zura	-9728
▁rot	-9729
▁uji	-9730
etime	-9731
▁Seto	-9732
▁extr	-9733
▁rush	-9734
▁setsu	-9735
ictions	-9736
▁expect	-9737
▁marked	-9738
▁dealing	-9739
▁Nobukatsu	-9740
▁privately	-9741
▁decorative	-9742
▁discussion	-9743
▁divination	-9744
▁procession	-9745
▁aristocracy	-9746
▁independently	-9747
Bun	-9748
key	-9749
que	-9750
top	-9751
agin	-9752
▁Att	-9753
▁lat	-9754
▁try	-9755
antry	-9756
ulate	-9757
▁KOGA	-9758
▁Kubo	-9759
▁Saka	-9760
▁brid	-9761
▁sens	-9762
pector	-9763
▁drive	-9764
▁imina	-9765
▁quant	-9766
▁housed	-9767
▁kyogen	-9768
▁liquor	-9769
▁merger	-9770
▁varies	-9771
▁apprent	-9772
▁Personal	-9773
▁Yoshinari	-9774
▁commanded	-9775
▁provision	-9776
▁sentenced	-9777
▁collecting	-9778
▁originates	-9779
TEI	-9780
hem	-9781
hik	-9782
oll	-9783
addy	-9784
▁Men	-9785
▁mem	-9786
▁Noto	-9787
deputy	-9788
ishige	-9789
▁abbot	-9790
▁homyo	-9791
▁acknow	-9792
▁virtue	-9793
▁Present	-9794
▁falling	-9795
▁Nishikyo	-9796
▁Official	-9797
▁consolid	-9798
▁thirteen	-9799
▁biography	-9800
▁purchased	-9801
▁designation	-9802
▁difficulties	-9803
EN	-9804
mus	-9805
zure	-9806
▁Yin	-9807
ittee	-9808
▁Soon	-9809
▁lose	-9810
crimin	-9811
etsune	-9812
▁2005,	-9813
however	-9814
▁Forest	-9815
▁farmer	-9816
▁northe	-9817
▁tribute	-9818
▁Masayoshi	-9819
▁Tadamichi	-9820
▁automatic	-9821
▁categories	-9822
▁commentary	-9823
▁accordingly	-9824
▁contribution	-9825
▁traditionally	-9826
Nor	-9827
aini	-9828
down	-9829
▁isn	-9830
▁mud	-9831
▁Teng	-9832
▁boom	-9833
▁Bound	-9834
▁Genko	-9835
▁Saney	-9836
▁Shoko	-9837
▁shoji	-9838
▁souls	-9839
liament	-9840
quality	-9841
▁Indian	-9842
▁assign	-9843
▁pulled	-9844
ustrated	-9845
▁Nakatsu	-9846
▁factors	-9847
▁primary	-9848
▁Masanobu	-9849
▁absolute	-9850
▁concrete	-9851
▁statement	-9852
▁47	-9853
This	-9854
what	-9855
▁Buk	-9856
▁Yod	-9857
atani	-9858
otoku	-9859
works	-9860
▁Hoke	-9861
around	-9862
chives	-9863
▁Advis	-9864
▁Seinan	-9865
▁novels	-9866
▁please	-9867
▁prefix	-9868
▁shared	-9869
▁struck	-9870
FUJIWARA	-9871
▁Toshizo	-9872
▁species	-9873
onomiyaki	-9874
▁lectures	-9875
▁relating	-9876
▁Initially	-9877
▁TAKAHASHI	-9878
▁hairstyle	-9879
▁Kuranosuke	-9880
▁transition	-9881
▁maintenance	-9882
▁miscellaneous	-9883
gl	-9884
iru	-9885
▁Mr	-9886
▁Pi	-9887
goro	-9888
ieth	-9889
cipal	-9890
setsu	-9891
▁Amit	-9892
▁Tour	-9893
▁WADA	-9894
▁exit	-9895
▁gone	-9896
imichi	-9897
mikoto	-9898
▁20,000	-9899
▁ceased	-9900
▁makeup	-9901
▁reigns	-9902
▁stable	-9903
▁avoided	-9904
▁nishiki	-9905
▁radical	-9906
▁revival	-9907
▁birthday	-9908
▁thoughts	-9909
▁positioned	-9910
▁Demachiyanagi	-9911
apon	-9912
lore	-9913
▁AMA	-9914
▁Wit	-9915
▁yak	-9916
Later	-9917
utoyo	-9918
▁Karo	-9919
▁MOTO	-9920
▁crem	-9921
▁Saigu	-9922
▁liked	-9923
theless	-9924
▁Eighth	-9925
▁Others	-9926
▁Shimon	-9927
▁immigr	-9928
▁pillar	-9929
▁prayed	-9930
▁Consort	-9931
▁Himemiko	-9932
▁Nikkatsu	-9933
▁mathemat	-9934
▁programs	-9935
▁Tameyoshi	-9936
▁interests	-9937
▁permanent	-9938
▁emphasized	-9939
▁kilometers	-9940
Un	-9941
Com	-9942
Ryo	-9943
otom	-9944
unyo	-9945
▁Oni	-9946
fraid	-9947
▁HIJI	-9948
▁slow	-9949
▁Prize	-9950
▁Store	-9951
▁meals	-9952
Fushimi	-9953
ulating	-9954
▁column	-9955
▁deaths	-9956
▁intens	-9957
▁SHIBATA	-9958
▁leather	-9959
▁Yukinaga	-9960
▁destruct	-9961
▁normally	-9962
▁Korechika	-9963
▁Mototsune	-9964
▁Shigehira	-9965
▁Sometimes	-9966
▁craftsmen	-9967
▁developing	-9968
▁fundamental	-9969
SHO	-9970
Son	-9971
lla	-9972
rem	-9973
▁5.	-9974
▁om	-9975
Hyak	-9976
oral	-9977
umyo	-9978
▁FURU	-9979
▁Suwa	-9980
atsura	-9981
dokoro	-9982
▁Taika	-9983
▁kings	-9984
▁tears	-9985
▁usual	-9986
▁Koshin	-9987
▁Yamana	-9988
▁closer	-9989
▁electri	-9990
▁tsukasa	-9991
▁HIJIKATA	-9992
▁lifetime	-9993
▁seasoned	-9994
▁MATSUMOTO	-9995
▁Nobuyoshi	-9996
▁Shimabara	-9997
▁fifteenth	-9998
▁inspection	-9999
aman	-10000
wako	-10001
▁Ama	-10002
▁ITA	-10003
▁Red	-10004
board	-10005
pital	-10006
pread	-10007
▁Gofuk	-10008
▁Music	-10009
▁OKUMA	-10010
▁enorm	-10011
▁voice	-10012
▁Nanzen	-10013
▁animal	-10014
▁defend	-10015
▁shochu	-10016
▁studio	-10017
▁forests	-10018
▁planted	-10019
awanomiya	-10020
▁assuming	-10021
▁seasonal	-10022
▁confection	-10023
▁neighborhood	-10024
:00	-10025
bec	-10026
▁62	-10027
anki	-10028
cing	-10029
▁lux	-10030
going	-10031
▁KAMO	-10032
▁Niss	-10033
▁gets	-10034
imachi	-10035
sticks	-10036
▁besie	-10037
▁siege	-10038
iquette	-10039
▁Church	-10040
▁argued	-10041
▁sounds	-10042
▁wisdom	-10043
▁Tochigi	-10044
▁kitchen	-10045
▁largely	-10046
▁mixture	-10047
▁tactics	-10048
▁Mononobe	-10049
▁Promoted	-10050
▁absorbed	-10051
▁Gomizunoo	-10052
▁evaluated	-10053
▁horseback	-10054
▁Technology	-10055
▁respective	-10056
75	-10057
hor	-10058
hus	-10059
onge	-10060
usui	-10061
▁hole	-10062
engaku	-10063
▁Kamon	-10064
▁chain	-10065
▁afraid	-10066
▁arrive	-10067
▁honzon	-10068
▁profit	-10069
▁storage	-10070
hashidate	-10071
idespread	-10072
▁argument	-10073
▁headship	-10074
▁Kashihara	-10075
▁Shigenobu	-10076
▁Takatsuki	-10077
▁graveyard	-10078
▁loincloth	-10079
▁promoting	-10080
▁Utsunomiya	-10081
▁directions	-10082
▁expressions	-10083
▁Metropolitan	-10084
▁constitutional	-10085
Re	-10086
eong	-10087
harm	-10088
haya	-10089
whel	-10090
▁NHK	-10091
▁vac	-10092
▁Mizu	-10093
▁fans	-10094
▁shim	-10095
▁tens	-10096
▁Organ	-10097
▁shoot	-10098
▁Hirano	-10099
▁dances	-10100
▁Toyooka	-10101
▁conserv	-10102
▁destroy	-10103
▁Amitabha	-10104
▁Hospital	-10105
▁approach	-10106
▁honorary	-10107
▁depicting	-10108
▁suspected	-10109
▁Takarazuka	-10110
▁Toshimichi	-10111
▁participants	-10112
Bo	-10113
)."	-10114
Uji	-10115
het	-10116
▁65	-10117
▁Aj	-10118
both	-10119
enge	-10120
owel	-10121
▁600	-10122
▁Kab	-10123
▁fud	-10124
▁oct	-10125
▁clay	-10126
▁sale	-10127
Honcho	-10128
▁Butsu	-10129
▁Iwami	-10130
▁Iwate	-10131
▁Shima	-10132
▁conve	-10133
▁naval	-10134
▁ramen	-10135
▁satis	-10136
▁tiles	-10137
▁Iesada	-10138
▁Kyokai	-10139
▁wished	-10140
▁Myoshin	-10141
▁Yukichi	-10142
▁besides	-10143
▁Masahiro	-10144
▁Yoshikage	-10145
▁meditation	-10146
▁substitute	-10147
▁widespread	-10148
▁townspeople	-10149
▁continuously	-10150
ti	-10151
she	-10152
▁58	-10153
agoe	-10154
umen	-10155
zake	-10156
▁Gar	-10157
▁Gir	-10158
▁fuk	-10159
pachi	-10160
quest	-10161
▁boys	-10162
▁eras	-10163
inding	-10164
onents	-10165
▁Kyudo	-10166
▁OYAMA	-10167
▁Shoku	-10168
▁kokyu	-10169
▁quiet	-10170
▁Antoku	-10171
▁Kotoku	-10172
▁Yoshio	-10173
▁brewed	-10174
personal	-10175
▁HASHIBA	-10176
▁Shimbun	-10177
▁alleged	-10178
▁gaining	-10179
▁Miyazaki	-10180
▁anything	-10181
▁pardoned	-10182
▁tourists	-10183
▁youngest	-10184
ifications	-10185
▁Committee	-10186
▁attracted	-10187
▁departure	-10188
▁recovered	-10189
▁Foundation	-10190
▁conclusion	-10191
eld	-10192
▁Aw	-10193
ault	-10194
rees	-10195
wada	-10196
▁141	-10197
▁Vis	-10198
▁buy	-10199
▁fee	-10200
▁2005	-10201
▁chop	-10202
ainted	-10203
▁Bunko	-10204
▁Enshu	-10205
▁Obama	-10206
▁allot	-10207
▁press	-10208
▁somen	-10209
▁Autumn	-10210
▁Tomomi	-10211
▁decide	-10212
▁kanrei	-10213
▁lowest	-10214
▁relief	-10215
▁Koyasan	-10216
Councilor	-10217
criptions	-10218
▁overwhel	-10219
Im	-10220
rets	-10221
▁Mai	-10222
▁hab	-10223
▁pir	-10224
MACHI	-10225
akazu	-10226
anabe	-10227
oyaki	-10228
umaru	-10229
▁Hoko	-10230
▁Post	-10231
▁UTSU	-10232
▁fulf	-10233
▁Along	-10234
▁Kanjo	-10235
▁Nanto	-10236
▁Fuhito	-10237
▁earned	-10238
▁Section	-10239
▁exposed	-10240
▁Yoshioki	-10241
▁delivery	-10242
▁painters	-10243
▁Amagasaki	-10244
▁comprised	-10245
▁friendship	-10246
▁originator	-10247
▁Ritsumeikan	-10248
▁transmitted	-10249
▁unification	-10250
40	-10251
pi	-10252
iry	-10253
icha	-10254
▁Ike	-10255
▁gas	-10256
▁myo	-10257
▁Soun	-10258
▁ruin	-10259
▁sort	-10260
daimyo	-10261
oguchi	-10262
▁Tales	-10263
▁Works	-10264
▁cakes	-10265
▁monjo	-10266
▁yokai	-10267
▁holder	-10268
▁prints	-10269
▁shoshi	-10270
▁starch	-10271
▁tumuli	-10272
▁Shinden	-10273
▁Building	-10274
▁anecdotes	-10275
▁impression	-10276
▁simplified	-10277
▁suppression	-10278
▁concentrated	-10279
ket	-10280
rag	-10281
BARA	-10282
TANI	-10283
aden	-10284
▁111	-10285
▁err	-10286
▁sai	-10287
zashi	-10288
▁Oper	-10289
oshino	-10290
regent	-10291
string	-10292
▁Basin	-10293
▁Genro	-10294
▁Mount	-10295
▁Roshi	-10296
▁Tenri	-10297
▁gifts	-10298
private	-10299
storied	-10300
▁submit	-10301
▁topped	-10302
▁Hiyoshi	-10303
▁holiday	-10304
▁reports	-10305
▁sisters	-10306
▁attained	-10307
▁Manchuria	-10308
▁Michitaka	-10309
▁Yoshifusa	-10310
▁offerings	-10311
▁resources	-10312
▁application	-10313
▁personality	-10314
▁illegitimate	-10315
1),	-10316
adai	-10317
prof	-10318
▁Ele	-10319
▁Azai	-10320
▁calm	-10321
▁dump	-10322
inally	-10323
▁Koshu	-10324
▁Totsu	-10325
▁annot	-10326
▁cubic	-10327
▁deeds	-10328
▁prize	-10329
▁Horses	-10330
▁Kuroda	-10331
▁beside	-10332
▁hidden	-10333
▁hiding	-10334
▁legisl	-10335
▁shaved	-10336
iliation	-10337
▁garment	-10338
▁Kitayama	-10339
▁Sumimoto	-10340
▁Yoritsuna	-10341
▁narrative	-10342
▁spreading	-10343
▁Lieutenant	-10344
▁businesses	-10345
AN	-10346
vy	-10347
500	-10348
aho	-10349
cor	-10350
ext	-10351
NOBE	-10352
lude	-10353
▁orn	-10354
SHIKI	-10355
ogaku	-10356
omaro	-10357
orous	-10358
▁Kono	-10359
▁Sund	-10360
▁Sunpu	-10361
▁deleg	-10362
olition	-10363
ructure	-10364
▁Daruma	-10365
▁Kudara	-10366
▁excess	-10367
▁suspic	-10368
ashimizu	-10369
▁Medieval	-10370
▁Movement	-10371
▁dissatis	-10372
▁projects	-10373
▁Yoshiyasu	-10374
▁Federation	-10375
asi	-10376
▁Ri	-10377
▁az	-10378
mine	-10379
▁Nio	-10380
▁eki	-10381
▁kos	-10382
atada	-10383
dress	-10384
emari	-10385
etoki	-10386
▁Name	-10387
▁chok	-10388
▁mort	-10389
▁Honjo	-10390
▁march	-10391
▁natto	-10392
▁plans	-10393
▁slope	-10394
▁Haihan	-10395
▁Yugiri	-10396
▁coffin	-10397
▁passes	-10398
▁quoted	-10399
▁Yoshiko	-10400
▁accused	-10401
▁conquer	-10402
▁elegant	-10403
▁seaweed	-10404
cientific	-10405
▁Shonagon	-10406
▁viscount	-10407
▁Chronicle	-10408
▁Gofukakusa	-10409
▁registration	-10410
';	-10411
eth	-10412
▁AO	-10413
▁Det	-10414
▁Iwa	-10415
▁Ota	-10416
▁lab	-10417
awari	-10418
igiri	-10419
otani	-10420
track	-10421
▁cord	-10422
▁jobs	-10423
▁swim	-10424
asting	-10425
▁fruit	-10426
Empress	-10427
▁dragon	-10428
▁subsid	-10429
ications	-10430
istrates	-10431
▁Naosuke	-10432
▁classic	-10433
▁refined	-10434
▁Yoshinaga	-10435
▁Jushiinojo	-10436
▁circulated	-10437
▁comparable	-10438
▁enshrining	-10439
▁succeeding	-10440
▁intersection	-10441
Ma	-10442
ym	-10443
dec	-10444
fuyu	-10445
hiki	-10446
thed	-10447
▁Num	-10448
▁Yon	-10449
itori	-10450
▁Hida	-10451
▁Prof	-10452
▁Todo	-10453
▁jiju	-10454
▁kuro	-10455
akuchi	-10456
▁Kokyu	-10457
▁Shodo	-10458
▁Yusai	-10459
▁divor	-10460
▁jiuta	-10461
▁nurse	-10462
istries	-10463
▁Access	-10464
▁Myojin	-10465
▁bought	-10466
ashimoto	-10467
▁faculty	-10468
▁focused	-10469
▁justice	-10470
▁seeking	-10471
▁Hyakunin	-10472
▁severely	-10473
▁talented	-10474
▁teachers	-10475
▁Shigetada	-10476
▁centering	-10477
▁procedure	-10478
▁intangible	-10479
▁investiture	-10480
▁significantly	-10481
km	-10482
Reg	-10483
ati	-10484
iac	-10485
iest	-10486
▁105	-10487
▁Aka	-10488
▁Past	-10489
▁kubo	-10490
▁mine	-10491
▁OGASA	-10492
▁dealt	-10493
▁steep	-10494
ciences	-10495
ishamon	-10496
▁Honmon	-10497
▁forbid	-10498
▁review	-10499
▁sechie	-10500
although	-10501
aneously	-10502
▁blossom	-10503
▁loyalty	-10504
▁operate	-10505
▁Fukakusa	-10506
▁Nobuyori	-10507
▁Sarugaku	-10508
▁enormous	-10509
▁meetings	-10510
posthumous	-10511
▁Matsuyama	-10512
▁OGASAWARA	-10513
▁committee	-10514
▁affiliated	-10515
▁shakuhachi	-10516
Pa	-10517
▁--	-10518
▁GO	-10519
NADA	-10520
hies	-10521
hori	-10522
ikyo	-10523
kage	-10524
aping	-10525
atomi	-10526
large	-10527
ormor	-10528
▁kara	-10529
▁sche	-10530
minute	-10531
oshoku	-10532
▁1600,	-10533
▁Hotel	-10534
▁Miura	-10535
▁Uemon	-10536
▁tombs	-10537
Bankoku	-10538
▁Shushi	-10539
▁fisher	-10540
▁Defense	-10541
▁Jimyoin	-10542
▁Shokoku	-10543
▁joining	-10544
▁nations	-10545
▁turning	-10546
▁Akamatsu	-10547
▁Mochiuji	-10548
▁Tokiyori	-10549
▁incorpor	-10550
▁exclusive	-10551
▁worshiped	-10552
▁Yoshimochi	-10553
▁circulation	-10554
▁maintaining	-10555
Me	-10556
Og	-10557
bori	-10558
enic	-10559
jiku	-10560
kake	-10561
kiri	-10562
uben	-10563
▁Bei	-10564
▁Car	-10565
▁hin	-10566
▁sok	-10567
▁tam	-10568
echan	-10569
emono	-10570
josho	-10571
monin	-10572
▁Toho	-10573
▁Ujin	-10574
▁feud	-10575
▁mold	-10576
▁1867,	-10577
▁Fukei	-10578
▁Jingi	-10579
▁Kodai	-10580
▁NAGAI	-10581
▁mural	-10582
▁tourn	-10583
▁turns	-10584
earthed	-10585
natural	-10586
temples	-10587
▁Miroku	-10588
▁disemb	-10589
▁Komachi	-10590
▁Tsubone	-10591
intendent	-10592
▁Tokushima	-10593
▁etiquette	-10594
▁statesman	-10595
▁disturbance	-10596
Ex	-10597
sa	-10598
Dep	-10599
awan	-10600
kuro	-10601
text	-10602
▁ced	-10603
eness	-10604
▁Reng	-10605
asters	-10606
irrors	-10607
▁Ichim	-10608
▁begun	-10609
▁rural	-10610
▁signs	-10611
olished	-10612
▁affair	-10613
▁encoun	-10614
▁tunnel	-10615
▁unless	-10616
Taiheiki	-10617
utamachi	-10618
▁preface	-10619
▁vinegar	-10620
▁Shugodai	-10621
▁Tametomo	-10622
▁cloister	-10623
▁judgment	-10624
▁opposing	-10625
▁reaching	-10626
▁Yoshitane	-10627
▁extending	-10628
▁portraits	-10629
▁confronted	-10630
▁definition	-10631
)-	-10632
?)	-10633
HU	-10634
xi	-10635
-18	-10636
Kum	-10637
▁ox	-10638
bito	-10639
oura	-10640
▁Age	-10641
▁spl	-10642
akama	-10643
allig	-10644
▁Kura	-10645
▁Ojin	-10646
▁belt	-10647
▁data	-10648
NOKOJI	-10649
school	-10650
▁2008,	-10651
▁Buzen	-10652
▁Isami	-10653
▁Junna	-10654
▁Shoji	-10655
▁cycle	-10656
▁honjo	-10657
▁lyric	-10658
▁proof	-10659
▁Regent	-10660
▁Shosho	-10661
▁adjust	-10662
▁engine	-10663
▁hardly	-10664
▁poured	-10665
▁prices	-10666
assigned	-10667
▁Shoroku	-10668
▁Through	-10669
▁differs	-10670
▁singing	-10671
rehensive	-10672
▁Examples	-10673
▁chanting	-10674
▁provides	-10675
▁Shintoism	-10676
▁Yorimitsu	-10677
▁religions	-10678
▁subjugation	-10679
uan	-10680
▁54	-10681
TaPa	-10682
aban	-10683
fold	-10684
▁Eld	-10685
▁sas	-10686
▁sem	-10687
amine	-10688
sweet	-10689
▁Hata	-10690
▁Yone	-10691
▁bore	-10692
▁tail	-10693
▁wand	-10694
public	-10695
▁steps	-10696
▁Chichi	-10697
▁Keitai	-10698
▁Takeru	-10699
▁Tsutsu	-10700
▁asking	-10701
▁debate	-10702
▁ending	-10703
▁owners	-10704
▁pupils	-10705
▁shapes	-10706
▁boiling	-10707
▁crossed	-10708
▁assisted	-10709
▁commerce	-10710
▁storytell	-10711
▁warehouse	-10712
▁Protection	-10713
▁commission	-10714
▁dictionary	-10715
▁considerable	-10716
If	-10717
.).	-10718
nob	-10719
▁53	-10720
,000	-10721
▁kak	-10722
lords	-10723
okata	-10724
shoji	-10725
warri	-10726
▁Writ	-10727
▁pret	-10728
graded	-10729
▁ARAKI	-10730
▁initi	-10731
▁manju	-10732
anouchi	-10733
▁enters	-10734
▁scenic	-10735
▁Goddess	-10736
▁Morosuke	-10737
▁thousands	-10738
▁Yoshishige	-10739
▁thirteenth	-10740
▁Productions	-10741
heng	-10742
maki	-10743
urry	-10744
▁Fuy	-10745
▁ISE	-10746
▁Jos	-10747
There	-10748
▁TAKI	-10749
▁Toka	-10750
▁obey	-10751
agashi	-10752
tering	-10753
▁1863,	-10754
▁1872,	-10755
▁Jinja	-10756
▁Okami	-10757
▁remar	-10758
▁Himiko	-10759
▁Theory	-10760
▁demise	-10761
▁impact	-10762
gressive	-10763
icularly	-10764
▁ISSHIKI	-10765
▁Letters	-10766
▁Medical	-10767
▁charged	-10768
▁depicts	-10769
▁doctors	-10770
▁Sukeroku	-10771
▁confused	-10772
▁guarding	-10773
▁hospital	-10774
▁nowadays	-10775
▁Yamanashi	-10776
▁Yoshimura	-10777
▁executive	-10778
▁exhibited	-10779
▁phenomenon	-10780
60	-10781
Kur	-10782
dox	-10783
▁1-	-10784
▁Op	-10785
▁Ou	-10786
agod	-10787
itle	-10788
oton	-10789
▁chr	-10790
▁ris	-10791
Diary	-10792
ilion	-10793
▁Gent	-10794
▁Jose	-10795
▁guid	-10796
▁Broad	-10797
▁Ikeda	-10798
▁Style	-10799
▁lover	-10800
▁roots	-10801
meaning	-10802
▁Shinno	-10803
▁kagura	-10804
▁Yamatai	-10805
▁hierarchy	-10806
▁questions	-10807
▁communities	-10808
RE	-10809
▁45	-10810
zhou	-10811
▁Fum	-10812
▁Hor	-10813
▁Kor	-10814
▁hem	-10815
▁noh	-10816
anami	-10817
duces	-10818
faced	-10819
ilies	-10820
usada	-10821
▁Miwa	-10822
▁Yagi	-10823
▁doll	-10824
▁robe	-10825
elfare	-10826
priest	-10827
▁Mikkyo	-10828
▁Nagaok	-10829
▁behalf	-10830
▁fellow	-10831
athagata	-10832
▁matches	-10833
▁mourning	-10834
magistrate	-10835
▁discrimin	-10836
▁comparison	-10837
▁conspiracy	-10838
Do	-10839
eer	-10840
lay	-10841
▁Ii	-10842
Comm	-10843
▁Don	-10844
▁Jes	-10845
▁Kaj	-10846
▁aus	-10847
▁tut	-10848
ograp	-10849
▁HASE	-10850
▁talk	-10851
▁Taiko	-10852
▁annex	-10853
▁koban	-10854
▁realm	-10855
located	-10856
▁Gongen	-10857
▁couple	-10858
▁mutual	-10859
▁myster	-10860
▁pepper	-10861
▁precise	-10862
▁recover	-10863
▁screens	-10864
astically	-10865
▁allowing	-10866
▁Tadatsune	-10867
▁proceeded	-10868
▁interested	-10869
▁invocation	-10870
▁supervised	-10871
NIN	-10872
fire	-10873
upon	-10874
anaka	-10875
▁Dojo	-10876
▁HATA	-10877
▁else	-10878
▁vary	-10879
itoshi	-10880
shichi	-10881
▁Akiko	-10882
▁Villa	-10883
▁cited	-10884
▁ridge	-10885
▁rocks	-10886
▁bureau	-10887
▁sleeve	-10888
▁stages	-10889
▁Similar	-10890
▁banquet	-10891
▁greater	-10892
▁ignored	-10893
▁Medicine	-10894
▁advisers	-10895
▁treaties	-10896
▁Takashima	-10897
▁mediation	-10898
▁sufficient	-10899
▁effectively	-10900
▁rectangular	-10901
FU	-10902
MU	-10903
God	-10904
Hak	-10905
bur	-10906
hal	-10907
imo	-10908
▁37	-10909
▁za	-10910
GAKI	-10911
vity	-10912
▁2008	-10913
▁Junt	-10914
▁Oita	-10915
▁Soji	-10916
▁wasn	-10917
sacred	-10918
▁Ansei	-10919
▁asser	-10920
▁corps	-10921
▁crack	-10922
▁Heizei	-10923
▁Honzon	-10924
▁Kinema	-10925
▁Rokuro	-10926
▁Wafuku	-10927
▁fallen	-10928
shogunal	-10929
▁Izanami	-10930
▁Perform	-10931
▁ceiling	-10932
▁adoption	-10933
▁boundary	-10934
▁folklore	-10935
▁remember	-10936
▁Afterward	-10937
▁reflected	-10938
▁sanctuary	-10939
▁furthermore	-10940
▁practically	-10941
▁accomplished	-10942
▁instructions	-10943
Is	-10944
Ka	-10945
KUMA	-10946
lead	-10947
real	-10948
wake	-10949
▁104	-10950
▁Nam	-10951
▁gan	-10952
ensei	-10953
hirty	-10954
▁dojo	-10955
▁furn	-10956
agodas	-10957
except	-10958
middle	-10959
omitsu	-10960
person	-10961
▁chose	-10962
▁layer	-10963
▁shore	-10964
▁Gosaga	-10965
▁Kagawa	-10966
▁Kansei	-10967
▁Sahyoe	-10968
▁Sports	-10969
▁corrid	-10970
▁eleven	-10971
▁paying	-10972
▁elected	-10973
▁monopol	-10974
▁Bishamon	-10975
▁SAWAMURA	-10976
▁Kiritsubo	-10977
▁Oyamazaki	-10978
▁woodblock	-10979
▁UTSUNOMIYA	-10980
Tr	-10981
isp	-10982
BORI	-10983
oped	-10984
▁Cha	-10985
▁Tob	-10986
▁bot	-10987
▁Muro	-10988
▁TORI	-10989
▁chin	-10990
▁kelp	-10991
arashi	-10992
thodox	-10993
▁Akira	-10994
▁Seika	-10995
▁brief	-10996
▁costs	-10997
Higashi	-10998
regular	-10999
▁Moriya	-11000
▁authen	-11001
▁actress	-11002
▁dropped	-11003
▁Training	-11004
▁abdication	-11005
▁collective	-11006
▁mausoleums	-11007
Confucianism	-11008
TR	-11009
uo	-11010
.),	-11011
4),	-11012
Ise	-11013
Mon	-11014
div	-11015
vals	-11016
ilver	-11017
yoshu	-11018
▁Born	-11019
▁Koki	-11020
▁nori	-11021
▁sequ	-11022
echika	-11023
orical	-11024
otsuna	-11025
utsugu	-11026
▁CHIBA	-11027
▁Hides	-11028
▁Isshu	-11029
▁Never	-11030
▁glass	-11031
▁overl	-11032
▁Sakura	-11033
▁notion	-11034
▁Finance	-11035
▁KIKUCHI	-11036
▁Yoshimi	-11037
▁experts	-11038
▁hearing	-11039
▁heavily	-11040
▁network	-11041
▁pursued	-11042
ocational	-11043
▁Motonaga	-11044
▁disaster	-11045
▁excluded	-11046
▁schedule	-11047
▁welcomed	-11048
▁diplomacy	-11049
▁dormitory	-11050
▁parliament	-11051
▁strengthen	-11052
▁inheritance	-11053
▁announcement	-11054
Al	-11055
Iw	-11056
Nak	-11057
▁Jus	-11058
▁rhy	-11059
arian	-11060
▁Kuge	-11061
▁kiln	-11062
▁milk	-11063
agonal	-11064
honzan	-11065
inates	-11066
junior	-11067
rolled	-11068
▁Hosso	-11069
▁SHIGE	-11070
▁ahead	-11071
▁PiTaPa	-11072
▁Yasaka	-11073
▁driven	-11074
▁parade	-11075
▁renown	-11076
▁stalls	-11077
▁Hanshin	-11078
▁Nohgaku	-11079
▁comprom	-11080
▁tsubone	-11081
▁Atsutane	-11082
▁OGIMACHI	-11083
▁fortress	-11084
▁frequent	-11085
▁interior	-11086
▁centuries	-11087
▁disasters	-11088
▁dominated	-11089
▁reduction	-11090
▁proclaimed	-11091
▁relocation	-11092
▁inaugurated	-11093
▁introducing	-11094
▁perspective	-11095
ona	-11096
agai	-11097
appo	-11098
etic	-11099
ongo	-11100
rian	-11101
▁mok	-11102
aboko	-11103
ataro	-11104
igawa	-11105
orian	-11106
▁Eiga	-11107
▁Hagi	-11108
▁Kofu	-11109
▁YOKO	-11110
▁buke	-11111
▁coal	-11112
▁mats	-11113
Shogun	-11114
▁1864,	-11115
▁Ehime	-11116
▁Kings	-11117
▁Onsen	-11118
▁seeds	-11119
▁storm	-11120
akazura	-11121
▁Aomori	-11122
▁Retain	-11123
▁eighty	-11124
▁Offices	-11125
▁climate	-11126
▁Mineyama	-11127
▁Naganori	-11128
▁attempts	-11129
▁explains	-11130
▁inferior	-11131
▁machines	-11132
▁acknowled	-11133
▁processed	-11134
▁unearthed	-11135
▁Ichinomiya	-11136
▁ultimately	-11137
▁communication	-11138
7-	-11139
Ku	-11140
tw	-11141
aso	-11142
omb	-11143
▁JI	-11144
aten	-11145
cret	-11146
otak	-11147
post	-11148
uiju	-11149
zono	-11150
▁Bok	-11151
▁Kid	-11152
▁Way	-11153
▁1869	-11154
▁lake	-11155
▁udon	-11156
Uesugi	-11157
zakura	-11158
▁Buses	-11159
▁Gozan	-11160
▁Nagao	-11161
▁bowls	-11162
▁marks	-11163
▁waist	-11164
▁Kanpei	-11165
▁assist	-11166
▁cypress	-11167
shogunate	-11168
▁Hiromoto	-11169
▁certific	-11170
▁performs	-11171
▁possibly	-11172
▁Yoshimori	-11173
▁Concerning	-11174
▁princesses	-11175
▁successors	-11176
▁consumption	-11177
33	-11178
kak	-11179
WAKA	-11180
wear	-11181
▁Mom	-11182
▁hok	-11183
Tango	-11184
erals	-11185
imura	-11186
uliar	-11187
utaka	-11188
▁Club	-11189
▁SERI	-11190
▁Seig	-11191
▁ener	-11192
▁fing	-11193
▁riot	-11194
▁Shozo	-11195
▁TSUDA	-11196
▁ports	-11197
▁Chiten	-11198
▁Saigyo	-11199
▁Sasaki	-11200
▁Shonai	-11201
▁Tadataka	-11202
▁answered	-11203
▁deployed	-11204
▁excelled	-11205
▁taxation	-11206
▁Industrial	-11207
▁politician	-11208
▁reinforcements	-11209
,)	-11210
Jo	-11211
ann	-11212
osh	-11213
▁34	-11214
▁55	-11215
▁Eb	-11216
moil	-11217
only	-11218
udge	-11219
▁Cal	-11220
▁pec	-11221
aisei	-11222
inous	-11223
train	-11224
▁1990	-11225
▁Back	-11226
▁Real	-11227
▁whis	-11228
etoshi	-11229
▁Kutsu	-11230
▁OTANI	-11231
▁Shaku	-11232
▁Tower	-11233
▁needs	-11234
▁rebel	-11235
▁easier	-11236
▁intent	-11237
▁thrown	-11238
▁penalty	-11239
▁NAKAHARA	-11240
▁Tokimune	-11241
▁genealog	-11242
▁outbound	-11243
▁Yoshikane	-11244
▁ordinance	-11245
▁scheduled	-11246
▁technical	-11247
▁protecting	-11248
▁reportedly	-11249
▁extraordinary	-11250
▁0	-11251
Myo	-11252
etr	-11253
▁Ru	-11254
Otsu	-11255
ofun	-11256
▁KOI	-11257
▁REI	-11258
▁Tun	-11259
▁ham	-11260
asshi	-11261
stage	-11262
▁Food	-11263
▁Hana	-11264
▁Ital	-11265
▁Koan	-11266
▁Note	-11267
▁beer	-11268
▁hyak	-11269
▁kanjo	-11270
▁roofs	-11271
another	-11272
▁Econom	-11273
▁burden	-11274
▁enthus	-11275
▁liquid	-11276
▁mental	-11277
▁minute	-11278
▁plates	-11279
▁exactly	-11280
▁obliged	-11281
administr	-11282
▁assembly	-11283
omiyatsuko	-11284
▁excluding	-11285
▁patriarch	-11286
▁peninsula	-11287
▁suspicion	-11288
▁underwent	-11289
▁Hachimangu	-11290
▁authorized	-11291
▁ministries	-11292
▁principles	-11293
▁Amanohashidate	-11294
▁x	-11295
due	-11296
iro	-11297
atai	-11298
food	-11299
nery	-11300
oper	-11301
▁Bai	-11302
▁amo	-11303
▁jew	-11304
amaru	-11305
etary	-11306
igase	-11307
▁neck	-11308
▁ogre	-11309
itable	-11310
▁Emaki	-11311
▁Monju	-11312
▁Study	-11313
▁depth	-11314
ocratic	-11315
ugakuin	-11316
▁Keishi	-11317
▁Sanjus	-11318
▁Shoshu	-11319
▁daikon	-11320
▁fusuma	-11321
▁degrees	-11322
▁trained	-11323
thologies	-11324
▁Gokuraku	-11325
▁Kikugoro	-11326
▁SERIZAWA	-11327
▁Sugawara	-11328
▁tangible	-11329
▁chopsticks	-11330
▁horizontal	-11331
▁descendents	-11332
▁involvement	-11333
▁commissioner	-11334
▁constructing	-11335
1).	-11336
7),	-11337
Sar	-11338
sun	-11339
▁Env	-11340
▁Usa	-11341
DAIJI	-11342
myaku	-11343
▁Fort	-11344
▁Hira	-11345
▁TOMI	-11346
▁YUKI	-11347
▁bare	-11348
▁blow	-11349
▁util	-11350
encing	-11351
engers	-11352
▁Dogen	-11353
▁Takem	-11354
▁diver	-11355
▁ronin	-11356
▁SANADA	-11357
▁grains	-11358
daughter	-11359
▁Shinzei	-11360
▁contrad	-11361
▁revenue	-11362
▁Historic	-11363
▁arriving	-11364
▁decrease	-11365
▁murdered	-11366
▁peaceful	-11367
▁stronger	-11368
▁Iwashimizu	-11369
▁advocating	-11370
▁publishing	-11371
▁manufacturers	-11372
16	-11373
Bi	-11374
gok	-11375
▁38	-11376
▁fix	-11377
▁fox	-11378
▁nen	-11379
China	-11380
odiac	-11381
▁Ikki	-11382
▁Soke	-11383
▁mons	-11384
overty	-11385
uryoju	-11386
▁SHIBU	-11387
▁Yotsu	-11388
▁koryo	-11389
▁sochi	-11390
▁stead	-11391
▁Social	-11392
▁answer	-11393
▁graves	-11394
▁heated	-11395
▁naming	-11396
▁summon	-11397
▁Gosanjo	-11398
▁Supreme	-11399
▁Jingikan	-11400
▁NAKAGAWA	-11401
▁Saneyori	-11402
▁peculiar	-11403
▁versions	-11404
generation	-11405
▁TOKUDAIJI	-11406
▁chronicle	-11407
▁industries	-11408
▁practition	-11409
▁Nakatsukasa	-11410
▁alternative	-11411
▁Agricultural	-11412
bit	-11413
oyu	-11414
held	-11415
that	-11416
▁spo	-11417
udaka	-11418
ukaku	-11419
▁Taku	-11420
▁Zhou	-11421
▁chec	-11422
▁danc	-11423
▁hors	-11424
▁jump	-11425
▁pack	-11426
▁pion	-11427
▁sung	-11428
atsumi	-11429
▁Revol	-11430
▁depos	-11431
▁threw	-11432
▁Joseon	-11433
▁Sadaie	-11434
▁Sotoku	-11435
▁flying	-11436
▁transp	-11437
▁Ujimasa	-11438
▁driving	-11439
▁Pilgrimage	-11440
exp	-11441
ador	-11442
▁Aoi	-11443
▁nan	-11444
eling	-11445
osaki	-11446
▁Kawa	-11447
▁Sato	-11448
▁Supp	-11449
▁imit	-11450
▁kiri	-11451
▁kuji	-11452
▁stro	-11453
NONOBE	-11454
ellect	-11455
himaro	-11456
ietnam	-11457
▁Daiei	-11458
▁Kanji	-11459
▁Kegon	-11460
▁Okuma	-11461
▁Shobo	-11462
▁Tsuna	-11463
▁debut	-11464
▁emiss	-11465
▁fires	-11466
▁speak	-11467
▁Shikin	-11468
▁Wisdom	-11469
▁boards	-11470
▁choice	-11471
▁sprink	-11472
▁sticks	-11473
▁Asakusa	-11474
▁jointly	-11475
▁monarch	-11476
▁vessels	-11477
▁writers	-11478
▁Tokihira	-11479
▁portable	-11480
▁vehicles	-11481
▁Kanemichi	-11482
▁happiness	-11483
▁inspector	-11484
▁mysterious	-11485
▁Shimonoseki	-11486
78	-11487
adv	-11488
hid	-11489
jik	-11490
umu	-11491
was	-11492
▁1:	-11493
▁DO	-11494
ribe	-11495
▁hut	-11496
▁mae	-11497
isaki	-11498
white	-11499
▁Inst	-11500
▁KINO	-11501
▁Type	-11502
▁Umay	-11503
▁aunt	-11504
▁bond	-11505
▁fond	-11506
▁hope	-11507
▁yama	-11508
YAKAWA	-11509
inkaku	-11510
storey	-11511
▁2,000	-11512
▁Osumi	-11513
▁REIZE	-11514
▁Sword	-11515
▁fleet	-11516
▁Matsuo	-11517
▁Shimog	-11518
▁betray	-11519
▁claims	-11520
▁freely	-11521
▁noodle	-11522
levision	-11523
▁Chamber	-11524
▁HIGASHI	-11525
▁kanpaku	-11526
▁Heiankyo	-11527
▁Tsukushi	-11528
▁connects	-11529
▁follower	-11530
▁mentions	-11531
▁Tamakazura	-11532
▁approached	-11533
▁occupation	-11534
▁prosperous	-11535
▁Marutamachi	-11536
▁locomotives	-11537
▁Chrysanthemum	-11538
9),	-11539
One	-11540
but	-11541
ram	-11542
▁Di	-11543
▁ak	-11544
▁zu	-11545
JUJI	-11546
Shir	-11547
iken	-11548
inox	-11549
▁DAI	-11550
enari	-11551
ritsu	-11552
▁Hama	-11553
▁Hous	-11554
▁NIWA	-11555
▁Wang	-11556
▁mono	-11557
encies	-11558
imonin	-11559
▁BANDO	-11560
▁Depot	-11561
▁colon	-11562
▁drunk	-11563
▁ordin	-11564
changed	-11565
▁Course	-11566
▁Deputy	-11567
▁Golden	-11568
▁Michim	-11569
▁assets	-11570
▁danger	-11571
▁sexual	-11572
▁sweets	-11573
Director	-11574
▁Britain	-11575
▁Chikugo	-11576
▁inbound	-11577
important	-11578
ushingura	-11579
▁emergency	-11580
▁signature	-11581
▁confidence	-11582
70	-11583
EKI	-11584
Fuk	-11585
Kar	-11586
hot	-11587
kar	-11588
▁ADA	-11589
▁lid	-11590
▁sop	-11591
▁tob	-11592
adium	-11593
▁1871	-11594
▁Kobo	-11595
▁Konp	-11596
▁Rice	-11597
▁casu	-11598
▁Iruka	-11599
▁Jomei	-11600
▁Obaku	-11601
▁Yatsu	-11602
▁aware	-11603
igation	-11604
▁Minato	-11605
▁Number	-11606
▁refuge	-11607
▁Despite	-11608
▁Shigeko	-11609
▁casting	-11610
▁strange	-11611
officials	-11612
▁Daibutsu	-11613
▁rendered	-11614
▁supplied	-11615
▁switched	-11616
▁surprised	-11617
▁Intangible	-11618
▁prohibition	-11619
▁purification	-11620
cut	-11621
MIZU	-11622
fuda	-11623
rupt	-11624
ules	-11625
▁Uma	-11626
agaya	-11627
angen	-11628
apped	-11629
ensai	-11630
urban	-11631
▁ANDO	-11632
▁Here	-11633
▁Ryoo	-11634
▁Ukon	-11635
▁dawn	-11636
▁deer	-11637
▁malt	-11638
lation	-11639
uryaku	-11640
▁anger	-11641
▁drums	-11642
▁exter	-11643
▁lawsu	-11644
▁reads	-11645
▁30,000	-11646
▁Honshu	-11647
▁KOBORI	-11648
▁MIYAKE	-11649
▁bonito	-11650
entially	-11651
▁Tsurugi	-11652
▁winning	-11653
▁MONONOBE	-11654
▁artistic	-11655
▁sanction	-11656
▁HASHIMOTO	-11657
▁Retainers	-11658
▁SANJONISHI	-11659
▁appointing	-11660
▁asceticism	-11661
▁remarkable	-11662
▁illustrated	-11663
▁magistrates	-11664
Omi	-11665
sit	-11666
atta	-11667
unch	-11668
▁SUE	-11669
itake	-11670
ubles	-11671
unari	-11672
▁Brew	-11673
▁Kiku	-11674
▁View	-11675
▁goku	-11676
Buddha	-11677
lowers	-11678
▁Keiko	-11679
▁Paris	-11680
▁Saito	-11681
▁Sakon	-11682
▁Tamur	-11683
▁artif	-11684
▁beads	-11685
▁disgu	-11686
izaemon	-11687
special	-11688
waiting	-11689
▁ADACHI	-11690
▁KAJUJI	-11691
▁REIZEI	-11692
▁insist	-11693
▁simult	-11694
▁seventy	-11695
▁Kagetora	-11696
▁Kamatari	-11697
▁Nakamura	-11698
▁capitals	-11699
▁mainland	-11700
▁meanings	-11701
▁negative	-11702
▁shortage	-11703
▁Yoshihira	-11704
▁controvers	-11705
▁restricted	-11706
▁supervision	-11707
4-	-11708
Om	-11709
2),	-11710
7).	-11711
Off	-11712
vie	-11713
▁39	-11714
▁Ga	-11715
fare	-11716
kazu	-11717
▁Box	-11718
akari	-11719
ocked	-11720
▁KAJI	-11721
▁Yomi	-11722
▁aide	-11723
ishiro	-11724
kanjin	-11725
▁Ippon	-11726
▁Koren	-11727
▁Maeda	-11728
▁NAGAO	-11729
▁ready	-11730
▁rough	-11731
aruhito	-11732
▁Sandai	-11733
▁iemoto	-11734
▁punish	-11735
▁Between	-11736
▁honored	-11737
▁mounted	-11738
▁pretext	-11739
▁Location	-11740
▁Standing	-11741
▁Yorinobu	-11742
▁powdered	-11743
▁Yoriyoshi	-11744
▁Conference	-11745
▁attributed	-11746
▁cooperated	-11747
▁connections	-11748
▁destruction	-11749
39	-11750
Mus	-11751
lim	-11752
▁52	-11753
▁ax	-11754
chis	-11755
iner	-11756
rait	-11757
▁Gog	-11758
▁KAI	-11759
▁KIK	-11760
▁eth	-11761
▁pet	-11762
▁rin	-11763
amaki	-11764
atori	-11765
▁Furu	-11766
▁Kiri	-11767
▁Kume	-11768
▁WAKI	-11769
▁bows	-11770
▁cave	-11771
▁dign	-11772
▁goal	-11773
▁soci	-11774
formal	-11775
myocho	-11776
▁Insei	-11777
▁Kyoho	-11778
▁ashes	-11779
▁autom	-11780
▁beach	-11781
▁decis	-11782
▁gorge	-11783
▁grace	-11784
▁knead	-11785
▁zuryo	-11786
▁Pagoda	-11787
▁begins	-11788
▁native	-11789
▁picked	-11790
▁proved	-11791
▁UMEWAKA	-11792
▁Vietnam	-11793
▁ceramic	-11794
▁compens	-11795
▁heading	-11796
▁Archives	-11797
▁Retained	-11798
▁apparent	-11799
▁purchase	-11800
▁renowned	-11801
▁thatched	-11802
▁Hashimoto	-11803
▁dynasties	-11804
▁prospered	-11805
▁sentences	-11806
▁Christians	-11807
▁Earthquake	-11808
▁Production	-11809
▁Yoshitoshi	-11810
▁apparently	-11811
▁continuing	-11812
▁privileges	-11813
▁Broadcasting	-11814
35	-11815
4).	-11816
Har	-11817
▁Ek	-11818
juin	-11819
just	-11820
ueen	-11821
uits	-11822
unit	-11823
▁mal	-11824
▁rei	-11825
tsuho	-11826
usame	-11827
▁Hase	-11828
▁KIDO	-11829
▁Kibi	-11830
▁Oike	-11831
▁bord	-11832
▁phon	-11833
anjiri	-11834
arting	-11835
▁Kogon	-11836
▁Korin	-11837
▁butsu	-11838
▁chall	-11839
▁seals	-11840
▁wheel	-11841
endants	-11842
higashi	-11843
▁Chogin	-11844
▁Gohojo	-11845
▁Kokufu	-11846
▁pedest	-11847
stitutes	-11848
▁Hitotsu	-11849
▁Ietsugu	-11850
▁advised	-11851
▁freedom	-11852
▁pirates	-11853
▁texture	-11854
▁Nowadays	-11855
▁dwelling	-11856
▁heavenly	-11857
▁instance	-11858
▁Katamachi	-11859
▁accession	-11860
▁histories	-11861
▁Tamuramaro	-11862
▁privileged	-11863
▁mathematics	-11864
▁Nevertheless	-11865
▁chrysanthemum	-11866
25	-11867
00.	-11868
Gun	-11869
tak	-11870
athy	-11871
moku	-11872
otic	-11873
well	-11874
zing	-11875
▁Gek	-11876
▁ISO	-11877
▁Iki	-11878
SHIRO	-11879
asant	-11880
otaku	-11881
paper	-11882
tsuji	-11883
uated	-11884
▁Buke	-11885
▁grat	-11886
Office	-11887
aekche	-11888
hrined	-11889
▁1873,	-11890
▁Given	-11891
▁Gyoki	-11892
▁Kendo	-11893
▁cedar	-11894
▁chant	-11895
▁effic	-11896
▁sheet	-11897
▁teeth	-11898
▁Ienobu	-11899
▁Kinmei	-11900
▁reside	-11901
▁rising	-11902
▁rushed	-11903
▁varied	-11904
▁Tennoji	-11905
▁absence	-11906
▁beliefs	-11907
▁jujutsu	-11908
▁pagodas	-11909
▁wedding	-11910
▁counties	-11911
▁Anthology	-11912
▁Yoritsune	-11913
▁candidate	-11914
▁legendary	-11915
▁persuaded	-11916
▁portrayed	-11917
▁seclusion	-11918
▁earthquake	-11919
▁TSUCHIMIKADO	-11920
▁subordinates	-11921
iny	-11922
ius	-11923
▁7.	-11924
▁aw	-11925
Pure	-11926
eria	-11927
▁CHO	-11928
bishi	-11929
hetic	-11930
oromo	-11931
ortal	-11932
stuff	-11933
▁gent	-11934
▁lies	-11935
▁saku	-11936
▁Bugyo	-11937
▁Chion	-11938
▁Fujin	-11939
▁apply	-11940
▁ninja	-11941
▁prest	-11942
However	-11943
emperor	-11944
▁Fudoki	-11945
▁Taisei	-11946
▁dharma	-11947
▁extant	-11948
▁joruri	-11949
▁judged	-11950
▁radish	-11951
hachiman	-11952
ugoinoge	-11953
▁Ietsuna	-11954
▁KIKKAWA	-11955
▁Kikuchi	-11956
▁admired	-11957
▁distant	-11958
▁fifteen	-11959
▁obvious	-11960
▁Sanetaka	-11961
▁Takatoki	-11962
▁counting	-11963
▁friendly	-11964
▁Yoshizumi	-11965
▁ancestral	-11966
▁specially	-11967
▁commentaries	-11968
▁historically	-11969
Te	-11970
ZO	-11971
zz	-11972
2).	-11973
3).	-11974
GAI	-11975
iger	-11976
inks	-11977
iran	-11978
size	-11979
urei	-11980
▁Cat	-11981
▁Kay	-11982
▁cow	-11983
agger	-11984
aisen	-11985
break	-11986
etane	-11987
▁Hiki	-11988
▁Text	-11989
▁mush	-11990
▁sail	-11991
▁vast	-11992
apping	-11993
stable	-11994
▁Polit	-11995
▁genre	-11996
▁holes	-11997
▁worse	-11998
between	-11999
▁MURATA	-12000
▁Mizuno	-12001
▁Scenic	-12002
▁ensemb	-12003
▁keeper	-12004
▁lyrics	-12005
▁praise	-12006
▁signal	-12007
▁talked	-12008
▁values	-12009
anguages	-12010
owelment	-12011
▁brewery	-12012
▁danjiri	-12013
▁dialect	-12014
▁hostage	-12015
▁poverty	-12016
▁violent	-12017
▁pleasure	-12018
▁preserve	-12019
▁troubles	-12020
▁Mitsukuni	-12021
▁allegedly	-12022
▁authentic	-12023
▁preparing	-12024
▁reverence	-12025
▁exceptional	-12026
▁modernization	-12027
bus	-12028
thm	-12029
▁Up	-12030
NUMA	-12031
acco	-12032
▁III	-12033
▁pig	-12034
KAIDO	-12035
gence	-12036
koshi	-12037
uruwa	-12038
ichijo	-12039
▁Gunji	-12040
▁Shira	-12041
▁Sotan	-12042
▁throw	-12043
anohara	-12044
manager	-12045
▁Rakugo	-12046
▁Tomiko	-12047
▁compos	-12048
▁kazoku	-12049
▁remote	-12050
▁subway	-12051
▁Kitaoji	-12052
▁Monzeki	-12053
▁Yuryaku	-12054
▁barrier	-12055
▁mirrors	-12056
▁omitted	-12057
▁KIYOHARA	-12058
▁Yoshinao	-12059
▁earliest	-12060
▁emphasis	-12061
▁KINOSHITA	-12062
▁continent	-12063
▁measuring	-12064
▁preferred	-12065
▁Yoshitsuna	-12066
▁initiative	-12067
▁scientific	-12068
chaeological	-12069
▁decorations	-12070
80	-12071
▁\	-12072
Kas	-12073
kaw	-12074
▁US	-12075
MORI	-12076
iryu	-12077
meda	-12078
unan	-12079
wife	-12080
▁Oke	-12081
▁URA	-12082
ifies	-12083
▁Cord	-12084
▁Shiz	-12085
▁adap	-12086
▁gong	-12087
▁shik	-12088
Record	-12089
▁Hiron	-12090
▁Renge	-12091
▁curse	-12092
▁float	-12093
▁focus	-12094
▁ninet	-12095
mediate	-12096
pecific	-12097
▁Goryeo	-12098
▁Nagara	-12099
▁Taking	-12100
▁Ukiyoe	-12101
▁Aritomo	-12102
▁Isshiki	-12103
▁NIKAIDO	-12104
▁custody	-12105
▁grilled	-12106
▁Shugendo	-12107
▁Tadamori	-12108
▁Tomomasa	-12109
▁YAMAUCHI	-12110
▁lineages	-12111
▁somewhat	-12112
▁teahouse	-12113
▁Yoshihide	-12114
▁framework	-12115
▁intellect	-12116
▁lacquered	-12117
▁assumption	-12118
▁bureaucrat	-12119
▁forefather	-12120
▁historians	-12121
▁instructed	-12122
▁handwriting	-12123
▁contributions	-12124
)(	-12125
For	-12126
▁Fl	-12127
West	-12128
toyo	-12129
ysis	-12130
▁tie	-12131
TSUJI	-12132
myoji	-12133
today	-12134
▁1970	-12135
▁Taga	-12136
▁hemp	-12137
▁rent	-12138
▁rite	-12139
▁Bando	-12140
▁Bunka	-12141
▁Hatsu	-12142
▁Taifu	-12143
▁enhan	-12144
▁grant	-12145
omozono	-12146
▁Hannya	-12147
▁Inland	-12148
▁Tanaka	-12149
▁allegi	-12150
▁daikan	-12151
▁feared	-12152
▁finger	-12153
▁Ukifune	-12154
▁derives	-12155
▁dischar	-12156
▁genpuku	-12157
▁HASEGAWA	-12158
▁besieged	-12159
▁concepts	-12160
▁donation	-12161
▁external	-12162
▁starring	-12163
grandchild	-12164
▁Gokomatsu	-12165
▁Matsumoto	-12166
▁involving	-12167
▁musicians	-12168
▁swordplay	-12169
▁illustrations	-12170
Cl	-12171
rok	-12172
sis	-12173
▁59	-12174
▁91	-12175
▁Wu	-12176
asak	-12177
asha	-12178
emen	-12179
▁Tat	-12180
▁aid	-12181
Meiji	-12182
icked	-12183
itage	-12184
▁Gamo	-12185
▁Kobu	-12186
▁Long	-12187
iently	-12188
rupted	-12189
▁2006.	-12190
▁Fuchu	-12191
▁Fukai	-12192
▁Satur	-12193
▁Times	-12194
▁relie	-12195
▁troup	-12196
ainagon	-12197
▁Nantan	-12198
▁clouds	-12199
▁cormor	-12200
▁tastes	-12201
▁wishes	-12202
▁issuing	-12203
▁mandala	-12204
▁mikoshi	-12205
▁syncret	-12206
▁Alliance	-12207
▁Industry	-12208
▁Kinmochi	-12209
▁Onmyoryo	-12210
▁Yasumori	-12211
▁courtier	-12212
▁reliable	-12213
correspond	-12214
▁divisions	-12215
▁Kazunomiya	-12216
▁assistance	-12217
▁abbreviated	-12218
sl	-12219
Eng	-12220
▁6.	-12221
Kuro	-12222
sama	-12223
beans	-12224
omura	-12225
rooms	-12226
▁1960	-12227
▁Fumi	-12228
▁Greg	-12229
▁Maro	-12230
gakari	-12231
minals	-12232
orting	-12233
oshige	-12234
otsugu	-12235
▁Kaido	-12236
▁torii	-12237
picious	-12238
▁Adachi	-12239
▁Consid	-12240
▁Dharma	-12241
▁Negoro	-12242
▁Takada	-12243
▁Tenryu	-12244
▁factor	-12245
▁latest	-12246
▁mixing	-12247
▁observ	-12248
▁produc	-12249
▁washed	-12250
resident	-12251
▁Located	-12252
▁SHIMIZU	-12253
▁diaries	-12254
▁onwards	-12255
▁severed	-12256
▁skilled	-12257
ographies	-12258
territory	-12259
▁Nobuhide	-12260
▁Resigned	-12261
▁inserted	-12262
▁ministry	-12263
▁promised	-12264
▁quantity	-12265
▁Daikakuji	-12266
▁Narichika	-12267
▁afterward	-12268
▁expresses	-12269
▁preaching	-12270
▁Chronicles	-12271
▁newspapers	-12272
▁photograph	-12273
▁subsidiary	-12274
▁settlements	-12275
▁disembowelment	-12276
DL	-12277
Acc	-12278
dis	-12279
▁Ue	-12280
kado	-12281
kiya	-12282
utei	-12283
▁INU	-12284
▁Zai	-12285
▁sac	-12286
inher	-12287
keshu	-12288
▁AZAI	-12289
▁Kido	-12290
▁Wada	-12291
▁elig	-12292
▁encl	-12293
▁ride	-12294
▁rope	-12295
flower	-12296
▁1870,	-12297
▁Daini	-12298
▁Kunin	-12299
▁Shuri	-12300
▁Story	-12301
▁ashig	-12302
▁steel	-12303
officer	-12304
uration	-12305
▁Kuwana	-12306
▁Rising	-12307
▁attire	-12308
▁elders	-12309
▁levels	-12310
▁Picture	-12311
▁manhood	-12312
▁Children	-12313
▁Nishioji	-12314
▁Oriental	-12315
▁exercise	-12316
▁punitive	-12317
▁shopping	-12318
▁Southeast	-12319
▁impressed	-12320
▁initiated	-12321
▁whereupon	-12322
▁apprentice	-12323
Yu	-12324
3),	-12325
▁63	-12326
Hong	-12327
TORI	-12328
ayam	-12329
esue	-12330
onda	-12331
uban	-12332
▁Tek	-12333
▁hur	-12334
▁mir	-12335
▁tom	-12336
world	-12337
▁KONO	-12338
▁Koyo	-12339
▁Oyam	-12340
▁aven	-12341
▁clar	-12342
▁comr	-12343
▁mill	-12344
▁scar	-12345
NAMOTO	-12346
aximum	-12347
coming	-12348
iliary	-12349
wooden	-12350
▁1180,	-12351
▁5,000	-12352
▁Kanno	-12353
▁Power	-12354
▁azana	-12355
abusame	-12356
emetery	-12357
tumulus	-12358
▁Biwako	-12359
▁Daisho	-12360
▁Kokuga	-12361
▁folded	-12362
▁incomp	-12363
▁pushed	-12364
▁abandon	-12365
▁artific	-12366
▁balance	-12367
atization	-12368
▁boarding	-12369
▁throwing	-12370
▁utilized	-12371
designated	-12372
▁partially	-12373
▁southeast	-12374
▁wrestlers	-12375
▁Ichinotani	-12376
▁Mitsuyoshi	-12377
▁drastically	-12378
Kag	-12379
nic	-12380
amin	-12381
atri	-12382
▁Gai	-12383
▁Sin	-12384
▁Whi	-12385
▁ast	-12386
▁	-12387
e	-12388
a	-12389
o	-12390
t	-12391
i	-12392
n	-12393
s	-12394
r	-12395
h	-12396
d	-12397
u	-12398
l	-12399
c	-12400
m	-12401
f	-12402
p	-12403
g	-12404
y	-12405
w	-12406
,	-12407
k	-12408
b	-12409
.	-12410
v	-12411
A	-12412
T	-12413
S	-12414
(	-12415
)	-12416
K	-12417
I	-12418
-	-12419
H	-12420
M	-12421
'	-12422
j	-12423
O	-12424
1	-12425
N	-12426
C	-12427
J	-12428
"	-12429
E	-12430
R	-12431
z	-12432
P	-12433
Y	-12434
G	-12435
U	-12436
0	-12437
D	-12438
B	-12439
x	-12440
W	-12441
F	-12442
2	-12443
8	-12444
9	-12445
5	-12446
6	-12447
7	-12448
3	-12449
4	-12450
:	-12451
L	-12452
q	-12453
;	-12454
Z	-12455
V	-12456
/	-12457
[	-12458
]	-12459
Q	-12460
X	-12461
?	-12462
>	-12463
=	-12464
–	-12465
%	-12466
`	-12467
大	-12468
*	-12469
の	-12470
!	-12471
・	-12472
子	-12473
国	-12474
&	-12475
山	-12476
神	-12477
、	-12478
王	-12479
一	-12480
人	-12481
天	-12482
日	-12483
之	-12484
三	-12485
道	-12486
院	-12487
法	-12488
本	-12489
御	-12490
し	-12491
田	-12492
命	-12493
り	-12494
に	-12495
上	-12496
é	-12497
義	-12498
\	-12499
中	-12500
十	-12501
月	-12502
宗	-12503
寺	-12504
文	-12505
二	-12506
公	-12507
皇	-12508
記	-12509
い	-12510
五	-12511
+	-12512
門	-12513
女	-12514
野	-12515
長	-12516
家	-12517
正	-12518
郎	-12519
太	-12520
明	-12521
≒	-12522
を	-12523
城	-12524
生	-12525
多	-12526
無	-12527
阿	-12528
平	-12529
部	-12530
安	-12531
小	-12532
き	-12533
元	-12534
木	-12535
八	-12536
下	-12537
川	-12538
光	-12539
金	-12540
信	-12541
和	-12542
事	-12543
候	-12544
経	-12545
■	-12546
る	-12547
ノ	-12548
高	-12549
武	-12550
原	-12551
不	-12552
殿	-12553
造	-12554
<	-12555
真	-12556
ā	-12557
。	-12558
内	-12559
名	-12560
尊	-12561
な	-12562
吉	-12563
常	-12564
都	-12565
と	-12566
仏	-12567
宮	-12568
良	-12569
久	-12570
行	-12571
師	-12572
年	-12573
有	-12574
氏	-12575
清	-12576
倭	-12577
方	-12578
石	-12579
か	-12580
ら	-12581
ん	-12582
徳	-12583
通	-12584
比	-12585
士	-12586
姫	-12587
て	-12588
世	-12589
居	-12590
津	-12591
海	-12592
馬	-12593
く	-12594
如	-12595
藤	-12596
東	-12597
相	-12598
社	-12599
ニ	-12600
以	-12601
伊	-12602
佐	-12603
南	-12604
定	-12605
手	-12606
楽	-12607
は	-12608
シ	-12609
主	-12610
書	-12611
村	-12612
豊	-12613
す	-12614
ま	-12615
心	-12616
志	-12617
重	-12618
う	-12619
代	-12620
言	-12621
も	-12622
井	-12623
百	-12624
政	-12625
蔵	-12626
次	-12627
水	-12628
万	-12629
六	-12630
四	-12631
臣	-12632
た	-12633
朝	-12634
松	-12635
古	-12636
変	-12637
成	-12638
波	-12639
華	-12640
申	-12641
西	-12642
九	-12643
前	-12644
所	-12645
物	-12646
美	-12647
さ	-12648
ヲ	-12649
入	-12650
時	-12651
表	-12652
七	-12653
衛	-12654
千	-12655
智	-12656
賀	-12657
彦	-12658
新	-12659
源	-12660
会	-12661
加	-12662
夜	-12663
官	-12664
れ	-12665
也	-12666
勝	-12667
更	-12668
等	-12669
能	-12670
親	-12671
麻	-12672
へ	-12673
助	-12674
売	-12675
夫	-12676
江	-12677
見	-12678
香	-12679
島	-12680
け	-12681
つ	-12682
出	-12683
寿	-12684
屋	-12685
知	-12686
丸	-12687
利	-12688
合	-12689
春	-12690
是	-12691
雲	-12692
お	-12693
こ	-12694
ハ	-12695
土	-12696
地	-12697
堂	-12698
斎	-12699
直	-12700
→	-12701
々	-12702
弥	-12703
者	-12704
_	-12705
其	-12706
忠	-12707
玉	-12708
白	-12709
興	-12710
霊	-12711
分	-12712
可	-12713
花	-12714
ト	-12715
兵	-12716
國	-12717
論	-12718
風	-12719
°	-12720
テ	-12721
司	-12722
刀	-12723
別	-12724
我	-12725
羅	-12726
ス	-12727
作	-12728
宝	-12729
左	-12730
立	-12731
集	-12732
仁	-12733
印	-12734
広	-12735
教	-12736
京	-12737
守	-12738
慶	-12739
林	-12740
永	-12741
理	-12742
町	-12743
福	-12744
秋	-12745
聖	-12746
観	-12747
鬼	-12748
め	-12749
ル	-12750
呂	-12751
宇	-12752
紀	-12753
衆	-12754
—	-12755
イ	-12756
右	-12757
応	-12758
あ	-12759
在	-12760
毛	-12761
男	-12762
⋯	-12763
や	-12764
乃	-12765
保	-12766
此	-12767
流	-12768
為	-12769
秀	-12770
後	-12771
禅	-12772
自	-12773
軍	-12774
鳥	-12775
が	-12776
市	-12777
弓	-12778
念	-12779
条	-12780
矢	-12781
谷	-12782
足	-12783
関	-12784
み	-12785
キ	-12786
付	-12787
器	-12788
妙	-12789
来	-12790
身	-12791
隆	-12792
雄	-12793
龍	-12794
※	-12795
円	-12796
北	-12797
学	-12798
岐	-12799
戸	-12800
治	-12801
空	-12802
草	-12803
ン	-12804
今	-12805
儀	-12806
奈	-12807
実	-12808
思	-12809
権	-12810
貞	-12811
□	-12812
ふ	-12813
レ	-12814
仲	-12815
伝	-12816
同	-12817
恵	-12818
歌	-12819
河	-12820
貴	-12821
須	-12822
ヨ	-12823
位	-12824
化	-12825
外	-12826
奉	-12827
尾	-12828
蓮	-12829
頼	-12830
ラ	-12831
善	-12832
園	-12833
射	-12834
布	-12835
当	-12836
性	-12837
摩	-12838
於	-12839
橋	-12840
満	-12841
祖	-12842
祭	-12843
陀	-12844
~	-12845
ち	-12846
わ	-12847
ー	-12848
令	-12849
侯	-12850
唐	-12851
庵	-12852
根	-12853
民	-12854
沙	-12855
玄	-12856
盛	-12857
紫	-12858
諸	-12859
ぎ	-12860
ず	-12861
び	-12862
ミ	-12863
反	-12864
喜	-12865
坂	-12866
支	-12867
景	-12868
火	-12869
覚	-12870
邪	-12871
音	-12872
頭	-12873
#	-12874
ç	-12875
む	-12876
台	-12877
将	-12878
形	-12879
意	-12880
房	-12881
目	-12882
第	-12883
達	-12884
酒	-12885
○	-12886
口	-12887
弁	-12888
浄	-12889
竹	-12890
若	-12891
計	-12892
請	-12893
間	-12894
じ	-12895
与	-12896
君	-12897
宣	-12898
帝	-12899
府	-12900
弘	-12901
横	-12902
毘	-12903
牢	-12904
琴	-12905
甲	-12906
稲	-12907
臺	-12908
衣	-12909
せ	-12910
ば	-12911
よ	-12912
力	-12913
取	-12914
図	-12915
宿	-12916
尚	-12917
尼	-12918
局	-12919
度	-12920
康	-12921
忌	-12922
渡	-12923
與	-12924
茂	-12925
語	-12926
説	-12927
謀	-12928
那	-12929
郷	-12930
飯	-12931
鹿	-12932
á	-12933
ī	-12934
云	-12935
兼	-12936
字	-12937
式	-12938
母	-12939
用	-12940
而	-12941
荘	-12942
誉	-12943
連	-12944
鏡	-12945
修	-12946
切	-12947
品	-12948
基	-12949
場	-12950
梅	-12951
浦	-12952
由	-12953
礼	-12954
米	-12955
至	-12956
舞	-12957
英	-12958
館	-12959
魚	-12960
依	-12961
倉	-12962
勢	-12963
向	-12964
夷	-12965
孫	-12966
少	-12967
建	-12968
従	-12969
持	-12970
服	-12971
業	-12972
爵	-12973
牟	-12974
留	-12975
移	-12976
蘭	-12977
被	-12978
賢	-12979
輝	-12980
辰	-12981
里	-12982
顕	-12983
げ	-12984
そ	-12985
べ	-12986
ほ	-12987
ろ	-12988
ク	-12989
サ	-12990
リ	-12991
丹	-12992
介	-12993
仙	-12994
備	-12995
先	-12996
吾	-12997
媛	-12998
得	-12999
敬	-13000
枝	-13001
気	-13002
浪	-13003
瀬	-13004
然	-13005
素	-13006
芸	-13007
葉	-13008
近	-13009
雪	-13010
ó	-13011
ğ	-13012
交	-13013
体	-13014
供	-13015
僧	-13016
制	-13017
功	-13018
務	-13019
坊	-13020
旨	-13021
普	-13022
栄	-13023
死	-13024
種	-13025
節	-13026
聞	-13027
芳	-13028
菩	-13029
葛	-13030
角	-13031
跡	-13032
輪	-13033
録	-13034
開	-13035
陸	-13036
青	-13037
黄	-13038
’	-13039
え	-13040
ナ	-13041
マ	-13042
倍	-13043
后	-13044
壹	-13045
季	-13046
峯	-13047
廠	-13048
沢	-13049
熊	-13050
状	-13051
総	-13052
老	-13053
辺	-13054
飛	-13055
μ	-13056
で	-13057
即	-13058
富	-13059
州	-13060
引	-13061
張	-13062
照	-13063
省	-13064
継	-13065
薩	-13066
豆	-13067
越	-13068
陽	-13069
雨	-13070
面	-13071
ü	-13072
フ	-13073
住	-13074
使	-13075
参	-13076
室	-13077
寳	-13078
岡	-13079
済	-13080
現	-13081
瓊	-13082
竜	-13083
紙	-13084
絵	-13085
縁	-13086
背	-13087
蝦	-13088
量	-13089
黒	-13090
à	-13091
ū	-13092
オ	-13093
ム	-13094
乙	-13095
伯	-13096
余	-13097
卿	-13098
厳	-13099
及	-13100
密	-13101
巻	-13102
忍	-13103
抄	-13104
提	-13105
散	-13106
條	-13107
泉	-13108
禁	-13109
織	-13110
路	-13111
遠	-13112
韓	-13113
餅	-13114
首	-13115
è	-13116
•	-13117
〕	-13118
ウ	-13119
カ	-13120
ツ	-13121
奴	-13122
始	-13123
孝	-13124
帯	-13125
幸	-13126
庄	-13127
昌	-13128
機	-13129
求	-13130
泰	-13131
産	-13132
界	-13133
登	-13134
茶	-13135
萬	-13136
要	-13137
訳	-13138
議	-13139
護	-13140
輔	-13141
順	-13142
養	-13143
〔	-13144
ひ	-13145
ぶ	-13146
ア	-13147
丁	-13148
並	-13149
亦	-13150
半	-13151
又	-13152
友	-13153
史	-13154
号	-13155
寛	-13156
尺	-13157
巫	-13158
慧	-13159
故	-13160
斯	-13161
曰	-13162
末	-13163
李	-13164
柴	-13165
歳	-13166
池	-13167
派	-13168
珍	-13169
画	-13170
組	-13171
致	-13172
虎	-13173
解	-13174
赤	-13175
進	-13176
願	-13177
鴨	-13178
í	-13179
仰	-13180
例	-13181
共	-13182
具	-13183
典	-13184
処	-13185
努	-13186
卍	-13187
各	-13188
因	-13189
増	-13190
容	-13191
寄	-13192
急	-13193
憲	-13194
懐	-13195
才	-13196
星	-13197
格	-13198
稚	-13199
範	-13200
結	-13201
羽	-13202
色	-13203
蘇	-13204
郡	-13205
階	-13206
雅	-13207
食	-13208
麗	-13209
麿	-13210
ś	-13211
―	-13212
ざ	-13213
ど	-13214
ぬ	-13215
エ	-13216
チ	-13217
乗	-13218
何	-13219
像	-13220
剣	-13221
尓	-13222
崎	-13223
座	-13224
廻	-13225
摂	-13226
数	-13227
止	-13228
洞	-13229
澄	-13230
烏	-13231
猩	-13232
番	-13233
秦	-13234
綸	-13235
臨	-13236
舎	-13237
荷	-13238
菊	-13239
裏	-13240
読	-13241
資	-13242
釈	-13243
銭	-13244
非	-13245
ゆ	-13246
コ	-13247
ヒ	-13248
モ	-13249
両	-13250
乎	-13251
了	-13252
但	-13253
勅	-13254
受	-13255
塔	-13256
奥	-13257
婆	-13258
宜	-13259
戦	-13260
料	-13261
晴	-13262
歩	-13263
珠	-13264
益	-13265
破	-13266
紋	-13267
統	-13268
耳	-13269
耶	-13270
職	-13271
誓	-13272
賛	-13273
賜	-13274
遺	-13275
醤	-13276
陰	-13277
鶴	-13278
ね	-13279
ケ	-13280
ロ	-13281
侍	-13282
全	-13283
判	-13284
剛	-13285
叛	-13286
嘉	-13287
垣	-13288
延	-13289
悪	-13290
戊	-13291
指	-13292
昭	-13293
曽	-13294
望	-13295
柳	-13296
梁	-13297
油	-13298
漢	-13299
濃	-13300
燈	-13301
異	-13302
砲	-13303
磨	-13304
端	-13305
箏	-13306
翁	-13307
菟	-13308
補	-13309
訶	-13310
証	-13311
誠	-13312
車	-13313
辛	-13314
迦	-13315
速	-13316
邇	-13317
銀	-13318
餘	-13319
髪	-13320
е	-13321
タ	-13322
デ	-13323
バ	-13324
丈	-13325
丞	-13326
佛	-13327
億	-13328
児	-13329
冠	-13330
区	-13331
升	-13332
博	-13333
占	-13334
双	-13335
坐	-13336
夏	-13337
奇	-13338
寂	-13339
寸	-13340
対	-13341
岩	-13342
影	-13343
往	-13344
律	-13345
慈	-13346
栗	-13347
案	-13348
楼	-13349
澤	-13350
焼	-13351
磐	-13352
章	-13353
童	-13354
筆	-13355
綱	-13356
罪	-13357
置	-13358
船	-13359
菅	-13360
落	-13361
葦	-13362
財	-13363
閑	-13364
隠	-13365
題	-13366
類	-13367
魂	-13368
ã	-13369
ä	-13370
α	-13371
о	-13372
△	-13373
っ	-13374
ヘ	-13375
乱	-13376
亀	-13377
任	-13378
休	-13379
伴	-13380
便	-13381
俗	-13382
假	-13383
列	-13384
初	-13385
則	-13386
勇	-13387
団	-13388
堅	-13389
夢	-13390
威	-13391
寧	-13392
崇	-13393
巌	-13394
差	-13395
己	-13396
庶	-13397
弾	-13398
彌	-13399
役	-13400
悟	-13401
承	-13402
斗	-13403
断	-13404
曾	-13405
最	-13406
柏	-13407
決	-13408
淡	-13409
湖	-13410
湯	-13411
爲	-13412
片	-13413
版	-13414
略	-13415
當	-13416
祐	-13417
禰	-13418
穂	-13419
胤	-13420
舟	-13421
薬	-13422
製	-13423
許	-13424
詩	-13425
譜	-13426
讃	-13427
貫	-13428
軒	-13429
遅	-13430
随	-13431
雙	-13432
静	-13433
領	-13434
額	-13435
鮮	-13436
{	-13437
É	-13438
ì	-13439
÷	-13440
а	-13441
و	-13442
ṃ	-13443
ぞ	-13444
だ	-13445
ィ	-13446
セ	-13447
ベ	-13448
メ	-13449
ヶ	-13450
伎	-13451
伏	-13452
傳	-13453
刻	-13454
動	-13455
勤	-13456
卑	-13457
咒	-13458
塩	-13459
壽	-13460
好	-13461
宅	-13462
寮	-13463
岸	-13464
席	-13465
幡	-13466
廿	-13467
怪	-13468
恭	-13469
感	-13470
扇	-13471
拾	-13472
族	-13473
无	-13474
曼	-13475
朕	-13476
未	-13477
札	-13478
杵	-13479
柚	-13480
樹	-13481
活	-13482
浮	-13483
深	-13484
灯	-13485
牧	-13486
瑞	-13487
病	-13488
発	-13489
皆	-13490
県	-13491
磯	-13492
私	-13493
精	-13494
系	-13495
納	-13496
紹	-13497
經	-13498
象	-13499
負	-13500
起	-13501
逸	-13502
還	-13503
鈴	-13504
鑑	-13505
離	-13506
魔	-13507
鮓	-13508
}	-13509
ö	-13510
्	-13511
‰	-13512
ご	-13513
ゝ	-13514
ェ	-13515
ッ	-13516
乾	-13517
亥	-13518
仕	-13519
伽	-13520
侶	-13521
俊	-13522
冬	-13523
凡	-13524
勒	-13525
勘	-13526
句	-13527
嗣	-13528
堀	-13529
壱	-13530
妹	-13531
峰	-13532
幣	-13533
庭	-13534
恩	-13535
愛	-13536
懸	-13537
或	-13538
折	-13539
振	-13540
掛	-13541
斉	-13542
施	-13543
旧	-13544
果	-13545
楊	-13546
様	-13547
欲	-13548
滅	-13549
漫	-13550
煮	-13551
父	-13552
爾	-13553
牛	-13554
狗	-13555
盆	-13556
祇	-13557
祝	-13558
絶	-13559
綿	-13560
練	-13561
芝	-13562
袁	-13563
視	-13564
評	-13565
話	-13566
調	-13567
謹	-13568
酵	-13569
釋	-13570
閣	-13571
雑	-13572
難	-13573
電	-13574
露	-13575
駒	-13576
～	-13577
в	-13578
к	-13579
”	-13580
づ	-13581
ゑ	-13582
ヤ	-13583
丙	-13584
伺	-13585
冰	-13586
去	-13587
吹	-13588
周	-13589
呼	-13590
囃	-13591
壬	-13592
夕	-13593
委	-13594
娘	-13595
婦	-13596
宰	-13597
尋	-13598
岳	-13599
嶋	-13600
帰	-13601
幹	-13602
恕	-13603
情	-13604
想	-13605
打	-13606
揚	-13607
敷	-13608
斤	-13609
曲	-13610
染	-13611
校	-13612
桂	-13613
桃	-13614
桐	-13615
桜	-13616
森	-13617
毎	-13618
氷	-13619
浅	-13620
滋	-13621
猶	-13622
獅	-13623
的	-13624
眼	-13625
着	-13626
筑	-13627
管	-13628
粟	-13629
紅	-13630
藍	-13631
藝	-13632
蘆	-13633
詞	-13634
談	-13635
謂	-13636
識	-13637
貝	-13638
賞	-13639
贈	-13640
辨	-13641
送	-13642
遣	-13643
鉄	-13644
阪	-13645
附	-13646
雖	-13647
顔	-13648
骨	-13649
â	-13650
ñ	-13651
Đ	-13652
р	-13653
ا	-13654
र	-13655
ễ	-13656
ょ	-13657
ダ	-13658
亭	-13659
他	-13660
來	-13661
允	-13662
党	-13663
冷	-13664
刑	-13665
午	-13666
卒	-13667
叟	-13668
味	-13669
咫	-13670
員	-13671
回	-13672
垂	-13673
塵	-13674
妓	-13675
姓	-13676
存	-13677
就	-13678
尹	-13679
尽	-13680
属	-13681
帖	-13682
徹	-13683
恒	-13684
息	-13685
戒	-13686
拙	-13687
招	-13688
授	-13689
掌	-13690
早	-13691
梨	-13692
極	-13693
橘	-13694
櫛	-13695
淳	-13696
炊	-13697
煎	-13698
獲	-13699
甘	-13700
皮	-13701
砂	-13702
祥	-13703
禄	-13704
秘	-13705
積	-13706
窓	-13707
笠	-13708
籠	-13709
線	-13710
羊	-13711
群	-13712
聚	-13713
胴	-13714
膾	-13715
苦	-13716
荒	-13717
荼	-13718
菜	-13719
蕃	-13720
薙	-13721
薨	-13722
術	-13723
襖	-13724
覧	-13725
譲	-13726
遊	-13727
邊	-13728
配	-13729
鈔	-13730
鈞	-13731
鎮	-13732
陵	-13733
陶	-13734
隈	-13735
障	-13736
鮨	-13737
鷹	-13738
æ	-13739
ĭ	-13740
ō	-13741
ŏ	-13742
ǎ	-13743
с	-13744
म	-13745
ल	-13746
‐	-13747
‘	-13748
“	-13749
●	-13750
♭	-13751
ゐ	-13752
ガ	-13753
ブ	-13754
併	-13755
側	-13756
兄	-13757
医	-13758
協	-13759
単	-13760
卷	-13761
呪	-13762
問	-13763
報	-13764
声	-13765
姉	-13766
孤	-13767
宴	-13768
帳	-13769
底	-13770
廣	-13771
德	-13772
惟	-13773
掃	-13774
掠	-13775
敏	-13776
昧	-13777
暦	-13778
材	-13779
束	-13780
柄	-13781
棄	-13782
楠	-13783
歴	-13784
残	-13785
段	-13786
洗	-13787
洛	-13788
漬	-13789
漿	-13790
濟	-13791
爪	-13792
牒	-13793
狭	-13794
盤	-13795
眞	-13796
碧	-13797
祁	-13798
穀	-13799
穴	-13800
窯	-13801
算	-13802
篠	-13803
簪	-13804
籬	-13805
粉	-13806
約	-13807
純	-13808
給	-13809
維	-13810
緒	-13811
編	-13812
胸	-13813
般	-13814
芦	-13815
莫	-13816
藻	-13817
虚	-13818
融	-13819
詔	-13820
讀	-13821
賣	-13822
躬	-13823
輩	-13824
追	-13825
運	-13826
銅	-13827
銘	-13828
闇	-13829
隊	-13830
鞍	-13831
鴻	-13832
ê	-13833
ô	-13834
ú	-13835
ă	-13836
ق	-13837
ầ	-13838
⇒	-13839
《	-13840
》	-13841
ド	-13842
ユ	-13843
ワ	-13844
ヽ	-13845
且	-13846
丘	-13847
亜	-13848
個	-13849
充	-13850
凪	-13851
凶	-13852
到	-13853
副	-13854
勺	-13855
包	-13856
卯	-13857
叉	-13858
呉	-13859
哉	-13860
哲	-13861
商	-13862
執	-13863
墳	-13864
宋	-13865
寅	-13866
實	-13867
専	-13868
尻	-13869
已	-13870
帥	-13871
庁	-13872
店	-13873
庚	-13874
廃	-13875
弟	-13876
復	-13877
悲	-13878
惣	-13879
抜	-13880
拍	-13881
播	-13882
改	-13883
放	-13884
救	-13885
斐	-13886
暗	-13887
曇	-13888
曜	-13889
朱	-13890
杉	-13891
械	-13892
棚	-13893
棟	-13894
楯	-13895
槐	-13896
樂	-13897
歓	-13898
注	-13899
涼	-13900
淵	-13901
添	-13902
渓	-13903
渟	-13904
点	-13905
狩	-13906
猪	-13907
率	-13908
玖	-13909
甚	-13910
監	-13911
碁	-13912
碓	-13913
祀	-13914
禮	-13915
科	-13916
称	-13917
程	-13918
篭	-13919
簀	-13920
簡	-13921
細	-13922
縄	-13923
羹	-13924
習	-13925
考	-13926
聡	-13927
脈	-13928
臚	-13929
菓	-13930
蒲	-13931
衾	-13932
袋	-13933
襟	-13934
詠	-13935
譽	-13936
貢	-13937
貨	-13938
賊	-13939
趙	-13940
辞	-13941
遍	-13942
違	-13943
選	-13944
邦	-13945
郭	-13946
醍	-13947
醐	-13948
鎌	-13949
鐘	-13950
降	-13951
陳	-13952
隔	-13953
雷	-13954
頂	-13955
頓	-13956
飾	-13957
騎	-13958
験	-13959
鳳	-13960
鹵	-13961
@	-13962
«	-13963
»	-13964
ï	-13965
Ś	-13966
л	-13967
ج	-13968
ड	-13969
ण	-13970
◎	-13971
♯	-13972
ぼ	-13973
ギ	-13974
グ	-13975
ソ	-13976
パ	-13977
ュ	-13978
乳	-13979
争	-13980
倶	-13981
催	-13982
僕	-13983
優	-13984
兒	-13985
决	-13986
刃	-13987
刷	-13988
削	-13989
勾	-13990
卦	-13991
厚	-13992
叙	-13993
叢	-13994
召	-13995
吏	-13996
唯	-13997
唱	-13998
喪	-13999
喬	-14000
営	-14001
嗚	-14002
固	-14003
圭	-14004
堯	-14005
堺	-14006
墨	-14007
壇	-14008
壮	-14009
契	-14010
奠	-14011
妃	-14012
妖	-14013
妻	-14014
姬	-14015
孚	-14016
孟	-14017
封	-14018
尉	-14019
對	-14020
導	-14021
崩	-14022
嶽	-14023
巣	-14024
巳	-14025
巴	-14026
希	-14027
干	-14028
幽	-14029
幾	-14030
序	-14031
庫	-14032
強	-14033
彼	-14034
待	-14035
徒	-14036
必	-14037
忽	-14038
怒	-14039
愚	-14040
慎	-14041
戔	-14042
押	-14043
挙	-14044
既	-14045
易	-14046
昔	-14047
暁	-14048
替	-14049
杜	-14050
杼	-14051
板	-14052
枕	-14053
枳	-14054
柿	-14055
桑	-14056
梵	-14057
検	-14058
泊	-14059
泥	-14060
洋	-14061
洌	-14062
消	-14063
淑	-14064
港	-14065
漆	-14066
演	-14067
瀧	-14068
熟	-14069
牌	-14070
牙	-14071
狄	-14072
独	-14073
獄	-14074
琵	-14075
琶	-14076
環	-14077
畢	-14078
疏	-14079
疾	-14080
盧	-14081
督	-14082
示	-14083
究	-14084
竈	-14085
竟	-14086
笑	-14087
笛	-14088
符	-14089
筅	-14090
箭	-14091
絃	-14092
続	-14093
總	-14094
肥	-14095
肩	-14096
胡	-14097
腐	-14098
蒙	-14099
蓄	-14100
蓋	-14101
衡	-14102
袍	-14103
裁	-14104
裡	-14105
裴	-14106
覇	-14107
規	-14108
覺	-14109
訓	-14110
託	-14111
設	-14112
講	-14113
辯	-14114
逆	-14115
途	-14116
遥	-14117
酔	-14118
酢	-14119
醸	-14120
錦	-14121
錬	-14122
鍋	-14123
鍬	-14124
閻	-14125
闕	-14126
除	-14127
際	-14128
雀	-14129
霧	-14130
韻	-14131
飩	-14132
飼	-14133
餓	-14134
鳴	-14135
麟	-14136
해	-14137
$	-14138
¥	-14139
±	-14140
ò	-14141
ǔ	-14142
β	-14143
и	-14144
н	-14145
ل	-14146
श	-14147
ạ	-14148
◆	-14149
◇	-14150
「	-14151
」	-14152
ゅ	-14153
ジ	-14154
ズ	-14155
ゼ	-14156
プ	-14157
ボ	-14158
ャ	-14159
ョ	-14160
两	-14161
乘	-14162
亘	-14163
亮	-14164
件	-14165
俀	-14166
俣	-14167
倫	-14168
偈	-14169
偏	-14170
停	-14171
兜	-14172
再	-14173
刺	-14174
勧	-14175
勲	-14176
叡	-14177
告	-14178
咲	-14179
嘯	-14180
圓	-14181
型	-14182
埼	-14183
堡	-14184
堰	-14185
塚	-14186
境	-14187
壁	-14188
失	-14189
奏	-14190
宏	-14191
寶	-14192
屏	-14193
屠	-14194
屯	-14195
峠	-14196
崔	-14197
工	-14198
巨	-14199
并	-14200
床	-14201
廷	-14202
弦	-14203
弱	-14204
彰	-14205
徴	-14206
快	-14207
悉	-14208
慕	-14209
應	-14210
戌	-14211
扶	-14212
投	-14213
披	-14214
拝	-14215
探	-14216
接	-14217
擬	-14218
斛	-14219
晶	-14220
暴	-14221
朋	-14222
朴	-14223
析	-14224
枯	-14225
某	-14226
株	-14227
植	-14228
楓	-14229
槿	-14230
樫	-14231
檜	-14232
櫻	-14233
殺	-14234
毀	-14235
毫	-14236
氣	-14237
汰	-14238
沈	-14239
沼	-14240
浜	-14241
混	-14242
滝	-14243
潤	-14244
濱	-14245
炳	-14246
焉	-14247
犬	-14248
献	-14249
璽	-14250
瓜	-14251
甫	-14252
畑	-14253
癸	-14254
眉	-14255
矣	-14256
矩	-14257
穢	-14258
竪	-14259
笙	-14260
筒	-14261
箇	-14262
箱	-14263
簫	-14264
紗	-14265
級	-14266
絞	-14267
絲	-14268
絹	-14269
繁	-14270
纏	-14271
肖	-14272
脇	-14273
膳	-14274
臈	-14275
范	-14276
茄	-14277
菴	-14278
藏	-14279
藩	-14280
虫	-14281
蛇	-14282
蟹	-14283
袖	-14284
詣	-14285
詮	-14286
誕	-14287
諒	-14288
諱	-14289
謝	-14290
變	-14291
責	-14292
贄	-14293
超	-14294
転	-14295
載	-14296
迄	-14297
迎	-14298
迹	-14299
逢	-14300
遂	-14301
過	-14302
遙	-14303
適	-14304
鄭	-14305
酺	-14306
醇	-14307
釜	-14308
鉏	-14309
鏃	-14310
閇	-14311
閤	-14312
闍	-14313
闘	-14314
闡	-14315
阮	-14316
陣	-14317
陪	-14318
隅	-14319
隨	-14320
雁	-14321
霞	-14322
霽	-14323
靄	-14324
革	-14325
鞆	-14326
魯	-14327
黙	-14328
黴	-14329
구	-14330
용	-14331
이	-14332
^	-14333
ë	-14334
ē	-14335
š	-14336
ə	-14337
ɸ	-14338
К	-14339
п	-14340
я	-14341
ك	-14342
ن	-14343
ध	-14344
ा	-14345
ि	-14346
ṛ	-14347
‛	-14348
←	-14349
☆	-14350
ぐ	-14351
ゴ	-14352
ホ	-14353
丑	-14354
丿	-14355
乍	-14356
亡	-14357
享	-14358
仍	-14359
仮	-14360
伐	-14361
似	-14362
借	-14363
倦	-14364
傍	-14365
傾	-14366
儒	-14367
儺	-14368
兆	-14369
免	-14370
兎	-14371
冀	-14372
凝	-14373
刊	-14374
剪	-14375
劫	-14376
労	-14377
匁	-14378
卓	-14379
厓	-14380
厨	-14381
呑	-14382
咖	-14383
哩	-14384
哭	-14385
唄	-14386
啄	-14387
啼	-14388
圀	-14389
圏	-14390
圧	-14391
址	-14392
垝	-14393
埠	-14394
堆	-14395
堤	-14396
堪	-14397
堵	-14398
塞	-14399
壷	-14400
壺	-14401
夭	-14402
妣	-14403
妾	-14404
娑	-14405
媱	-14406
客	-14407
寒	-14408
寝	-14409
察	-14410
將	-14411
尤	-14412
岑	-14413
嶺	-14414
巖	-14415
巷	-14416
廄	-14417
廓	-14418
廬	-14419
弐	-14420
弖	-14421
弩	-14422
彙	-14423
彥	-14424
徑	-14425
徙	-14426
怡	-14427
怨	-14428
恐	-14429
恢	-14430
悦	-14431
惠	-14432
憂	-14433
挺	-14434
採	-14435
掬	-14436
換	-14437
損	-14438
摹	-14439
撃	-14440
撰	-14441
操	-14442
敗	-14443
敦	-14444
敵	-14445
斬	-14446
旅	-14447
旦	-14448
旻	-14449
暖	-14450
曙	-14451
朔	-14452
期	-14453
枉	-14454
枡	-14455
柱	-14456
柵	-14457
椿	-14458
槃	-14459
槻	-14460
樋	-14461
櫓	-14462
歎	-14463
歯	-14464
殳	-14465
汁	-14466
泡	-14467
洪	-14468
洲	-14469
淤	-14470
渋	-14471
準	-14472
潮	-14473
灌	-14474
烈	-14475
烟	-14476
煕	-14477
煩	-14478
熈	-14479
熨	-14480
牡	-14481
狼	-14482
猛	-14483
珂	-14484
球	-14485
琢	-14486
瓦	-14487
甕	-14488
畏	-14489
畝	-14490
盞	-14491
睡	-14492
研	-14493
磔	-14494
礫	-14495
祈	-14496
祕	-14497
祢	-14498
租	-14499
税	-14500
突	-14501
竃	-14502
笈	-14503
笥	-14504
答	-14505
策	-14506
粋	-14507
粕	-14508
粥	-14509
糖	-14510
糟	-14511
紐	-14512
索	-14513
終	-14514
綜	-14515
網	-14516
綺	-14517
緑	-14518
繰	-14519
罔	-14520
翼	-14521
耜	-14522
聯	-14523
聲	-14524
肉	-14525
肌	-14526
脚	-14527
脩	-14528
腰	-14529
舊	-14530
舜	-14531
芯	-14532
苑	-14533
茗	-14534
菱	-14535
薄	-14536
薫	-14537
藪	-14538
藹	-14539
處	-14540
號	-14541
蛮	-14542
蜜	-14543
蝶	-14544
血	-14545
衍	-14546
衝	-14547
衿	-14548
裂	-14549
裔	-14550
裳	-14551
裹	-14552
複	-14553
褌	-14554
訪	-14555
試	-14556
誡	-14557
誦	-14558
諏	-14559
謙	-14560
謡	-14561
豅	-14562
豪	-14563
費	-14564
赫	-14565
走	-14566
趯	-14567
跋	-14568
践	-14569
踊	-14570
蹟	-14571
軽	-14572
辟	-14573
農	-14574
辻	-14575
返	-14576
述	-14577
逝	-14578
遐	-14579
遮	-14580
遵	-14581
邑	-14582
郊	-14583
酸	-14584
釉	-14585
針	-14586
釣	-14587
釵	-14588
鈿	-14589
鉢	-14590
鉦	-14591
銃	-14592
鋪	-14593
鍾	-14594
鑒	-14595
閉	-14596
關	-14597
防	-14598
限	-14599
雌	-14600
雕	-14601
雞	-14602
霉	-14603
霾	-14604
靡	-14605
韶	-14606
頃	-14607
頌	-14608
顛	-14609
飲	-14610
饅	-14611
饒	-14612
饗	-14613
馨	-14614
馳	-14615
駄	-14616
駅	-14617
駙	-14618
駿	-14619
騒	-14620
驚	-14621
鯉	-14622
鯨	-14623
鱠	-14624
鴎	-14625
鵜	-14626
鶏	-14627
鷲	-14628
麦	-14629
鼓	-14630
국	-14631
동	-14632
선	-14633
장	-14634
조	-14635
·	-14636
×	-14637
ù	-14638
Ā	-14639
ž	-14640
ʃ	-14641
ː	-14642
А	-14643
П	-14644
Р	-14645
г	-14646
й	-14647
м	-14648
т	-14649
у	-14650
ц	-14651
ر	-14652
م	-14653
ی	-14654
क	-14655
त	-14656
ब	-14657
व	-14658
ी	-14659
े	-14660
ो	-14661
ṇ	-14662
ả	-14663
↔	-14664
−	-14665
〇	-14666
〜	-14667
ぢ	-14668
ゃ	-14669
゚	-14670
ァ	-14671
ゲ	-14672
ザ	-14673
ヌ	-14674
ネ	-14675
ビ	-14676
ペ	-14677
ポ	-14678
ヰ	-14679
ヴ	-14680
丕	-14681
串	-14682
予	-14683
于	-14684
亨	-14685
仗	-14686
伸	-14687
伻	-14688
佑	-14689
侠	-14690
価	-14691
侵	-14692
値	-14693
克	-14694
兌	-14695
写	-14696
冨	-14697
冶	-14698
准	-14699
刈	-14700
劔	-14701
励	-14702
勉	-14703
勿	-14704
匂	-14705
匠	-14706
匡	-14707
卅	-14708
却	-14709
卵	-14710
収	-14711
叔	-14712
叶	-14713
哀	-14714
啓	-14715
喰	-14716
嚼	-14717
囻	-14718
圜	-14719
坡	-14720
埵	-14721
埿	-14722
塊	-14723
夲	-14724
夾	-14725
奚	-14726
奯	-14727
婁	-14728
嫁	-14729
孔	-14730
宸	-14731
寡	-14732
審	-14733
尸	-14734
展	-14735
岱	-14736
峻	-14737
巧	-14738
帛	-14739
帶	-14740
帷	-14741
帽	-14742
幕	-14743
幟	-14744
幵	-14745
廊	-14746
廼	-14747
弈	-14748
弉	-14749
弭	-14750
彩	-14751
彫	-14752
徂	-14753
徇	-14754
徐	-14755
微	-14756
忘	-14757
忿	-14758
悔	-14759
悶	-14760
惜	-14761
惶	-14762
愆	-14763
憚	-14764
憤	-14765
懲	-14766
懺	-14767
懿	-14768
戀	-14769
战	-14770
戮	-14771
戯	-14772
戰	-14773
技	-14774
抑	-14775
拱	-14776
拳	-14777
按	-14778
挿	-14779
捔	-14780
排	-14781
掲	-14782
掾	-14783
揆	-14784
握	-14785
揮	-14786
搗	-14787
携	-14788
撇	-14789
撞	-14790
撥	-14791
撫	-14792
據	-14793
攘	-14794
敒	-14795
敝	-14796
旗	-14797
旡	-14798
旱	-14799
昇	-14800
映	-14801
昨	-14802
昵	-14803
昼	-14804
晁	-14805
晃	-14806
晋	-14807
晩	-14808
暇	-14809
暉	-14810
暮	-14811
曉	-14812
曳	-14813
曹	-14814
杏	-14815
杖	-14816
杮	-14817
枹	-14818
柔	-14819
栖	-14820
桴	-14821
梛	-14822
梧	-14823
梯	-14824
椎	-14825
椙	-14826
楞	-14827
楢	-14828
楷	-14829
榊	-14830
榎	-14831
構	-14832
槌	-14833
槍	-14834
樓	-14835
標	-14836
樸	-14837
樽	-14838
檀	-14839
檉	-14840
櫃	-14841
欠	-14842
欣	-14843
歟	-14844
殆	-14845
殊	-14846
殖	-14847
殯	-14848
殷	-14849
毬	-14850
汚	-14851
汝	-14852
沒	-14853
沖	-14854
沿	-14855
浴	-14856
淋	-14857
淸	-14858
淺	-14859
渉	-14860
温	-14861
湍	-14862
湛	-14863
溝	-14864
溪	-14865
溶	-14866
溷	-14867
滴	-14868
漁	-14869
漏	-14870
漸	-14871
潔	-14872
潜	-14873
灰	-14874
炙	-14875
炬	-14876
熙	-14877
熹	-14878
燕	-14879
特	-14880
狂	-14881
狐	-14882
狛	-14883
猟	-14884
猿	-14885
珎	-14886
琳	-14887
瓶	-14888
畜	-14889
畠	-14890
畸	-14891
疎	-14892
癡	-14893
皃	-14894
皐	-14895
皿	-14896
盟	-14897
看	-14898
眠	-14899
瞋	-14900
矛	-14901
短	-14902
砕	-14903
砦	-14904
碍	-14905
碩	-14906
礙	-14907
祗	-14908
祚	-14909
祠	-14910
祷	-14911
禎	-14912
禽	-14913
稙	-14914
稜	-14915
穆	-14916
穉	-14917
穐	-14918
窠	-14919
窪	-14920
竝	-14921
競	-14922
筋	-14923
篇	-14924
築	-14925
篋	-14926
簸	-14927
籍	-14928
籐	-14929
粂	-14930
粲	-14931
糴	-14932
糸	-14933
紛	-14934
累	-14935
綏	-14936
綾	-14937
緯	-14938
縛	-14939
縣	-14940
縮	-14941
績	-14942
罐	-14943
羲	-14944
翠	-14945
翰	-14946
耀	-14947
耆	-14948
耨	-14949
聴	-14950
肇	-14951
肝	-14952
育	-14953
肴	-14954
脅	-14955
腋	-14956
臂	-14957
臼	-14958
舅	-14959
舌	-14960
舘	-14961
艸	-14962
芾	-14963
苅	-14964
苗	-14965
茅	-14966
茲	-14967
荑	-14968
葬	-14969
葱	-14970
葺	-14971
蓑	-14972
蔀	-14973
蔚	-14974
蔭	-14975
蕙	-14976
薺	-14977
藉	-14978
藐	-14979
虔	-14980
虞	-14981
蚊	-14982
蜀	-14983
蜂	-14984
螺	-14985
蠡	-14986
街	-14987
衷	-14988
裕	-14989
襲	-14990
覆	-14991
覲	-14992
觚	-14993
触	-14994
訂	-14995
誥	-14996
誰	-14997
諧	-14998
諭	-14999
諾	-15000
謄	-15001
謨	-15002
證	-15003
讖	-15004
豈	-15005
豎	-15006
貪	-15007
買	-15008
賤	-15009
購	-15010
趣	-15011
跙	-15012
跪	-15013
踞	-15014
蹈	-15015
蹢	-15016
蹲	-15017
躰	-15018
軌	-15019
軸	-15020
軺	-15021
輕	-15022
輸	-15023
轟	-15024
迂	-15025
迷	-15026
逍	-15027
透	-15028
逮	-15029
遭	-15030
避	-15031
邨	-15032
酷	-15033
醉	-15034
醗	-15035
鉤	-15036
銖	-15037
鋠	-15038
鋤	-15039
錫	-15040
鏑	-15041
鑪	-15042
阡	-15043
阼	-15044
陋	-15045
陬	-15046
隣	-15047
隹	-15048
隼	-15049
雇	-15050
霜	-15051
鞴	-15052
韋	-15053
韙	-15054
韜	-15055
項	-15056
預	-15057
顧	-15058
顯	-15059
飴	-15060
飽	-15061
餡	-15062
餫	-15063
饌	-15064
驛	-15065
髻	-15066
魅	-15067
魏	-15068
鰐	-15069
鲜	-15070
鳩	-15071
鵠	-15072
鸞	-15073
鹽	-15074
麓	-15075
麛	-15076
麩	-15077
麵	-15078
齒	-15079
齢	-15080
齧	-15081
나	-15082
라	-15083
본	-15084
일	-15085
황	-15086
|	-15087
	-15088
Ä	-15089
Í	-15090
Ï	-15091
Ö	-15092
Ü	-15093
õ	-15094
ý	-15095
č	-15096
ĕ	-15097
ě	-15098
ĩ	-15099
Ĵ	-15100
ł	-15101
ş	-15102
ũ	-15103
ų	-15104
ɕ	-15105
Ω	-15106
γ	-15107
θ	-15108
κ	-15109
ο	-15110
π	-15111
ς	-15112
τ	-15113
υ	-15114
ώ	-15115
Б	-15116
В	-15117
Д	-15118
Е	-15119
Ф	-15120
Э	-15121
Я	-15122
д	-15123
ч	-15124
ш	-15125
ь	-15126
э	-15127
ю	-15128
س	-15129
ه	-15130
ى	-15131
ँ	-15132
अ	-15133
घ	-15134
द	-15135
प	-15136
य	-15137
स	-15138
ु	-15139
ḍ	-15140
ṅ	-15141
ṣ	-15142
ṭ	-15143
ậ	-15144
ế	-15145
ệ	-15146
ộ	-15147
ὀ	-15148
†	-15149
⁄	-15150
√	-15151
∞	-15152
∧	-15153
∨	-15154
『	-15155
』	-15156
【	-15157
】	-15158
〒	-15159
〓	-15160
ゞ	-15161
ォ	-15162
ゾ	-15163
ヂ	-15164
ピ	-15165
ヷ	-15166
乞	-15167
仆	-15168
佚	-15169
佳	-15170
侈	-15171
侑	-15172
侭	-15173
係	-15174
俄	-15175
俟	-15176
俥	-15177
俳	-15178
俵	-15179
俶	-15180
俾	-15181
們	-15182
偕	-15183
健	-15184
偲	-15185
偽	-15186
傀	-15187
傅	-15188
傭	-15189
傲	-15190
傷	-15191
僊	-15192
働	-15193
僐	-15194
僖	-15195
僣	-15196
僻	-15197
儡	-15198
兔	-15199
兩	-15200
兮	-15201
冉	-15202
冊	-15203
冗	-15204
冢	-15205
冥	-15206
冽	-15207
凞	-15208
几	-15209
凰	-15210
凸	-15211
凹	-15212
函	-15213
券	-15214
刹	-15215
剖	-15216
割	-15217
創	-15218
劉	-15219
劣	-15220
効	-15221
勁	-15222
勞	-15223
募	-15224
勣	-15225
匀	-15226
匝	-15227
匹	-15228
區	-15229
卉	-15230
卜	-15231
卡	-15232
卫	-15233
历	-15234
厩	-15235
厭	-15236
只	-15237
叱	-15238
吊	-15239
吐	-15240
吟	-15241
含	-15242
呈	-15243
呵	-15244
咎	-15245
咤	-15246
咩	-15247
咸	-15248
哥	-15249
唎	-15250
唵	-15251
唼	-15252
喩	-15253
喻	-15254
嗟	-15255
嘆	-15256
嘱	-15257
噉	-15258
噌	-15259
噛	-15260
囁	-15261
囲	-15262
囿	-15263
圃	-15264
圖	-15265
團	-15266
圣	-15267
坏	-15268
坤	-15269
坦	-15270
坪	-15271
埃	-15272
域	-15273
埴	-15274
培	-15275
塗	-15276
塘	-15277
填	-15278
塾	-15279
墓	-15280
墜	-15281
增	-15282
墾	-15283
壊	-15284
壕	-15285
复	-15286
央	-15287
夸	-15288
奢	-15289
妤	-15290
妨	-15291
姜	-15292
姥	-15293
娶	-15294
婕	-15295
婚	-15296
婢	-15297
婬	-15298
媞	-15299
媽	-15300
媾	-15301
嫌	-15302
嫡	-15303
嬢	-15304
嬥	-15305
嬪	-15306
嬾	-15307
孁	-15308
孰	-15309
宀	-15310
宕	-15311
宙	-15312
宛	-15313
宥	-15314
宵	-15315
寇	-15316
尖	-15317
層	-15318
屬	-15319
峙	-15320
峡	-15321
峨	-15322
峽	-15323
崋	-15324
崗	-15325
崙	-15326
崢	-15327
嵓	-15328
嶠	-15329
巒	-15330
巓	-15331
巡	-15332
巽	-15333
幅	-15334
幻	-15335
幼	-15336
庇	-15337
庸	-15338
廂	-15339
廉	-15340
廔	-15341
廟	-15342
廩	-15343
弌	-15344
弑	-15345
弗	-15346
弼	-15347
弽	-15348
彔	-15349
彗	-15350
彭	-15351
征	-15352
從	-15353
徠	-15354
徧	-15355
循	-15356
徵	-15357
忖	-15358
忝	-15359
忩	-15360
忻	-15361
怖	-15362
怙	-15363
怛	-15364
恆	-15365
恙	-15366
恠	-15367
恥	-15368
悆	-15369
悠	-15370
悩	-15371
惧	-15372
惨	-15373
愁	-15374
愈	-15375
愧	-15376
態	-15377
慍	-15378
慚	-15379
慥	-15380
慮	-15381
憎	-15382
憐	-15383
憑	-15384
憧	-15385
憶	-15386
戎	-15387
截	-15388
戴	-15389
戶	-15390
扁	-15391
扈	-15392
扉	-15393
払	-15394
扱	-15395
択	-15396
抱	-15397
拈	-15398
拉	-15399
拏	-15400
拜	-15401
拠	-15402
括	-15403
挌	-15404
捃	-15405
捕	-15406
捨	-15407
捺	-15408
捻	-15409
掖	-15410
控	-15411
推	-15412
掩	-15413
措	-15414
揃	-15415
揖	-15416
揺	-15417
搬	-15418
摘	-15419
摺	-15420
撐	-15421
撓	-15422
撤	-15423
撲	-15424
擁	-15425
擔	-15426
擧	-15427
擱	-15428
攝	-15429
攤	-15430
攵	-15431
攻	-15432
效	-15433
敍	-15434
整	-15435
數	-15436
斟	-15437
斧	-15438
旺	-15439
昆	-15440
昉	-15441
昻	-15442
晄	-15443
晉	-15444
晏	-15445
晙	-15446
晟	-15447
晦	-15448
晨	-15449
晰	-15450
暑	-15451
暘	-15452
曠	-15453
會	-15454
朶	-15455
朽	-15456
杢	-15457
杣	-15458
杭	-15459
枋	-15460
枠	-15461
架	-15462
柀	-15463
柑	-15464
桁	-15465
桓	-15466
桝	-15467
桶	-15468
梟	-15469
梢	-15470
梶	-15471
棊	-15472
棒	-15473
棺	-15474
楨	-15475
楫	-15476
概	-15477
榕	-15478
榮	-15479
榻	-15480
槊	-15481
槙	-15482
槨	-15483
槲	-15484
槽	-15485
樔	-15486
樞	-15487
模	-15488
樴	-15489
樺	-15490
橄	-15491
橒	-15492
橙	-15493
橿	-15494
檄	-15495
檔	-15496
檗	-15497
櫨	-15498
欺	-15499
款	-15500
歛	-15501
歲	-15502
歸	-15503
殀	-15504
殘	-15505
殻	-15506
毒	-15507
氐	-15508
氵	-15509
汾	-15510
況	-15511
泄	-15512
泛	-15513
泣	-15514
洒	-15515
洩	-15516
洽	-15517
济	-15518
浩	-15519
浸	-15520
浿	-15521
涇	-15522
涌	-15523
涛	-15524
淨	-15525
淬	-15526
渕	-15527
渠	-15528
渦	-15529
湊	-15530
湘	-15531
湾	-15532
溢	-15533
溥	-15534
滑	-15535
滓	-15536
滞	-15537
滾	-15538
漕	-15539
漣	-15540
潙	-15541
潞	-15542
潭	-15543
澹	-15544
濁	-15545
濠	-15546
濫	-15547
濬	-15548
濯	-15549
瀆	-15550
瀋	-15551
瀚	-15552
瀨	-15553
瀲	-15554
瀹	-15555
瀾	-15556
灑	-15557
灣	-15558
災	-15559
炉	-15560
炭	-15561
炷	-15562
烹	-15563
焔	-15564
焙	-15565
焚	-15566
熏	-15567
熬	-15568
熱	-15569
燁	-15570
燃	-15571
燔	-15572
營	-15573
燦	-15574
爆	-15575
爐	-15576
爛	-15577
爭	-15578
爰	-15579
牀	-15580
犂	-15581
犭	-15582
猥	-15583
猫	-15584
猷	-15585
獏	-15586
珈	-15587
珊	-15588
珞	-15589
珪	-15590
琊	-15591
琥	-15592
琨	-15593
瑛	-15594
瑠	-15595
瑯	-15596
瑳	-15597
瑾	-15598
璋	-15599
瓔	-15600
甯	-15601
畔	-15602
畳	-15603
疆	-15604
疋	-15605
疑	-15606
症	-15607
痒	-15608
痛	-15609
痴	-15610
療	-15611
癒	-15612
發	-15613
皀	-15614
皋	-15615
皷	-15616
盂	-15617
盈	-15618
盒	-15619
盗	-15620
眚	-15621
眤	-15622
眷	-15623
眺	-15624
睍	-15625
睿	-15626
瞞	-15627
砌	-15628
硫	-15629
硯	-15630
確	-15631
磁	-15632
磋	-15633
磤	-15634
磧	-15635
礎	-15636
礴	-15637
祉	-15638
祟	-15639
祿	-15640
禧	-15641
禪	-15642
禾	-15643
秩	-15644
稀	-15645
稔	-15646
稗	-15647
稷	-15648
稻	-15649
稿	-15650
窒	-15651
窗	-15652
窟	-15653
窮	-15654
竇	-15655
竰	-15656
竺	-15657
笨	-15658
笮	-15659
筈	-15660
筌	-15661
筍	-15662
筏	-15663
筮	-15664
筯	-15665
箋	-15666
箒	-15667
箕	-15668
篆	-15669
篤	-15670
簒	-15671
簾	-15672
籌	-15673
籙	-15674
粛	-15675
粧	-15676
粳	-15677
糒	-15678
糶	-15679
紳	-15680
紵	-15681
紺	-15682
絡	-15683
綫	-15684
綬	-15685
緋	-15686
締	-15687
緩	-15688
縞	-15689
縦	-15690
縫	-15691
縷	-15692
繇	-15693
繕	-15694
繩	-15695
繫	-15696
纒	-15697
缶	-15698
罡	-15699
羨	-15700
羯	-15701
翔	-15702
翫	-15703
翻	-15704
耕	-15705
耗	-15706
聊	-15707
聰	-15708
肆	-15709
肢	-15710
胆	-15711
胎	-15712
胙	-15713
胞	-15714
脂	-15715
脊	-15716
脞	-15717
脱	-15718
腹	-15719
腺	-15720
膝	-15721
膰	-15722
膵	-15723
膸	-15724
臥	-15725
臭	-15726
舂	-15727
舍	-15728
舒	-15729
舗	-15730
航	-15731
舫	-15732
艇	-15733
艦	-15734
艮	-15735
艶	-15736
节	-15737
芒	-15738
芙	-15739
芥	-15740
芬	-15741
芹	-15742
苔	-15743
苛	-15744
苟	-15745
苧	-15746
茆	-15747
茵	-15748
荐	-15749
莵	-15750
菌	-15751
菖	-15752
菫	-15753
菽	-15754
葆	-15755
葡	-15756
董	-15757
葵	-15758
蒂	-15759
蒋	-15760
蒔	-15761
蒭	-15762
蒿	-15763
蓉	-15764
蔓	-15765
蔕	-15766
蔡	-15767
蔬	-15768
蕉	-15769
蕎	-15770
蕨	-15771
蕩	-15772
蕪	-15773
蕭	-15774
薤	-15775
蘊	-15776
蘋	-15777
蘿	-15778
虠	-15779
蚶	-15780
蛙	-15781
蛤	-15782
蜷	-15783
蝎	-15784
螣	-15785
蟇	-15786
蟫	-15787
蟻	-15788
蠱	-15789
衞	-15790
衰	-15791
衽	-15792
袱	-15793
袵	-15794
装	-15795
裙	-15796
褐	-15797
褒	-15798
褥	-15799
褧	-15800
襄	-15801
覗	-15802
觝	-15803
觸	-15804
訊	-15805
訖	-15806
訟	-15807
訴	-15808
診	-15809
註	-15810
詰	-15811
詳	-15812
誌	-15813
認	-15814
課	-15815
誹	-15816
誾	-15817
諍	-15818
諡	-15819
諦	-15820
諳	-15821
諺	-15822
謐	-15823
謳	-15824
譯	-15825
谿	-15826
豐	-15827
豫	-15828
貉	-15829
貳	-15830
貿	-15831
賂	-15832
賓	-15833
賦	-15834
贏	-15835
赦	-15836
趾	-15837
跏	-15838
踏	-15839
蹊	-15840
蹤	-15841
躊	-15842
躯	-15843
躾	-15844
軾	-15845
較	-15846
輿	-15847
迫	-15848
退	-15849
逓	-15850
這	-15851
遇	-15852
遡	-15853
邁	-15854
邉	-15855
郁	-15856
郞	-15857
郵	-15858
鄉	-15859
鄒	-15860
鄷	-15861
酉	-15862
酌	-15863
酎	-15864
醒	-15865
醞	-15866
醪	-15867
醱	-15868
采	-15869
鈍	-15870
鈐	-15871
銑	-15872
銕	-15873
銜	-15874
鋌	-15875
鋭	-15876
鋳	-15877
錀	-15878
錄	-15879
錆	-15880
錍	-15881
鍔	-15882
鍛	-15883
鎖	-15884
鎚	-15885
鎧	-15886
鎰	-15887
鐃	-15888
鐐	-15889
鐡	-15890
鐵	-15891
鑓	-15892
鑰	-15893
鑽	-15894
閦	-15895
閩	-15896
闌	-15897
闢	-15898
阯	-15899
陌	-15900
陛	-15901
隋	-15902
隘	-15903
險	-15904
雉	-15905
雍	-15906
雛	-15907
雜	-15908
需	-15909
霄	-15910
震	-15911
霖	-15912
靈	-15913
靖	-15914
靫	-15915
鞭	-15916
響	-15917
頎	-15918
頑	-15919
頤	-15920
頬	-15921
顆	-15922
飫	-15923
餛	-15924
饂	-15925
馭	-15926
馴	-15927
駆	-15928
駐	-15929
駱	-15930
騁	-15931
騨	-15932
騶	-15933
驟	-15934
驢	-15935
體	-15936
髟	-15937
鬚	-15938
鬨	-15939
魍	-15940
魎	-15941
魑	-15942
鮎	-15943
鮑	-15944
鮹	-15945
鰒	-15946
鰕	-15947
鰹	-15948
鰻	-15949
鱈	-15950
鱧	-15951
鵞	-15952
鶉	-15953
鶯	-15954
鷗	-15955
鷧	-15956
鷺	-15957
麁	-15958
麑	-15959
麒	-15960
麹	-15961
麺	-15962
黃	-15963
黌	-15964
黑	-15965
點	-15966
黷	-15967
黽	-15968
鼎	-15969
鼻	-15970
齋	-15971
齣	-15972
龐	-15973
龔	-15974
龗	-15975
龝	-15976
고	-15977
관	-15978
금	-15979
대	-15980
마	-15981
박	-15982
보	-15983
사	-15984
영	-15985
왜	-15986
우	-15987
의	-15988
정	-15989
제	-15990
줄	-15991
천	-15992
총	-15993
한	-15994
효	-15995
